#version: 0.2
Ã ¡
e a
. .
i d
u o
Å ¡
Ġ d
l a
Ġ g
Ġ s
a h
a s
m i
Ġ j
Ġ l
a t
Ġ o
u s
i n
t t
a n
i t
Ġj a
Ä ĳ
Ġ m
Ġ b
i e
a l
.. ..
k k
Ä į
Ġl ea
d d
v v
Ġ v
i i
t e
a r
i s
Ã¡ l
a id
m e
g g
Ã¡ h
Ã¡ i
t a
Ã¡ r
Ġ S
Ã¡ n
o n
e r
la Å¡
l l
i id
Ġ r
r r
u vv
Ã¡ me
.... ....
e t
Ã¡ s
a Å¡
a g
o a
v d
v uo
e n
Ġ n
Ġ ea
u h
d i
Ã¡ mi
o r
i h
m a
Ġlea t
Å ¾
Ġ Äį
o h
a d
t u
Ġ 1
j e
k u
0 0
v tt
Ġ 2
Ġ mi
o s
Ġ D
Ġ f
Ġ h
ah te
o d
Ġ ahte
Ã¡me di
ah p
o l
Ġv uo
i r
e h
k a
ie l
e l
u t
vuo Äĳ
e s
Ġg o
v dd
o t
e g
o g
i l
Ġg ea
b m
m m
Äĳ Äĳ
........ ........
Äį Äį
Ġs Ã¡mi
Ġg uo
ea r
Ã¡ d
o j
s s
d e
Ġ p
n n
i g
Ġ M
â Ģ
Ġ (
a in
i v
rr a
ĠS Ã¡medi
u id
Ã¡ g
Ã¡ Å¡
u i
uvv on
ea h
Ã¡ la
e j
Ġm aid
u l
ea n
Ã¡ t
Ġ G
j a
k t
Ã¡h tt
oa i
Å ĭ
ar g
al la
ie la
Ã¡ id
uo r
kk i
Ã¡me g
o Å¡
Ġo ahp
a m
Ġ N
Ġg al
uo h
ea p
ea l
u Å¡
gg i
Ġ O
al l
j i
us a
e d
u in
Ã¡ v
as t
u n
o ah
ea mi
Ġ B
ea rr
p p
o laÅ¡
Ġ R
n a
Ġ Ã¡l
Ġs t
Ġ e
r Ã¡
d a
Ġd o
Ġ E
Ġ L
u r
iel la
b b
k an
i in
Ġ A
uvv o
a laÅ¡
Ã ģ
ea dd
e v
Ġd an
Ġb i
ku l
0 1
u v
Ġ k
Ã¡l l
Ġgal g
Ġ 3
Ġn u
Ġmi i
kul tu
t o
Ġo vdd
Ã¡l dd
k ta
Ġ ii
Ġ ie
h ta
Ã¡s t
Ã¡ laÅ¡
Ġo l
p ar
Ã¡h us
v ll
tt a
Ġd ah
Ġ Ã¡i
Ġs Ã¡meg
Ġo vd
g e
Ġs Ã¡htt
ag a
Ġd oai
vuoÄĳ a
Ġ J
ah us
par te
ÄįÄį at
Ġ Ã¡r
s t
Ġ âĢ
ie Äĳ
Ġ kultu
m ean
Å¾ Å¾
Ġmi el
Ġ la
g o
Ġr Ã¡
v ah
a i
eap mi
e i
ku v
k s
kk a
o v
k e
Ġ V
as s
Ġm at
ĠS Ã¡mi
d o
Ġ K
ar j
................ ................
t n
Ġ -
gg a
al us
ah tt
o ahp
Ġo vtt
u d
Ġ a
o m
Ã¡ vd
n e
Ġp r
Ġ2 00
Ġd e
Ġb arg
g a
k te
Ġm Ã¡n
Ġ 4
parte mean
aid e
Ġd Ã¡r
Ġd at
uo l
Ã¡Å¡ Å¡
Ã¡d us
r a
mi s
is t
Ġ1 9
uv nn
b ma
mi id
Ġ H
Ġmiel de
m ma
Ġ F
Ġ 5
Ġbi rra
Ã¡l d
Ã¡i kk
ig at
bm ot
as a
Ġoahp p
c c
u Äĳ
Ġ I
d Ã¡i
oa z
ĠSÃ¡medi ggi
Ġgea vah
Ġm earr
l Ã¡n
in n
Ã ¤
Ġgalg Ã¡
ĠSÃ¡medi kki
Ġ P
la h
Ġdah je
mi i
vuo hta
Ġea rÃ¡
Ġ 0
Ġm uh
Ġd a
Ġ Å¡
in g
g i
Ġl ei
Ä Į
Ġm a
ar gg
eadd ji
ĠsÃ¡meg iela
Ġb o
ĠsÃ¡htt Ã¡
Ġmaid dÃ¡i
Ġo kta
Ġea n
la s
g uo
Ġ Ã¡s
Ġ al
m us
ol it
Ġ T
Ġn j
r e
i ll
oj it
me n
eg o
Ġ Ãģ
la ÄįÄįat
Ã¡ p
o b
k i
ĠN or
kk Ã¡r
t ii
Ġ2 01
Ġ Ã¡Å¡Å¡
od at
Ã¡h ta
Ġo ll
00 0
Ã¡ Å¾
Ġo a
S Ã¡medi
Ġs ih
partemean ta
k Ã¡
Ġea i
id it
Ġg iella
uvv ot
od o
u ll
p r
Ã ¥
s a
Ġb ea
Ġg as
Ġie Å¾
Ã¡h ka
Ġd Ã¡n
Ġb oaz
kuv l
Ã¡ ÄĳÄĳ
Ġr ie
Ġd Ã¡
ih ka
ĠâĢ ĵ
k tu
Ġguo vll
Ġ 6
Ã¡g a
Ġh Ã¡ldd
gg ad
Ġj uo
b i
Ġd ea
ir j
Ã¡h k
Ġ c
Ġdo arj
ĠÄį uo
Ġm Ã¡
Ġo r
Ġd ie
iid e
Ġovtt as
u vd
mi n
er te
Ġs is
uo t
a j
Ġd uo
alla n
er v
te r
Ġ 9
ĠmÃ¡n Ã¡id
Ġkultu r
k on
d j
g as
an n
Ġ t
m Ã¡n
ah k
Ġ 7
Ã¡ dd
Ġo h
) .
ed je
la n
uÅ¡ Å¡
Ġ Â
b arg
bm og
Ġm u
ej olaÅ¡
ii kk
Ġkultu v
uvv ojit
Ġf erte
Ġd Ã¡l
oah kk
Ġo ÄĳÄĳ
b mi
Ġ 000
oÅ¡ t
d us
oa v
vtt oh
Ġv Ã¡r
Ġ 8
er s
ig uin
uo n
_ _
Ġd ieÄĳ
Ġie Å¡
m Ã¡r
er en
Ã¡vd ego
Ġvuo ÄĳÄĳ
ĠÃ¡i g
Ġj o
Ġd Ã¡s
m Ã¡i
Ã¡ikk uh
od ag
Ġea l
tn eg
ear vv
ĠÄį Ã¡ll
t i
ĠieÅ¾ as
Ġmuh to
i vv
uoh kan
m uÅ¡
Ġs iid
Ã¡h t
.. .
m at
te t
n o
a dd
Ġ in
a b
uvv ui
Ġvuo igat
Ġd ih
eh us
Å §
v alus
vuoÄĳ as
k as
u nn
Ġv Ã¡ld
ea vtt
ĠÄį a
Ã ¸
Ġs ea
Ġo kt
Ġboaz odo
ear kk
iel dd
v a
Ġja gi
eadd j
y l
j Ã¡
ĠS t
oa m
eap mÃ¡i
oj uvvon
Ġb oah
s e
Ġv ejolaÅ¡
Ġs erv
Ġdoai bma
Ġm an
Ġa dd
b u
uh ta
Ġo ass
Ġal mm
tt i
kk u
Ġd aid
Ġoahp ah
ggad us
m aÅ¡
Ġd ut
Ġb uor
us t
at n
Ġk on
ss a
oj uvvo
ie hta
olit ihka
uid e
mi in
s tt
Ġv Ã¡ikkuh
Ġma Åĭ
Ġl Ã¡g
ĠhÃ¡ldd aÅ¡
kuv la
inn mÃ¡r
ĠÃ¡r vv
ĠoÄĳÄĳ a
o p
vuoÄĳ aid
uon dd
Ã¡p me
oh kk
ĠdÃ¡r bb
or g
e ll
h t
Ġ ar
kk as
Ġoa Å¾Å¾
Ġla ss
2 00
Ġovdd id
uol ggadus
r i
ah it
Ġovdd as
al d
Ġeal Ã¡hus
alla t
Ġgea h
me t
Ġgalg et
Ã¡i g
Ġ i
g Ã¡r
uo rra
ie r
Ġsih ke
p m
ktu i
Ġb argg
ll i
ill ii
Ġ .
la t
dd i
Ġbo kte
Ġ %
Ġgea t
p mi
i on
Å¡ uvnn
Ġ Ã¡
Ġv Ã¡l
Ġb er
ĠSÃ¡medi gg
eal de
ag at
rr as
Ġn uor
al u
Ã¡hk ad
Ġdoai mm
2 01
ĠÃ¡l gg
Ġd Ã¡id
Ġvuo Äĳ
ĠÄį Ã¡
Ġg iela
Ġ unn
d oai
Ġl oh
Ġn am
s en
Å¡ Å¡
ĠÄįuo vv
Ġmearr id
k at
oah kki
ĠD Ã¡t
Ã¡ tt
Ġb uot
earkk aÅ¡
Ġe ktui
u ks
Ġs ie
s ii
Ġb id
Ġm as
Ġ ÄĮ
od aga
it eh
Ġean et
Ġlea maÅ¡
je h
Ġv ai
o as
ej uvvon
Ã¡i b
an is
lÃ¡n a
Ġb u
Ġd eh
os i
Äĳ ih
j o
1 0
uvd na
ĠÄįa Äĳ
S Ã¡mi
kk ar
e partemeanta
1 9
................................ ................................
a v
ii ja
Ġs uo
eami s
Ġg os
Ġm o
Ġol bm
vdd Ã¡Å¡
Ġoll u
l ea
Ġd asa
Ġv iid
Â Ń
ie n
bmi l
ĠmÃ¡ Åĭ
Ġl edje
iid da
Ã¡l valus
r en
kuvl la
Ġf yl
is s
Ġe vttoh
âĢ ĵ
l e
Ġguo s
k o
ĠNor gga
Ġd as
ĠÄį iel
vv a
b argg
Ġg ull
Ã¡ b
Ġg uh
Ġs Ã¡medi
uh it
t Ã¡
k et
de partemeanta
Ġm earkkaÅ¡
h tt
a vv
Ġs uohkan
eah c
Ġokta vuoÄĳas
Ġg u
ĠÃ¡r b
earvv aÅ¡
gg as
ĠF innmÃ¡r
Ġb oh
ĠÅ¡ add
Ġovd Ã¡n
Ġmi n
vuo igat
u j
o vd
og rÃ¡
ĠrÃ¡ ÄĳÄĳ
all e
Ġoh c
Ġkultuv rra
ii g
ĠD at
Ġst Ã¡hta
an d
Ġl uondd
Ġ19 9
v Ã¡st
Ġst uor
SÃ¡medi ggi
Ġor g
je s
guo vll
âĢ Ŀ
Ġs Ã¡me
Ġr Ã¡hkad
Äĳ i
ĠD an
ih kka
uo vd
Ġv eah
b ea
mÃ¡n u
ĠÃ¡rvv oÅ¡t
Ġ U
Ġf uo
uÅ¡Å¡ e
tu n
v en
m u
Ã¡l bmog
Ġs u
d je
uo vll
Ġh Ã¡l
ĠÃ¡l bmot
Ġ ul
Ġg e
ĠS uo
vdd Ã¡Å¾
Ã¡h p
tt e
Ġ Ã¡v
h e
Ġovd al
la ÄįÄį
i k
Ġ C
ea v
ĠsÃ¡htt et
Ġg ieldd
ĠA n
kk is
Ġ1 0
Ġ eren
kt ii
dd j
ear v
Ġmu it
ĠÃ¡l go
Ġg ol
id e
uoh k
is tt
oÅ¡ eavtt
Ġs a
ol og
Ġs Ã¡pme
1 2
Ġovd an
e b
l d
) ,
ĠvuoÄĳ ul
ĠoaÅ¾Å¾ ut
ahtt i
eah tt
Ġr uo
il g
Ġoahp ahus
Ġrie vd
irj j
Ġsie rra
u g
ev aÅ¡
os t
uh tii
Ġd uÅ¡Å¡e
ĠI n
l og
ĠÃ¡s ah
dd a
do all
t na
ea nn
a p
uÄĳ et
iig uin
Ġd il
es ur
Ġr iikk
ĠÂ §
ĠmÃ¡nÃ¡id gÃ¡r
Ġvuo r
bi j
Ã¡vd n
j at
v al
b a
aÅ¡ t
Ã¡g an
Ġs on
Ã¡meg iela
Ã¡l bmot
Ã¡i l
v l
Ã ¢
id d
Ġeren oam
Ġl Ã¡hka
ast it
r u
Ã¡ÄĳÄĳ i
aid n
b ell
Ġn ann
te n
Ġg Ã¡ib
ea ss
e iv
Ġo Å¾Å¾
iteh ta
oahkk in
ul tu
ĠieÅ¡ g
Ġs ii
o k
d an
vuoÄĳ at
kk o
Ã¡ j
ir as
ĠD avv
Ġ1 5
ĠdÃ¡rbb aÅ¡
er e
s an
eah cc
s ih
uh tt
Ġda kkÃ¡r
uo rr
Ġd ain
ĠmaÅĭ Åĭ
olitihka laÅ¡
ĠG o
Ġsih kkar
ĠvÃ¡r Ã¡s
aÅ¡ uvnn
ĠÃ¡ig u
Ġdih te
Ġ1 8
ohkk eh
Ã¡d at
ĠÃ¡rb ev
odag as
Ġb Ã¡ikk
Ġg ir
Ġj ahk
ag as
Ġnj uolggadus
Ġd Ã¡t
ist or
ad je
Ġda vv
1 1
uÅ¡ eah
Ġm ain
Ġr u
eann ud
oahp ah
t as
ll ud
gg e
__ __
a la
Ġr eg
ĠÃ¡l bmog
Ġdea Å§
mm oÅ¡
Ġv Ã¡ll
Ġul bmil
us at
e f
Ġ /
ĠÄįÃ¡ jeh
a ma
earvvaÅ¡ vuoÄĳa
Ġn r
er et
Ã¡r v
ie h
ahtt in
is ev
Ġlea n
an a
Ġovddas vÃ¡st
o vdd
Ë ľ
r at
as aÅ¡
kon o
id n
Ġd ohkkeh
d it
ea s
Ġh ui
ea vv
Ġo aidn
Ġg Ã¡v
gg is
al it
: :
Ġnu pp
Ã¡la ld
Ã¡s aÅ¡
Ġj oh
ĠrÃ¡ jes
parte men
l i
Ġmearr Ã¡dus
ĠieÅ¾as et
irj ji
Ġ te
m earr
ih k
SÃ¡medi kki
Ġgeavah it
ĠL ea
Ġvuo stt
ad o
Ã ¶
m mi
es t
ĠD Ã¡n
Ġv Ã¡s
v as
Ã¡d usa
Ġboazodo all
el bb
Ġea r
ĠieÅ¡g uÄĳet
Ġrievd ad
Ġh eiv
Ġm us
Ġ1 2
Ã¡Å¾ it
Ġf or
Ġh uks
i b
uvd n
Ġs osi
en t
Ã¡la ÄįÄįat
Ġja g
ĠSÃ¡medigg er
r ie
eal Ã¡hus
elbb olaÅ¡
s k
iv ÄįÄį
Ġ1 6
Ġc eal
eh usa
Ġs in
Ġovdd idit
ea vah
k it
w w
ag i
arj ja
Ġdeh Ã¡laÅ¡
Ġovttas barg
am Ã¡n
ĠÄįaÄĳ ah
Ġbi vd
Ġdoai bm
5 0
ka p
kas aÅ¡
uh a
Ġjo at
p e
O l
Ġb ur
S t
ahtt it
or tneg
Ġdea tt
ĠÃ¡lgg ah
j j
e m
Ġj us
Ġs kuvla
i gg
Ġvuo l
tt at
Ã ¦
Ġr Ã¡d
o f
Ã¡vdego ddi
oahp p
ĠdÃ¡ b
Ġm Ã¡htt
us aid
ol bm
Ã¡r r
2 0
vtt ad
iehta d
kk us
ĠÄį uj
Ã¡h usa
Ġdoarj ja
k Äį
ĠR uo
u mi
vtt as
od epartemeanta
- -
un d
Ġb eal
Ã¡ÄĳÄĳ ehus
Ã¡tt is
ĠÃģ l
Ġv el
dd ar
Ġ atn
Â ª
Ġguovll uin
Ġg Ã¡r
pp e
g at
Ġlass in
Ġst iv
Ã¡vdego tti
er g
i mus
vv il
ï Ĥ
am uÅ¡
Ġs earv
i tt
Ġsea mma
an s
u m
Äĳ as
Ġ alla
isev Ã¡ldd
ir a
Ġ1 1
Ġguo l
Ġorg anis
Ġ1 4
s Ã¡mi
e tt
tt as
al is
ob ealde
iel da
ĠÄįÃ¡ll it
n i
Ġdut kan
Ġb ie
oav ku
n j
eaddj it
Å¡ uvdna
Ġgal gg
es s
Ġ1 3
ïĤ ·
ĠV uo
alla ma
Ġma kkÃ¡r
Ġg i
Ġmi e
ov t
ih kk
Ġb Ã¡i
ĠP r
Ġguo vtt
Ġ1 7
t in
Ġdoaibma bij
Ġf Ã¡g
id a
ir olaÅ¡
j it
rr et
â Ī
r as
ĠhÃ¡l iid
Ġ "
Ġj ur
os a
ĠdeaÅ§ alaÅ¡
ultu r
ag iid
Ġbea ivv
Â »
ieÄĳ Ã¡hus
oÅ¡ ea
Ġruo vtt
ad j
oh ka
Ġnu go
uoh ke
og a
ĠsÃ¡mi id
Ġo ai
Ġoh pp
id an
ov nn
oj uvvot
Ġjuo llud
Ġst uorra
Ã¡meg iella
ogrÃ¡ mma
Ġ2 0
Ġol gg
bell odat
Ġovtt a
Ġb uorr
ĠbÃ¡ikk Ã¡laÅ¡
on eavv
Ġea mi
ll e
at ion
ĠO ahp
oahkk ing
it n
Ġb Ã¡l
ĠM uh
Ã¡h te
Åĭ g
b o
Ġ ain
kuvl las
iehta dus
Ġp lÃ¡n
Ġr uhta
Ġl og
Ã¡st alus
Ġj ien
1 4
il is
Å¾ ald
Ġsosi Ã¡la
ii j
Ġdie vas
l Ã¡ga
ast o
Ġm eahcc
c h
Å¡uvnn a
aid gas
ĠhÃ¡lddaÅ¡ an
am ear
k en
v rr
doai mm
Ġm eannud
Ġoai vvil
u pmi
Ġserv odat
N or
laÄįÄį aid
ll in
f i
Ġr esur
Ġg us
Ġb adje
Ġ Ã
Äį oahkki
Ġguol Ã¡st
l oh
ahk ii
1 5
b Ã¡lvalus
iss on
Ġo rr
f or
Ġd u
Ġo as
Ġd i
ov aÅ¡
ss at
Ġea rret
Ġol mmoÅ¡
ar Ã¡
Ġoll es
v ra
Ġv Ã¡st
ĠS a
ĠdÃ¡r og
bb o
Ġf as
Ã¡h c
st it
Ġalmm olaÅ¡
Ġb aj
o an
ag aid
Ġsiid dus
bargg u
Ġd Ã¡hp
ĠÄį ilg
1 3
Ġk r
p ot
Ġo f
uoh ta
oj uvvojit
Ġm ovt
ii kka
Ġokt asaÅ¡
ag ea
ĠÃ¡Å¡Å¡ i
Ġheiv eh
Ġvuo st
ih tt
Ġg Ã¡vdn
y s
Ġar t
g Ã¡d
ap or
ĠE ira
Ġ an
Ġb uÅ¡eah
Å ł
Ġguos kÃ¡
Ġpr os
Ġsiid u
ĠsÃ¡meg illii
h c
ĠÅ¡ at
f us
eal la
Ġ2 2
ĠsÃ¡medi gg
ĠÃ¡rbev irolaÅ¡
as iid
oh k
Ġ |
Ġg a
Ġe kono
l o
e di
Ġguo vddÃ¡Å¡
ĠR om
Ġbid dj
ĠhÃ¡ldd ahus
id j
ej it
ĠSuo ma
Ã¡r a
h tu
p lÃ¡na
al mm
ma laÅ¡
iv ers
ej uvvo
Ġguo r
Ġd oa
ĠJ oh
Å¾Å¾ an
Ġd ag
ll en
os aÅ¡
rat eg
os iid
ean ta
uv l
s i
3 0
Ġber oÅ¡
Ġluondd u
aidgas kasaÅ¡
ii va
Ġbarg at
Ġv Ã¡ttis
- ,
Ã¸ r
Ġokt ii
m as
Ġs Ã¡n
Ġnam ma
ĠdÃ¡r bu
ĠB arg
ÄįÄį a
ĠovddasvÃ¡st Ã¡dus
ĠdÃ¡ fus
âĢ ¢
Ġ W
Ġ2 4
ĠFinnmÃ¡r kku
Ġg elbbolaÅ¡
ĠD o
Ġfuo lah
D o
ĠM a
guo vddÃ¡Å¾
uo dj
ar a
dd e
ĠâĢ ľ
Ġh ea
Ã¡ z
Ġduo Äĳ
Ã¡n a
Ġgea tneg
j en
Ġvuo ll
Ġe isevÃ¡ldd
ĠM ar
f er
Ġ ................................................................
Ġsea mm
Ã °
Ġea vtt
Ġd alle
ĠmÃ¡ ks
oas ta
oÅ¡ea kta
Ġoass i
Ã¡lbmog iid
oaz odo
oh p
Ġalla s
uvl ui
an ne
ĠÂ «
Ġgas kkas
Äį uo
ĠvÃ¡ld it
k es
Ġboah tte
Ġo pp
Ġsis kk
Ã¡h tu
s ul
Ġdut ka
Ġl uo
Ġl ivÄįÄį
Ã¡n Ã¡id
Ġv ir
d Ã¡r
me r
ĠSÃ¡medi kkis
d u
je dje
Ã µ
iv i
Ġjo Äĳih
Ġoahpp oneavv
ĠÃ¡s ahus
Ġd Ã¡v
de partemen
Ã¡s a
Ġmuh tun
Ã¡ vv
g Ã¡
Ġs kuvlla
ĠÄį oahkki
partemean tta
Ġdie ht
bu kt
Ã¡s ahus
Ġj uohke
ĠDavv i
Ġbu kt
oahp ahus
ĠmÃ¡nÃ¡idgÃ¡r dd
Ġr uÄĳ
Ġguor ah
je j
ad it
1 8
Ã¡t n
tu d
an v
Ã¡ldd aÅ¡
Ġh Ã¡stalus
e mus
Ġnuor aid
Ġgu lah
Ġg il
ie s
Ġfyl kk
t it
Â ´
ren oam
ĠN u
ĠsÃ¡meg iel
Ġ3 0
oa Äĳ
Ġs Ã¡dd
oahkking irjji
l mm
se Ã¡rv
ĠNor ggas
ĠS Ã¡me
Ġbargg u
Ġol bmot
ĠdieÄĳ uid
o la
mi t
Ġm er
Ġpr oÅ¡eavtt
Ġgea ss
s ta
Ġvuostt aÅ¡
Ġv uhtii
a laÄįÄįat
Ġ200 9
G o
p olit
Ã¡n ddar
ĠJ us
eg e
Ġd ii
Ġmi l
Ġbur es
Ã ¯
Ï Ģ
Ġ kap
Ġgea Å¾
Ġea m
uh an
ar v
Äį Ã¡ll
miid da
ea m
uovd agea
Ġgea in
ĠE an
Ġguovll u
men t
Ã¡h Äį
ui tt
uh uvvon
Ġb is
ĠS on
Ġ Ã¡dd
Ġg ii
r ii
Ġg oh
Ġ19 8
Ã¡p m
Ġean an
Ġbuorr e
Ġr e
1 7
Ġg irjj
ĠM ii
ÄĮ oahkkingirjji
Ġdoarj aga
v aÅ¡
ad n
Ġd ad
ĠK Ã¡r
ĠÃ¡i ggi
âĪ ı
ĠâĢ ¢
ĠsÃ¡megiela t
Ġp olitihkalaÅ¡
ĠsÃ¡meg iella
v rra
in a
Ġb iras
Ġerenoam Ã¡Å¾it
Ġd earvvaÅ¡vuoÄĳa
bb i
Ġviid Ã¡s
eami t
la g
ĠvuoÄĳÄĳ un
Ġb uoh
or d
Ġgas ka
Ġs Ã¡g
r et
ast us
Ġs Ã¡hte
Ġs ir
Ġn isson
Ġboazodo alu
n u
Ġ2 5
ĠÄįiel ggad
ĠmÃ¡Åĭ gga
uvv an
ll ui
i p
. )
am at
Â ·
ss aid
loh ku
e mi
Ġj ul
ĠvÃ¡l do
ĠvÃ¡ikkuh it
ei vv
Ġo ain
Ã¤ Ã¤
e miid
Ġoass Ã¡la
1 6
Ã¡ m
er i
an g
Ġboah tÃ¡
Ġguo kte
ĠmÃ¡n Ã¡t
ag is
uÄĳ ui
oh t
Ġh istor
as at
Ġovd amear
j on
Ġdoai mma
ĠO s
ĠRuo Å§
es id
Ġea tna
e Å¡
Ġn Ã¡
lan d
Ã¡ Åĭ
d ieÄĳ
Äĳas m
Ġv ah
u p
gas ka
Ġadd it
Ġo m
Ġnann et
k al
Ġgeah Äį
Äį oahkkin
vl u
Ġp ar
a pp
Ġm Ã¡il
i c
eap pot
ĠO l
b Ã¡i
on agas
Ġ200 8
Ġb Ã¡lvalus
Ġdah kk
i ma
Ġ eret
tt aid
iv ra
v uhtii
ĠberoÅ¡ tu
Ġb earr
ih it
ĠoÅ¾Å¾ on
mu it
Ġ2 7
Ġeam bbo
Ġbadje l
Ġ1 00
Ġolbm uid
Ġb or
Ã¡rr Ã¡i
Ġboh cc
oahp amuÅ¡
g eavah
ĠS iid
Äĳ is
e ddj
Ġmie las
Ã¡h kk
ĠgeaÅ¾ il
D e
vuoÄĳ ain
Ġs e
ĠÃģ r
Ġs p
ĠSÃ¡medigg Ã¡i
ku mean
ĠSÃ¡medigger Ã¡ÄĳÄĳi
Ġgi tta
Ġber re
d as
Ã¡ÄĳÄĳ ehusa
ĠvuoÄĳÄĳ ud
Ġunn it
Ġg ul
Ġm ann
ie vrr
tt is
eaddj in
la ss
oav kku
Ġmi htt
Ġv Ã¡ldd
departemen tet
eam os
Ġerenoam Ã¡Å¡
Ġea h
iela t
ĠdÃ¡b Ã¡laÅ¡
ge Å¡
log u
oav kk
Ġgeah ÄįÄį
vttoh us
ĠT r
doall u
d ja
Ġoahpah usa
Ġvuoigat vuoÄĳaid
Ġ un
u b
ea lli
Â ¿
g iella
Ġo s
Åĭg ir
Ġo g
Ġp ers
Ã¡ Äĳi
Ġ id
kÃ¡ muÅ¡
ĠG iella
ĠG uovdagea
i j
Ġga Å¾ald
p lÃ¡n
Ġ2 8
Ã¡i ggi
ig e
Ġ {
ĠÃ¡l g
I I
al Ã¡hus
Ġdain na
f Ã¡lald
odag aid
ah a
t Ã¡n
Ġguovll us
Ġgea r
amÃ¡n u
Ġ201 0
Ġ2 3
ÄĳÄĳ a
ado all
kt or
Ã¡l di
Ġbo ar
uvv Ã¡
Ã¡Å¡ j
ĠÅ¡add Ã¡
ass i
Ġdo vd
Ġl Ã¡v
barg u
ĠvÃ¡ikkuh an
Ġ <
Ġh Ã¡rrÃ¡i
Ġnjuolggadus aid
z a
uorra di
dd is
Ġb a
ĠÄį oa
ir iikk
Ġ er
Ġm Ã¡t
Ġ201 1
Ġr uvnn
Ġ and
b uot
Ġriikk aidgaskasaÅ¡
p olitihka
Ġst Ã¡ht
jo Äĳih
e ma
pr oÅ¡eavtt
oj uvvui
b eal
lea t
t an
Ġlass Ã¡n
O ahp
Ġviid d
eahc ir
Ġnj uol
eah Äį
Ġgull et
Ġr apor
B arg
ihka laÅ¡
Ġ9 0
Ġs Ã¡ht
l Ã¡gan
Ġg ieÄĳ
g il
Ã¡ in
SÃ¡medi gg
ĠmearkkaÅ¡ a
Ġdan ne
os at
Ġdoaimm aid
eg uovd
Ġvuo vd
om earr
ĠoaÅ¾Å¾ u
in sih
ar d
ll u
guovll u
Ġdoarj j
Ġs aj
ĠD Ã¡l
Ġdan in
ĠÃ¡lgo Ã¡lbmot
ĠoÅ¾Å¾ ot
g al
ah usa
Ġgo vv
Ġvuoigat vuohta
tt u
Ġol u
ww w
Ġs ull
j Ã¡r
uh us
ĠMuh to
g en
Ġoa ÄįÄį
k r
Ġk o
Ġd iv
Ġsihkkar astit
ĠÃ¡r v
Ġgalgg aÅ¡
19 9
ja i
Ġbu vttad
Ġdo vdd
Ġadd Ã¡
Ġoll is
ĠrÃ¡ÄĳÄĳ ehus
____ ____
kt i
Ġl o
Ġ is
g or
bi vd
Ġekono malaÅ¡
Ġstuor a
te s
Ġdah kat
pr os
Ġ 00
rÃ¡ ÄĳÄĳ
all Ã¡
Ġgas kka
Ġferte jit
Ġs v
Ġl oahp
Ġ201 2
ĠE llen
Ġr eh
oazodo all
Ġvuo s
ah an
er ejuvvon
guo vddÃ¡Å¡
ĠâĢ Ŀ
in e
Ġovddid an
ĠdÃ¡l Ã¡
ĠÃ¡Å¡Å¡ iid
id eapmi
Ã¡s s
Ġ en
Ġ201 3
Ġsuo dj
Ġg ielda
mm aid
Ġkon sul
Ġla sih
Ġ5 0
ĠsÃ¡htt it
uh uvvo
âĢ ŀ
k ar
Ġ19 7
Ġr iikka
Ġf Ã¡ga
Å¡Å¡ i
v e
gg iid
di l
Ġf itn
ĠG uo
tt ain
Ġea tn
Ġ200 7
ta laÅ¡
ĠdÃ¡s seÃ¡rv
ss as
Ġ200 5
ĠÃ¡rvvoÅ¡t allat
oai bma
ĠÄįÃ¡jeh a
Ġkultuv ra
Â ³
doai bma
ol la
Ġea renoam
P r
olbm uid
Â ļ
Åĭgir uÅ¡Å¡
âĢ ¦
g ad
Ġea llin
Ġt he
ea ssa
Ġoahpp it
os s
n d
Ġp lÃ¡na
ag e
Ġsihkkar ast
Ġh Ã¡b
a c
Ġd ig
Ġmus ea
Ġea lli
pr ogrÃ¡mma
k in
uol Ã¡st
Ġd ul
Ġv Ã¡h
tn et
mm at
ĠNor d
m eahc
Ġv ear
Ġbie bm
Ġgeavah an
ar je
Ġv ea
Ã¤ r
ĠdÃ¡v jÃ¡
j uolggadus
Ã¡p mi
ĠmaÅĭÅĭ Ã¡
ar i
me s
Ġrie kte
ĠdÃ¡hp Ã¡h
kk e
Ġgeavah eami
âĢ Ļ
ĠM eahcir
Ġjag is
do alu
O vdd
E A
do arj
Ã ³
Ġbeaivv i
v i
ĠA r
fer Ã¡n
Ġj ear
Ġp olit
os is
Ġ2 6
Ġnupp i
org anis
Ġbarg u
ĠDan ne
id eaddji
eah ÄįÄį
V uo
iehtad usa
g u
Ġoahpp op
Ġol laÅ¡
Ġfyl kkas
ĠKÃ¡r Ã¡Å¡j
Ġs k
K ultur
ĠlivÄįÄį ii
Ol geÅ¡
an as
ĠO hc
ĠÃ¡v kk
al Ã¡gan
l Ã¡g
las ku
Ġmearr idit
Ġnjuolggadus at
Ġs Ã¡hka
ĠÃ¡i gge
bea ivv
Ġj os
ter n
j Ã¡v
Ġolgg obealde
Ġg ar
Ġn av
ag o
ĠvÃ¡r r
ett iin
Ã¡Å¡ t
dd aÅ¡
ĠD uo
o laÄįÄįat
Ġj org
ut kan
ĠÄįuovv ovaÅ¡
ĠdÃ¡s is
Ġbid jat
Ġ et
Ġdih tii
Ġs tud
Ġjul ev
Ã¡dus aid
ĠdÃ¡ kkÃ¡r
u ma
ĠmÃ¡n n
S a
S Ã¡me
Ġd on
Ġm ear
un dd
idj iide
Ġv Ã¡il
Ġ200 6
ad epartemeanta
Ġj uohk
Ġdih to
ĠFinnmÃ¡r kkus
Åĭ Åĭ
ĠgieÄĳ ah
Ġ3 1
rie vtt
e Ã¡la
ĠrÃ¡hkad it
Ġoaivvil da
Ã¡d j
b er
Ġguovll uid
Â ¹
eahtt Ã¡
Ġ4 0
ĠÃ¡lbmog a
ĠrÃ¡ mma
:: ::
e miin
p ir
ortneg a
ill i
n as
ag ieldd
Ġj ie
ĠduoÄĳ aÅ¡t
ku r
Ġovttas kas
Ġmu dd
ĠÃ¡s ahit
Ġd or
ĠD asa
Ġsull ii
Ġgus ket
l Ã¡hka
ĠvuoÄĳÄĳ o
kon ven
Ġgea v
ed ieÄĳÃ¡hus
ĠÄį oahkkin
nn a
ĠÃ¡Å¡Å¡ is
ag uo
d al
a iguin
e p
g iela
Ġo Äĳasm
Ġ2 1
ĠG u
os it
Ã¡htt en
ĠRom ssa
od ahkii
Ġvuost Ã¡
ĠOs lo
ull is
Ġguo vddÃ¡Å¾
Ġ &
ĠrÃ¡d j
S A
er Ã¡ÄĳÄĳi
Ġ Ã¥
alla mis
ĠO N
Ġom d
tt iin
id eami
Ġmuh tin
ĠieÅ¾ a
t r
Ġdil i
I n
Ġs oa
m ear
ĠsÃ¡pme laÄįÄįaid
Ã¡dus at
S R
Ġgas kk
........ ....
ĠÃ¡s s
2 1
uovll u
v Ã¡ld
Ġgeatneg as
ĠSt uorradi
Ġolbm o
Ġovdamear kka
t h
Ġunn Ã¡n
ks ta
uo vv
Ġoass in
Ġn or
-- --
Ġserv odagas
Â §
kk Ã¡dat
Ġm un
ik Å¡
Ã¡laÅ¡ vuoÄĳa
ĠM Ã¡nÃ¡id
Ã¡la s
Ġdo ppe
ea ll
Ġea ktu
M ana
i a
m p
eas et
uodj alus
Ġg oa
k il
ĠsÃ¡g ast
Ġ2 9
p olitihkalaÅ¡
val usa
Ġ at
0 6
Ġm uÄĳui
ta ga
Ġd uohta
Ġkon ven
ĠGuovdagea inn
Ġbaj Ã¡s
arv Ã¡i
aid dÃ¡i
ar k
oahpah usa
Ġovdd ast
Ġgull Ã¡
Ġbuor i
f oan
mÃ¡n us
Ġoaidn it
ir ji
es se
Ġ 01
Äĳ ii
Ġor tneg
id uvvo
ĠguolÃ¡st us
Ġstuor Ã¡t
ĠmÃ¡Åĭ gg
OlgeÅ¡ bellodat
kan tu
Ġl Ã¡ga
ĠsÃ¡megiela s
Ġsir d
Ġ201 4
Ġun ivers
id uvvon
0 5
ad an
Ġl uoh
Ġdavv is
Ġ5 00
ih tta
d ah
Ġgir k
ks en
og as
Ġb ear
k eahttÃ¡
Ġbargg us
dja lan
Nor gga
ier pm
k eh
ĠÄį Ã¡l
Ġs kuvllas
bb as
E an
0 2
U O
Ġs Ã¡tn
Ġm en
Ġ ïĤ·
ĠO vd
b e
Ġf Ã¡lald
Ġgas kal
Ġdo arvÃ¡i
insih p
ist r
ah ke
ĠE arÃ¡
ĠÅ¡at ta
ea ksta
ĠN uor
L A
od e
ĠÄįaÄĳ ahit
Ã¡v ss
Ġbea ssat
Ġoain n
Ġ200 3
o kta
Ġloh kan
Ġ200 4
Ġs uor
Ġserv odaga
Ġvai kko
Ġl Ã¡hÄį
Ġea ne
Ã¡mi s
ru ktu
ĠvÃ¡l ga
A lmm
r d
Ġi pmi
e la
Ġe e
m ag
Ã¡ mus
Ġm Ã¡htu
u iguin
d uo
b ii
O A
Ġd asto
Ġor oh
j et
j uo
Ġoaidn Ã¡
ie ss
Ġ to
v u
Ġst rateg
Ġn o
ku men
Ġmeahcc eg
und ui
k ii
us tt
ĠÄįÃ¡ll in
Ġorganis aÅ¡uvnn
Ġj Ã¡v
ĠJ a
ĠK ultur
F innmÃ¡r
ol Ã¡ga
jej uvvon
Ġveah kk
ĠOahp p
Ã¡htt u
Å¡ uvdn
ĠÄį ohkk
Ġea na
Ġs kuvl
Ã¡Å¡ ii
z Ã¡h
Ġvuoigat vuoÄĳa
Ġpar la
Ġm eahc
ol bmot
Ġd ikÅ¡
Ġdoaimm at
olog alaÅ¡
Ġm asa
ĠÃ¡r valus
ĠS Ã¡megiela
L O
ĠÄįÃ¡jeh it
Ġhuks en
Ġjur ddaÅ¡
b Ã¡l
m uitt
0 4
ab as
ĠgÃ¡v nn
ea tna
Äį od
d ii
ĠÄįuovv ol
Ġpr oÅ¡eakta
Ġar eÃ¡la
m o
ĠS ea
uhtt in
a di
eh tt
Ġkultuvrra laÅ¡
0 3
as pir
guovll us
ĠmÃ¡Åĭ ga
Ã ħ
Ġv al
Ġkonsul ta
Ã¡r vv
eav stt
vtt iid
ass ii
T r
E D
âĢ¦ âĢ¦
Ġ u
Ġn anne
mus ea
polit ihkka
ol s
Ġoahpah eaddji
ĠlÃ¡hka i
ĠI i
Ġs ohka
esid eanta
k n
Ġrie vtt
olog iija
Ġid ent
Ġeai gg
O za
Ġsiskk obealde
Ġeah p
ej uvvot
Ã¡dus bellodat
ĠÃ¡ ÅĭgiruÅ¡Å¡
Ġjag iid
Ã¡ht olaÅ¡
ol uo
mm as
di v
Ġk Ã¡r
alla miid
Ã¡la laÅ¡
v er
Ġb iss
alla mat
Ġbea ss
Ã¡n n
ers en
Ġ200 1
Ġdad jÃ¡
m eahtt
Ġs adj
Ġf r
ĠmÃ¡nÃ¡id e
Ġguos k
v la
A r
vuoigat vuoÄĳaid
Ġguovtt i
Ġjoat kkas
ih an
Ġgal gga
Ġgeass e
ovnn a
ed ag
v o
pe ktii
Ġmuit al
ea igg
or m
Ġl undd
j agi
i kk
ĠAn ti
Ã¡s it
Ġevttoh us
ĠM at
Ġjorg al
dd an
Ġn ama
. ,
Ġmi eh
Ġboh tet
ag ad
Ġeami Ã¡lbmot
ĠD Ã¡s
to la
Ġla htu
o vttas
el ef
Ġv Ã¡id
ere ma
tet ge
i muÅ¡
ĠvÃ¡h ne
0 9
ob i
Ġd ego
est iv
Ġs iv
ab ealla
ĠdÃ¡rbbaÅ¡ laÅ¡
m Ã¡Å¡
Ġg uvlui
L ea
d n
Ġgulah allan
ĠA ina
Ġ200 0
eddj iid
h ki
vv i
Ġdil Ã¡laÅ¡
Ġbea iv
Ovdd Ã¡dusbellodat
l is
gg us
Ġdoaibmabij uid
Ã¡n it
ĠL uondd
Ã ¨
Ġ uh
ean tta
Ġb Ã¡
ĠbuÅ¡eah tta
Ġollis laÅ¡
vuoÄĳ Äĳ
d Ã¡
iriikk alaÅ¡
vuo na
Ġohpp iid
Ġceal kÃ¡muÅ¡
bargg us
ku i
ĠD ean
Ġ tu
kk ad
ĠsÃ¡medi kki
ĠÄįa kÄį
ĠÄįiel gas
ĠvÃ¡ikkuhan gaska
Ġm edi
Ġbarg o
Ã¡meg illii
ji in
Ġgu lasku
Ġfylkk agieldd
alla mii
Ġgoh Äįod
Ġoahpp i
er ing
Ġmil j
/ /
eavtt ut
Ġmiel ddis
d eami
omearr i
Ġg Ã¡vd
$ {
ih t
Ġoahpp an
Ġovttas barggu
ahtt Ã¡
uohk in
istt ar
d ji
} ${
Ġh Ã¡r
Ġgull evaÅ¡
Ġovdan bukt
Ġguovtt eg
mm ah
Ġkultur muit
Ġgol bma
m Ã¡
ĠvejolaÅ¡ vuoÄĳa
idn u
cc i
ĠdÃ¡s s
eguovd il
b erg
. -
Ġ adn
Ġatn it
Ġ +
Ê ¹
ĠA l
ĠU n
ug iid
me di
Ġf il
il d
Ġokt an
ĠgelbbolaÅ¡ vuoÄĳa
vuo r
ĠO r
J uo
ĠÃ¡i ras
Ġokta vuoÄĳa
ĠÃ¡s san
ĠgalggaÅ¡ ii
Ġ201 5
h ka
Ġii ge
ĠÄį atn
Ġeavtt uid
eah tta
Ġ el
Ġb el
al o
ĠDo arjja
ea men
ĠdÃ¡id da
r ist
Ãģ l
di re
d ut
ĠâĢ ŀ
organis aÅ¡uvnn
Ġguosk evaÅ¡
Ġnupp Ã¡st
Ġoktii buot
Ġb uhta
Ġr olla
Ġguh kes
ie ht
log us
Ġseamm Ã¡s
a kt
Ġeane mus
Ġbuor et
lah tu
Ġd illi
ĠÃ¡Å¡Å¡ iin
: //
Ä İ
Ġoahp u
o te
Ġgo z
Ġ19 6
Ġsie rr
Ġoahpp at
d Ã¡s
ĠhÃ¡liid a
ĠoassÃ¡la st
Ġn a
ĠÃ¡v Å¾Å¾
ation Ã¡la
aÅ¡ uvdn
ĠSt Ã¡hta
Ã¥ l
as is
Ġl ihk
Ġk val
Ġb ir
Â ŀ
vuo gÃ¡d
Ġbuor emus
ĠrÃ¡dj Ã¡i
Å¡uvnn at
4 0
Ġdievas Äįoahkki
Ġovttasbarg u
ĠS ii
Ġdievas Äįoahkkin
................................ ................
Äįuo zÃ¡h
Ġg uÄĳ
ĠmÃ¡n Ã¡
b Ã¡ikk
y r
ih kas
odag at
ĠvejolaÅ¡ vuohta
Ġgus to
ĠdÃ¡ in
an l
Ġ200 2
f in
Ġl ullis
bell odaga
ustt eg
ĠÃ¡lgo Ã¡lbmogiid
ed ieÄĳ
ĠÄįuj uha
vuoigat vuoÄĳa
Ã¡i ggis
kta laÅ¡
Ġ Y
uvv at
p i
Ġbearr Ã¡ig
ĠN j
Ġgol mma
vuoigat vuohta
Ġruvnn o
edag og
Â ¢
Ġ3 3
Ġveah keh
ĠK on
it y
Ġmearrid uvvon
g ea
ĠD Ã¡
Ġoa iv
Ġd ohk
ĠRuoÅ§ a
d at
vv alaÅ¡
f Ã¡g
ĠÅ¡ iehtad
aÅ¡ uvdna
Ã¡r kan
ĠieÅ¡guÄĳet lÃ¡gan
or s
Ġdea ivv
Ġk m
M I
ĠrÃ¡d jai
ĠJ os
u bmi
Ġnu bbi
g Ã¡htten
ĠsÃ¡pme laÄįÄįat
Ġ3 5
p oasta
ovd Ã¡n
uh tti
ĠM ie
Ġbi rras
Ġa v
D Ã¡l
doall o
Ġl oahpah
R Ã¡ÄĳÄĳehus
at ist
ĠmÃ¡il mmi
0 8
Ġgea s
2 5
Ġv i
tt Ã¡
Ġreg istr
ĠrÃ¡ vv
Ã¡b ealde
min ist
Ã¡ldd ahus
ĠovdÃ¡n eami
D Ã¡s
ta d
Ã¡d aga
Ġdoaibmabij ut
Ġboh t
4 5
Ġa la
ĠÃ¡i bbas
Ġmearrid an
Ġo idn
Ġmer oÅ¡t
Ġf Ã¡l
Ġf ievrr
Ġh aga
ĠL undui
Ġr ea
Ġalmm uh
tu rr
Ġvuoigat vuoÄĳat
en s
ĠV Ã¡nddar
a mii
J us
j an
Ġfuolah us
ej umi
Ã¡hus at
ihk al
Ġvuor uh
Ġr Ã¡v
ĠMie nna
r an
Ġb oaÄĳ
ealli ma
n ing
ag ain
9 8
f is
i m
r is
ihkka la
Ġm Ã¡vss
eav z
Ġorr u
4 7
h te
iella n
oÅ¡ iehtadus
ĠmÃ¡htt u
Ġsuodj al
lah it
uÄĳ ot
it Ã¡la
Ġpr ogrÃ¡mma
or tnet
r o
D Ã¡n
gg it
Ġr ahp
irj er
uolÃ¡st us
ii ka
Ã¡v cc
g er
Ġba ji
Ġ3 7
ĠmearkkaÅ¡ upmi
Ãģ Å¡Å¡i
ĠB oazodoall
ur ohp
ei m
G ov
ĠO vttas
almm ust
ĠbÃ¡i k
ĠVuo ÄĳÄĳ
Ġo an
Ġduo dje
Ġen erg
Ġmudd ui
ur n
ggi in
Ġ3 6
T A
Ġ Ã¡id
ĠR Ã¡ÄĳÄĳehus
N A
g et
Ġgieldd a
ĠbÃ¡i ken
Ġer oh
ĠmaÅĭÅĭ el
ÄįuozÃ¡h agat
pp a
ĠsÃ¡medigg ej
alla miin
ĠV ai
e vttoh
Ġpr iv
oluo tta
ĠvÃ¡ll jen
Ġmuit alit
c eal
Ġs o
ĠdieÄĳ ut
ĠMar it
M a
ĠrÃ¡ dd
eri Ã¡la
ĠvuoÄĳÄĳ os
ĠvÃ¡r re
Ġkultur muitt
ĠMeahcir Ã¡ÄĳÄĳehus
h is
as vÃ¡st
j u
ĠÄįuo gg
Ġoahppop lÃ¡n
Ġbor aspir
Ġallas kuvla
ĠJ uo
ĠS k
m an
Ġfuo mÃ¡Å¡
Ġbarg ui
ad ji
ip ean
ĠG onagas
j is
ad a
s Ã¡megiela
ĠL ass
ovnn alaÅ¡
v es
ĠM Ã¡htt
eavtt uid
ĠmearrÃ¡dus aid
Ġpr insihp
n es
Ġbukt it
ĠV Ã¡r
dd as
gg aÅ¡t
ej uvvojit
v Ã¡r
ĠdÃ¡r kk
Ġd ol
Ã¡d je
do arjja
Ġduo g
g r
ĠrÃ¡ÄĳÄĳ ehusa
om ear
ĠK ar
M Ã¡nÃ¡id
Ã¡Å¾ a
bi rras
ĠdÃ¡id dÃ¡r
ĠÃ¡vkk Ã¡st
eh is
ment Ã¡r
Ġ Åł
kultu vrra
E alÃ¡hus
Ġohc at
Äį iel
er Ã¡la
meahtt un
a k
ĠhÃ¡b me
ii k
je ll
ĠOahp ahus
K on
ĠJoh an
M Ã¡htt
Ġsuo mag
ĠgÃ¡vd no
eb ut
Ġ4 5
Ġf Ã¡pm
rr asa
Ġceal k
D avv
s p
Ã¡n an
200 8
Ġjahk edieÄĳÃ¡hus
Ġol is
Ġreh ket
Ġgeavah eapmi
us in
jj Ã¡laÅ¡
ĠÃ¡ig odagas
ĠO kta
ĠgÃ¡vdn ojit
Ġg ust
ĠD asto
oahpamuÅ¡ a
ĠÃ¡lgg ahit
ĠmÃ¡nÃ¡idgÃ¡r de
tt orm
Ġv earr
vuo g
Ġdieht oj
ieÄĳ ut
vv as
Ġgo it
mi el
te re
Ġea ll
ĠsÃ¡mi t
Ġs Ã¡v
Ġd earvvaÅ¡
er vv
ion Ã¡la
Ġbur iid
0 7
Ġjien astus
Ġboah tÃ¡n
ĠvÃ¡ll je
ĠD Ã¡id
vuoÄĳ al
uodj al
n je
Ġr i
Ã¡hus aid
Ġmearr Ã¡dusa
Ġjuo gad
Ġa ktii
met ing
as it
Ġunn imus
S Ã¡megiella
b y
c e
Ġevttoh usa
Ġident itehta
Ġopp alaÅ¡
ĠN il
Ġloh ku
nj uolggadus
oh pp
ĠruÄĳ aid
vtt a
Ġmi s
Ġulbmil in
oh c
Ġf Ã¡tt
ĠdÃ¡b Ã¡laÄįÄįat
ĠI LO
istor jÃ¡
Ġsearv at
2 2
Ġj uh
el s
ĠO ÄĳÄĳa
ĠÄįiel ga
ĠÃ¡lbmot meahc
ĠD a
ĠieÅ¡ mearr
ĠÃ¡l o
ie rr
Ġnu bb
eh ta
Ġ4 3
ĠmÃ¡nn Ã¡
o assi
ĠlÃ¡g iin
v iid
Ġeami Ã¡lbmogiid
Ç ©
earvv as
ĠS ol
ĠÄį almmust
ĠsÃ¡n iid
I N
Ġ ad
Ġdo ll
Ġloh kat
) :
ĠOhc ej
Ġnuor at
Ġ3 9
Ġkultuv rii
ĠÃ¡lgo Ã¡lbmog
Ġgaskk ust
tt ar
Ġokta vuo
Ġguo vl
T abealla
av gil
St Ã¡hta
vdd u
Ġin tern
Ġb ealde
ĠAn d
ĠoaÄįÄį ui
Ġal it
i mis
Ġgalgg ai
Ġj na
r eg
Ġ [
gg u
ĠÃ¡igu muÅ¡
Ġv is
ii jat
Ġla g
b ut
t at
s erv
Ġj ahke
d ne
Ġsea ill
uÅ¡Å¡ an
C avgil
ĠUn ivers
Ġo ss
ast an
la st
ks a
S S
id no
Ġj oavkk
kk it
o ll
Ã¡ll e
ii l
v Ã¡ll
Ġnj Ã¡l
Ġrievdad it
ĠSt uor
ĠdÃ¡rog iela
g ol
r Ã¡s
ag iin
ĠÃ¡i ge
ea i
Ġr abas
od it
Ġvuoll Ã¡i
oa vd
oahp u
Ġoas i
y n
s uor
Å¡ add
ĠJ o
Ġovtt ast
doarj aga
Ġl Ã¡hk
Ġdaid da
ĠproÅ¡eavtt a
dd Ã¡i
Ġoahpponeavv uid
odag ain
Ġ âĪı
ĠÄį oahkk
ĠhÃ¡liid it
j oavku
Â ¤
ĠlÃ¡hka Ã¡sahus
estiv Ã¡la
Ġruovtt oluotta
st iv
Ġc eavz
bi rra
Ġmuit ala
ĠlÃ¡hÄį it
Ġbuor ebut
Ġv ej
rr i
ĠE alÃ¡hus
Ġo alle
kk at
Ġoahpp o
er n
ĠM in
ĠmaÅĭÅĭ il
Ġbarg oj
200 9
ĠÃ¡rvvoÅ¡t all
Ġmearrid a
h k
ĠsÃ¡pme laÄįÄį
ĠÃ¡lbmog ii
ĠovddasvÃ¡st Ã¡dusa
eah tes
pp aÅ¡
ĠN SR
Ġlundd olaÅ¡
Ã¡id e
Ã¡h ter
ĠGu ttorm
t s
Ġp osit
ĠM un
lah tt
ĠgÃ¡v p
ĠdieÄĳ u
uhtt it
201 2
h Ã¡lddaÅ¡
Ġv Ã¡nddar
Â· Â·
meting et
Ġdo ib
ĠÄįielgas it
b ev
mis k
uo s
g ii
âĢĿ .
Ġeaigg Ã¡d
ĠÃģl bmot
Ġv u
Ã¡Å¡Å¡ iid
ĠviidÃ¡s eappot
9 7
g uvlui
ĠB ar
Ġriikk as
oa mit
ig eguovdil
Å¡uvnn aid
Ġguh te
is k
Ġdah kan
ĠÅ¡ iehtadus
Ġnam uhuvvon
Ġsis a
Ġfylkkas uohkan
K K
ĠsÃ¡pme laÅ¡
ihkk al
Ġresur ssaid
Ġval Ã¡Å¡t
2 6
Ġm Ã¡rkan
Ġvuostt as
Ġla htt
Ġ ta
kÃ¡ bma
ĠfÃ¡g alaÅ¡
ter en
Ġgieldd as
Ġgir je
Ġdo al
Ġean ado
k Å¡
ĠSuo mas
kk iid
ĠrÃ¡ÄĳÄĳ Ã¡d
ĠB iras
ĠÅ¡add an
nj Ã¡r
Ġheiveh uvvon
istt alaÅ¡
f f
rÃ¡ÄĳÄĳ i
ĠÄį ie
mentÃ¡r alaÅ¡
~ ~
uo pm
ovd na
ĠAn Ã¡r
am ma
ĠeisevÃ¡ldd iid
lass ii
ĠD alle
ag uovll
ealÃ¡hus aid
Ġohc an
D A
Ġmi esse
Ġguo vlu
do llui
Ġboar es
ah allan
sta d
v ar
guovddÃ¡Å¾ at
Ġmielddis bukt
s tta
S ubmi
o ass
Ġart ihkkala
ej upmi
Ã¡sa ÄįÄįat
Ã¡s ta
earv i
kk aÅ¡
Ġea t
Ġnj eal
Ġjahk Ã¡i
h tun
j jÃ¡
P R
ĠM aiddÃ¡i
Ġt eaksta
d aid
Ġn ationÃ¡la
Ġeatna miid
Ġbuor idit
ev Ã¡l
Äĳ iid
ĠgÃ¡r vv
200 7
SÃ¡medigg erÃ¡ÄĳÄĳi
2 7
tt evaÅ¡
ĠT h
Ġvea lah
Ġs earvv
2 9
v Ã¡ldi
ull i
Äĳis taga
Ġdeh e
il i
Ġbo Äĳii
ĠÃ¡rvvoÅ¡t allan
Ëľ Ëľ
2 3
ĠÄį ovd
ĠÃ¡Å¡Å¡ it
Ġin for
Ã¡dd Ã¡
oav kkus
Ġ il
Ġ4 7
itt er
Ġ ................
mi ela
Ġs Ã¡r
Ã¡h kan
ur ggiin
Ġgeavah uvvo
e min
ri ksen
ai cc
Ġdat tetge
ea tn
igat ion
Ġsadj Ã¡i
medi ggi
an go
doai mma
is ter
ĠdÃ¡r kil
la i
D Ã¡t
Ġrie gÃ¡d
ĠG as
Ġ7 8
Ġean adoall
u mis
an doallo
ĠÅ¡add at
ĠgÃ¡vdn at
p mÃ¡r
ess et
ĠÅ¡atta i
Ã ±
ĠH en
Ġ ,
ĠÄįÃ¡ z
ĠÅ¡add et
am earkk
Ġnav igation
Ġs idjiide
ĠE r
n en
ĠRuo Å¡Å¡
Ġmieh tÃ¡
guovll uin
vuo vd
Ġber oÅ¡t
arje l
b me
mii ja
joÄĳih eaddji
Ã¡htt Ã¡
in s
I E
e kt
om Ã¡n
ĠgÃ¡ib ida
Ġpriv Ã¡hta
ot no
ĠÄį adn
Ġla ÄĳÄĳ
v eah
ering en
m mis
Ġboazodoall u
Ã¡g as
ĠD e
Ġearenoam Ã¡Å¡
Ġdo kumean
ent s
Ã¡z z
pr ogrÃ¡
Ġstud ean
ĠbuÅ¡eah tas
vuoÄĳ ad
ĠB uot
l Ã¡
Ġd eadd
Ġmaid da
ĠÃ¡rbev ier
ahttin departemeanta
Ġb agad
kon ferÃ¡n
Ġl e
Ġruovtt u
Ġsis doalu
Oahp p
ĠÄįÃ¡ j
Ġbarg an
ĠdÃ¡rbb u
beaivv i
j ja
ĠR iikk
2 4
us s
Ġ199 9
Ġdeatt uha
eaddj iid
ĠvÃ¡l di
Å¡ g
ĠhÃ¡stalus aid
Ġallas kuvlla
l bmil
Ġ3 4
Ġdeatt uhit
dd it
id eapmÃ¡i
ĠSÃ¡medigger Ã¡Äĳi
kki in
ĠA nn
bea ivi
Ġsuohkan is
ĠgÃ¡ib idit
Ġjo Äĳ
id ne
bm an
201 5
eh a
Ġjuo vla
ĠeisevÃ¡ldd it
o mer
Ġgar ras
k Åĭ
i mii
e ktii
min isttar
ast ivra
3 8
Do arjja
j eringen
k eahtes
Ġdig aÅ¡t
ah eaddji
iid a
Ã¤ l
ab a
Ġ16 9
Ġjahk Ã¡saÅ¡
Ã¡s k
M ii
vuoÄĳ aide
kk Ã¡
d eapmi
ĠK rist
Ġbarg et
Ġgeasse mÃ¡nu
b uÅ¡eah
Ġan al
S uo
Ġn ie
in en
ĠdieÄĳ ih
Ġkap ihtt
k ru
w itter
os ii
ast Ã¡
ov a
os iin
Ã¡h ÄįÄį
eas ta
Ġstiv ra
ar s
ĠSea mm
ovdd asvÃ¡st
r ed
d uin
ĠT or
b oah
a miid
Ġhea itt
Ġl Ã¡vdego
Ġboaz o
Ġrie kti
lah ttu
Ġ kantu
ĠSÃ¡mi id
Ġean aÅ¡
oas i
3 5
p ost
vd ad
Ġ0 8
Ġfor m
Ġipmi r
Ġgo kÄį
Ãģ M
Ġgo as
dire ktor
oa Å¾Å¾
idd ja
9 9
Ġ3 8
aÅ¡uvdn ii
e vttohus
de partemeantta
tu i
almm Ã¡t
Ġhea j
Ġo am
te vaÅ¡
pros eass
O vd
v ik
Ã¡i gge
Ġolbm uide
ĠbÃ¡ik ego
m Ã¥l
Ġpers pektii
ĠsÃ¡ht Ã¡Å¡ii
v ear
ieh tu
a mi
dan ÄįuozÃ¡hagat
ĠS is
Ġguo vv
Ã¡hkk an
otno las
Ã¡l eamos
Ã¡t ni
uÅ¡ uvnn
ĠguovddÃ¡Å¾ is
Ġsuohkan a
ĠÃ ħ
g el
m ann
eb o
Ġmuit alus
lÃ¡n dda
as et
doaimm aid
in d
Ġb ar
ĠS Ã¡megiella
Ġb esset
ul bmil
Ġdah kÃ¡
Ġdutka muÅ¡
Ġb aicc
Ġorg Ã¡n
O hc
tt us
ĠviidÃ¡s et
ĠMÃ¡nÃ¡id gÃ¡r
umi t
N u
u miid
o Äĳih
j oh
G A
ii la
en a
s y
Ġo tn
Ġunivers itehta
bÃ¡i ki
Ġb uol
ĠP ed
ti on
ĠG a
Ã¶ r
ĠealÃ¡hus aid
Ġlasih it
di li
Ġfuolah it
Ì ģ
ll Ã¡i
Ġ3 00
Ġt eavstt
Ã¡h tii
il ge
Ġdohk Ã¡laÅ¡
ĠlivÄįÄį e
eahÄį a
aÅ¡ un
ĠO vdd
ĠÃ¡lbmot rievtt
ĠG ir
dah je
Å¡ ii
i o
Ġf Ã¡r
ĠhÃ¡lddahus laÅ¡
ĠvuoÄĳ u
gg ot
Ġokta vuohta
Ġbearr aÅ¡
ih kkar
b idj
Ġfyl kka
De partemen
Ġ5 8
ĠlÃ¡g id
b j
ah kan
k l
as Ã¡mi
O r
k ed
ĠD ie
ĠberoÅ¡tu miid
Ġkultuv rras
Ã¡Å¾ ii
201 4
Ġjoat kka
ĠD as
ĠÄįa v
Ġdieht it
ki p
Ġg ie
Ġp oas
Ġboazodo alus
R om
doaibma bij
ĠSiid a
dd jo
Ġguo lle
ĠP er
Ġviidd is
ĠsÃ¡mediggej oavku
te m
p or
Ġboazodo llui
ĠdÃ¡rog illii
Äĳ a
a mis
ĠRuoÅ§ as
Ġo ÄįÄį
Ġnuor aide
Ġdo ahp
Ġ4 4
Ġin stit
tneg as
n uor
Ġjoh t
emi en
ĠÃ¡i ggis
uon du
ĠM u
vd it
Ġbarg Ã¡
ĠrÃ¡ Äĳi
Äį oa
Ã¡s ahusa
ĠM Ã¡
ea llin
ĠÄįilg et
ah is
om mi
Ġl ii
G iella
oht alus
Ġgo v
d usa
Ġn an
ĠR Ã¡ÄĳÄĳehusa
ĠhÃ¡stalus at
Ġnjuol ga
Ġear Ã¡t
ĠmaÅĭ imuÅ¡
ĠD i
oa iv
es i
vva laÄįÄįat
juolggadus at
Ġr idd
ĠNor ga
Ġm ass
ĠT elef
Ol gor
Ġmeannud eapmi
id do
ist it
Ġbuor it
ĠÄįuovv u
mearr i
d uvvon
ĠDean u
Ã¡i gi
Å¾ a
ea mes
v Ã¡ldd
as tt
vuo nas
ĠmearrÃ¡dus at
ahtti ma
Ġ w
201 1
Ġb uo
ĠA lmm
Ġ6 4
ĠhÃ¡lddaÅ¡ it
I S
ri k
Ġ5 5
Ġorg Ã¡na
ĠR Ã¡
to lat
ĠhÃ¡lddaÅ¡ eami
M A
ĠvÃ¡ld Ã¡
iij aid
bÃ¡lvalus aid
p ma
Ã¡ld as
Ġparla mentÃ¡ralaÅ¡
ĠlassÃ¡n an
il it
ĠjoÄĳih eaddji
Ã¡pme laÄįÄįaid
am us
ultu vra
ĠbÃ¡lvalus aid
ĠMat his
ag aide
ĠÄį uoh
ĠGuovdageainn u
Ġg illii
tt p
Ġs i
Ġ4 6
Ġda v
ĠdÃ¡s i
ĠhÃ¡lddaÅ¡ a
Ã¡ mu
Ġl Ã¡vdegotti
Ġohpp iide
pp i
u kÄį
eh ket
y m
Ġb uÅ¡
Ġmeahcc e
Ġguo htun
Ġduo ji
â Ħ
Ġ201 7
Ġdad jat
ol o
h a
Ġvuo gi
âĦ ¦
Ġsiid a
Ġkval itehta
201 0
ĠgelbbolaÅ¡ vuohta
as ta
ĠÃ¡ig Ã¡i
Ã¡v a
201 3
Ġ5 3
is ta
Ġpros eass
ĠdÃ¡l kkÃ¡dat
Ġmil jon
ac ebo
Ġ7 5
f r
gg Ã¡i
Ġg Ã¡l
Ġl Ã¡vdegoddi
Ġfor s
ĠE n
Ã¡ld u
Ġdiv Å¡Å¡
vuo hki
j ul
o ar
g an
ass en
Ġ0 9
ĠvejolaÅ¡ vuoÄĳaid
kte t
Ġenerg iij
iv e
Ġnor gga
Ġvah Ã¡g
l Ã¡vdegotti
oahpp u
f itn
ĠD Ã¡r
S kip
2 8
konven Å¡uvnna
Ãģ r
Ġdoarj u
ĠBarg iid
o Äĳ
Ã¡i ge
ur d
j ov
I D
7 8
Ġboah tit
ĠÃ¡sah uvvon
Ġjur d
ĠruÄĳ at
Ġluondd ur
Ġboar rÃ¡s
Ġdoaibm an
Ġguorah allat
Ġ >
Ġ6 0
Ġp olitihka
aj agi
ĠÄįoahkki mis
Ġearenoam Ã¡Å¾it
Ġf ierpm
Ġd uhta
Ġdoaibm ag
k Ã¡s
Ã¡ig uin
tt it
op osi
ad e
nn as
ĠdÃ¡rbb uid
ov e
Ġda Äĳistaga
Ġvuoigat vuo
l Ã¡vdegoddi
ih tii
Ġ ..
Ġv Ã¡i
ĠfÃ¡g as
Ġf Ã¡rr
Ġruovtt us
E llen
s uo
ahtt on
uoh ki
g iid
ĠSÃ¡medikki in
Ġoh cc
eal Ã¡husa
gg at
all et
ĠA re
Ġdeatt uh
Ġoahpp u
Å¡uvnn as
Ġmo vttiid
Ġdohkkeh it
Ġp oasta
B ok
a lan
ogrÃ¡ f
ĠÄį ear
Ġdutka ma
j oavkk
v ejolaÅ¡
Ġh Ã¡v
i rras
Ġgiela laÅ¡
Ġmen u
Ġgas kasaÅ¡
Äĳ e
mm un
3 9
200 5
ea ivv
Ġj ea
Ġj Ã¯
stt aÅ¡
ĠvÃ¡ll jet
Bok mÃ¥l
U S
Ġbarg os
ef t
uo Åĭ
Ġmin erÃ¡la
Â ¾
ĠhÃ¡r jeh
la Å¾Å¾an
ah at
Ġboah ttevaÅ¡
ĠÅ¡ l
m aid
Ġmearrid uvvui
ĠdÃ¡rbbaÅ¡ it
Ġ am
i Åĭ
Ġ199 7
ĠÄįuovv ut
Ġguh kÃ¡
E R
Ġl eft
Ġv eh
vuo gi
ks i
ast in
ĠÄįuj uhit
ĠmÃ¡t ke
G uo
bea lat
D at
oai mmah
ĠH a
Ġf atn
s ka
uhta dan
ĠF yl
ĠD oaibma
ï Ģ
Ġn ana
Ã¡hus as
Ġre kru
Ã¸r n
ĠGuovdageainn us
tt iid
Ġ201 6
kit alo
ag irjj
ĠDÃ¡ kkÃ¡r
Ġg Ã¡nn
Ġgeah ÄįÄįat
Ġ9 8
ĠM earr
o miid
ĠdÃ¡l v
Ġg Äį
Ġf Ã¡ll
ĠM us
7 5
ĠnjÃ¡l mm
Ġdohkkeh uvvon
ivÄįÄį ii
Ġboahtte Ã¡iggi
Ġ =
ĠI pmi
Ġgulasku ddan
R uo
Ġm oa
Ġm ols
Ġnav ig
Ġbeal is
Ġvuo i
Ġst atist
Ġdil is
Ġr ev
Ġse min
t ast
Ġmi ht
Do kumen
oÅ¡ ii
Ġdoaimm as
edagog alaÅ¡
Ġd us
Ġm ot
Ġnama lassii
ed it
ĠÃ¡lggah uvvui
Ġ kur
kultu r
Ã¡meg iel
Ġeami Ã¡lbmog
Ġsis te
de ttiin
oah tit
uvvo jedje
al e
Ġd earvvas
Ġr ef
Ġbid jÃ¡
Ġokta vuoÄĳain
bÃ¡lvalus at
G ielda
el Ã¡ga
al g
Ġbarg iid
ĠÃ¡ vv
Ġveahkeh it
ĠR i
ĠV Ã¡ikkuh
Ġvuol de
Ã ©
Ã¡h pp
Ã¡vdn asiid
________ ________
lah us
200 4
Ġboahtte Ã¡iggis
Ġs kÃ¡bma
Ã¡s m
Ġsearv ad
Ġe v
ĠSa metinget
ĠÄį ilge
Ã¡hta laÅ¡
Ġreg ionÃ¡la
fÃ¡lald aga
tet s
Ġmilj ovnna
asiid u
ĠE ar
z z
Ġguo vd
ĠMa gga
Ġbiebm odepartemeanta
Ġ us
rÃ¡ Äĳi
Ġsis ab
ĠRom ssas
ĠLea t
9 5
rra muÅ¡
all i
Ġdoaimm aide
ka ma
Ġbaji mus
at ii
ĠstÃ¡hta laÅ¡
Ġguovll ut
Ġadd Ã¡n
es kitalo
Ġkr uvnn
Ġorr ot
Ġfors ide
ilg ehus
Ġeatn ig
earr Ã¡ig
gg an
Ġvuos tta
F in
p ers
Ġbeass Ã¡
ĠM arg
Â¿ Â¿
eaigg Ã¡d
Ġalmm Ã¡
tola gat
r ea
ej eaddji
Ġkon kr
Ġ4 8
Ġoll Ã¡sit
ĠD ep
it et
Ġ19 5
Ġc el
ÄĮ Ã¡l
Ġgieldd ain
, -
p me
e mat
Ġnavig aÅ¡uvdnii
D u
on d
i Ãµ
ĠI I
giella n
Ġhuks et
ïĢ ł
7 0
Ġb uohk
r ejit
Ġgeah p
Ġgiela s
ah uvvon
kte n
Ġbivd it
g Ã¡i
Ġeal Ã¡husa
Ġdavv iriikkalaÅ¡
Ġ ....
mm u
ĠovdÃ¡n ahttit
iel Ã¢
anv uÄĳot
Ġevttoh a
Ġh ttp
ĠÃ¡lggah an
Ġr es
Ġovddid eapmÃ¡i
Ġgo ass
partemean ttain
O N
ob eal
d Ã¡n
Ġdag aha
em eannud
aÅ¡un Ã¡la
ĠDan in
FinnmÃ¡r kku
Ġgieldd aid
minist ara
ĠBar ents
ĠR ie
Ġseamm Ã¡
Å¾ ettiin
Ã¡n ta
R A
Ã¡htt a
Tr Ã¸
---- ----
ĠL a
Ġoahpahus as
ĠTr om
. âĢĿ
v Ã¡l
ahtt ojuvvon
ĠvÃ¡ll jej
Ġh Ã¡ll
Ġbargg uid
o Å¾
Ġst ipean
ĠT he
ĠrÃ¡hkad an
Ġbel iid
Ġs us
Ġ5 6
f uo
ĠS uohkan
ĠvÃ¡s ih
Gov ÄįÄįa
k is
ĠvÃ¡ld Ã¡n
Go vva
Äį Ã¡l
ol mmoÅ¡
Ean andoallo
Ġdor vv
Juo gat
E vttohus
Ã¡st allan
ĠhÃ¡lddaÅ¡an guovllu
ast iv
ĠlÃ¡g an
Ġsaj is
Ġs Ã¡m
Ġoas is
Ġdiehtoj uohkin
ĠjÃ¯ h
Ġb Ã¡hc
eall je
Ġgarras it
Ġuh c
id de
oh ku
ĠÃ¡v kin
Ġatn ui
ĠL app
kono malaÅ¡
ĠmakkÃ¡r ge
Ã¡t ne
A n
o us
Ġsuo djalan
j ahk
el is
o u
ĠLuondd u
ĠFinnmÃ¡r kk
Ġean as
a me
Ġj or
ĠdÃ¡id d
et h
ĠPed ersen
Ġgirjj Ã¡laÅ¡vuoÄĳa
og uo
Ġheiveh it
ohp u
st ru
Ġovddid eami
Ġbohcc uid
bb a
Ġvuol gg
Ġmann Ã¡
guovll uid
D earvvaÅ¡vuoÄĳa
ol ut
Ġ :
uovll us
ĠÃ ĺ
D uo
f Ã¡ga
vd n
st i
ĠÃ¡ kk
ĠR eg
Ġdag ahit
dd o
Ġvuor dÃ¡
oÅ¡ ektii
Ġul bmi
ĠÄįilg ehus
Ã¦ tta
Ġjien ast
Ġm uitt
200 3
Ġd al
gg aid
iteh tas
ĠvalÃ¡Å¡t allan
Ã¤ n
ĠT ur
ĠVai kko
Ġovdd eÅ¡
ĠÃ¡i gi
ĠvÃ¡r ra
ĠB er
li ote
ĠÄįaÄĳ a
Ã¢ Å¡
g es
ad at
Ġguovll uide
âĢŀ âĢŀ
Ġv ie
ĠK eskitalo
d s
ĠvÃ¡ikkuh a
Ġsis ttis
ĠJoh n
ĠÃ¡sahus aid
SÃ¡me musea
Ġn ag
ĠrÃ¡hkad uvvon
s Ã¡me
at iiva
Ġgul lat
Ġmain na
eddj iide
ĠdÃ¡hpÃ¡h uvvÃ¡
Ġgeavah uvvon
c k
je l
Ġdavvis Ã¡megiela
E arÃ¡
ih p
ĠÄįuo ÄįÄį
mi htt
ig n
Ġ7 0
Ġdoaibm at
c on
ĠSeamm Ã¡s
Ġb Ã¡r
SÃ¡medigg er
Ġsa kka
ĠG e
Ġmie Äĳih
as i
Ġovdal go
acebo ok
Äį Ã¡j
Ġreg i
Ã¦ r
foan dda
Ġol gor
ĠSÃ¡mi s
ti c
Å¡add an
Ġbuoh kat
g Äį
ĠV Ã¡l
inn u
Ġdie n
v ies
Ã¡ mm
ĠKÃ¡rÃ¡Å¡j ogas
Ġmielddisbukt Ã¡
Ġv ieh
barg ui
ug iin
n r
mÃ¡ vva
Ã¡r ta
Ġdavv ig
Ã¡mi id
Ġferte t
f jell
g elbbolaÅ¡
t or
k iiva
Ġmearrid ii
ĠÄį Ã¡la
b ealde
te ddj
ĠÄįuo Å¾Å¾
ĠlÃ¡g aid
ortneg iid
Ġvuor uhit
Ġceal kÃ¡
iij as
akt Ã¸r
Ġvah ku
ej uvvui
Ġstuor Ã¡mus
dil Ã¡laÅ¡
l ig
Ġ '
Ġv ier
ed o
Ġ4 00
Ġstiv ren
Ġjoat kit
Å§ a
e mis
u Ã¡la
di h
Ġla kt
ĠovdÃ¡n eapmi
O R
Ġl ob
Ġbis tevaÅ¡
r on
ej oÄĳih
Ġovdd it
ĠH ar
19 8
. Â»
ĠR e
Ġgiella guovddÃ¡Å¾
ĠIn ga
Ġjoatkkas kuvlla
Ġart ihkal
Ġvuhtii vÃ¡ld
Ġguovtteg ielat
uoh tun
Ġbo vd
ĠNil s
ĠB al
Ġg Ã¡
kt an
rÃ¡ Äĳiid
Ã¡hk at
Ġgiela id
Ġo pm
âĪ «
ĠMeahcir Ã¡ÄĳÄĳehusa
b id
Ġe ks
Ġde fin
app o
ĠM Ã¡r
iela laÅ¡
ĠmÃ¡nÃ¡idgÃ¡rdd iin
:::: ::::
t on
ĠÄįielggad it
Ã¥ d
Ġguovv amÃ¡nu
Ġinfor mÃ¡n
Ġsuohkan iin
Ġn aÅ¡uvnn
Ġi pmÃ¡r
E N
Ġreh ken
ĠrÃ¡v is
Ġb ell
oÅ¡ iehtadusa
ĠrÃ¡ f
Ġnj ukÄį
ieÄĳÃ¡hus at
Ġbuoh cc
ĠrÃ¡ j
Ġnj ie
ĠvuoÄĳÄĳ u
Ġin ves
s kuvlla
kt iv
ĠÄį Ã¡hc
ol ssa
Do kumean
di lli
Ġsiskk Ã¡ldas
S ol
Ġdoaibm Ã¡
200 1
it i
ĠbuÅ¡eah ta
s te
ĠÄįuovv olit
Ġ199 8
Ġmiesse mÃ¡nu
Ġm oht
od a
proÅ¡eavtt a
ka muÅ¡
ĠvÃ¡ldd i
ie na
Ġe ll
ĠgeahÄį a
it Ã¡
bb at
Ġgeavah uvvot
ĠÃ¡i gg
Ã¡g e
partemean ttat
ĠmaÅĭ emus
Ġ *
min ister
uovll uid
Ġoain nu
" .
Ġ7 7
vuoÄĳ u
ĠG Ã¡i
Ġst ruktu
ĠÃ¡lbmog is
Ġeavtt ut
ĠbearrÃ¡ig eahÄįÄį
Ġdoaimm ah
ED I
bivd u
ĠH Ã¦tta
200 6
Ġ15 0
Ġte kn
joÄĳih ango
ĠE renoam
ĠsÃ¡mi ide
Ġloahp as
ĠÄįuj uh
vuoÄĳÄĳ u
ĠU lbmil
uoÅĭ omÃ¡n
Ġr o
s on
Ġjienastus lohku
eav stta
Ġl oahpp
Ġdig itÃ¡la
Ġh ir
ĠJ A
l ie
usa iguin
al ii
Ã¡mi t
ing s
ĠgÃ¡r Å¾Å¾
ĠÃ¡sahus at
Ġbuhta dus
Ġsis doallu
Ġman ne
j uvvon
foan da
Ġ8 00
V Ã¡r
Ġokta ge
Ġovddid eapmi
Ġatn Ã¡
Ġguh kit
Ġjear ah
uvv et
Ġdoarj agat
Ġ................................................................ ................................................................
ĠÃ¡l ki
org Ã¡na
e mii
Ġbea ivi
Ġm ea
ag ii
eah p
Ġgir ku
MÃ¡htt odepartemeanta
bi vddu
ahtt et
geavah eami
Ġjahk Ã¡saÄįÄįat
Ġnuor talaÅ¡
ĠvÃ¡s ihit
Ġjuh kk
ĠlÃ¡g idit
201 6
Ġd ass
ih ke
Ġma iguin
Ġg ill
ed ovd
uovll uin
Ġgeav ahus
ĠsÃ¡medigg erÃ¡ÄĳÄĳi
Ġ www
Ġr Ã¡hkkan
odag aide
Ġdoaibma plÃ¡na
ggaÅ¡t us
ir e
pr oÅ¡eakta
ĠmaÅĭ imus
Ġkulturmuitt uid
Ġdo kumen
vv at
sa mediggi
Ġdat te
3 3
ĠÄį uol
j oavkku
Ġgol ggot
ag n
Ġm et
âĢ¦âĢ¦ âĢ¦âĢ¦
partemean ttas
Ġdul k
Ġkantu vra
or f
s is
vdd a
Ġbukt Ã¡
b as
Ġbeal it
Ġvuost Ã¡i
Ġpr esideanta
guo vlu
Ġ9 5
ĠvÃ¡ikkuh usaid
Ġv Ã¡
ul las
Ġh ehtt
earvv i
Ġgieldd at
ÄįÃ¡ll i
Ġbarg it
Ġs kuv
ol Ã¡hka
Ġkonkr ehta
Ġs turr
Ġj earr
Ġviid Ã¡t
S Ã¡megiela
Ä Ĳ
ĠÄįaÄĳah uvvon
E S
f t
Ġm od
bu vttad
Ġbiss ovaÅ¡
miela laÅ¡
k Ã¡i
ĠJ an
ieh k
Ġel ekt
Ġoahpah eaddjit
ĠOr g
m ark
Ġgo almmÃ¡t
Ġreg jeringen
Ġv Ã¡zz
vd eg
ĠÃ¡lgg us
r es
oahpahus as
ol d
Ġ9 4
ĠvÃ¡ikkuh usat
Ġgeav at
ĠsÃ¡n i
ĠmÃ¡Åĭgga bealat
ĠlaÄĳÄĳ asa
g Ã¡ib
Ġl Ã¡ig
Ġr iddo
Ġoahpahus sii
mÃ¡n Ã¡id
ĠVÃ¡nddar danÄįuozÃ¡hagat
Ġmuh tu
evttoh usa
Ġ ut
Ġf Ã¡dd
eim met
ta kt
ĠB oaz
J os
valus at
Ã¡Å¡Å¡ i
6 0
Ġm Ã¡htolaÅ¡
ur ggiid
I T
Ġbeaivv Ã¡laÅ¡
ol on
tu t
Ġl otnolas
Ġk om
ret he
ĠgÃ¡nn Ã¡h
Ġfuolahus departemeanta
V Ã¡ld
iin n
d ni
ga b
olog u
Ġgoz ih
Ã¡ig Ã¡saÅ¡
Ġis kkad
Ç© iÃµ
Ġst ob
ud n
uhtadan departemeanta
ĠÄįÃ¡ll Ã¡
ĠvÃ¡ikkuh us
ĠdÃ¡sseÃ¡rv o
Ġs or
ĠO le
Ã¤ j
Ġsa ji
Ġal de
Ã¤r vi
la id
Ġresur s
Ġmer k
Â ¼
ĠÃ¡r ktalaÅ¡
oazodo alu
Ġf oan
bm u
tt aide
kk Ã¡ld
or oh
Ġf idn
ĠrÃ¡ÄĳÄĳ i
ĠmÃ¡vss olaÅ¡
or t
O ÄĳÄĳa
uÄĳ aid
ald at
ĠC h
Ġdoarj ut
Ġbear aÅ¡
Ġla gas
Â» .
uoh tt
Ġbear e
bm at
f a
Ã¡h ku
Ġ................................................................ ................................
ĠL Ã¡hka
Ã¡ht as
Ġ00 30
S uodjalus
Ġjuo llu
Ġhistor jjÃ¡laÅ¡
Ġdie htu
Ã¸ y
Ġbu vtt
g ir
eadd je
ĠD earvvaÅ¡vuoÄĳa
g eass
Ġpr ogrÃ¡
ola Å¾Å¾an
9 6
Ġv istt
Ġveah ki
K A
iik adepartemeanta
2 000
ĠS Ã¤Ã¤
og ra
I R
L L
ĠS ara
Ġgear dde
Ġheaitt ih
Ġbid jan
ĠvÃ¡s te
Ġpros eassa
dd jiin
Ġv ul
ag rÃ¡
ĠÃģ Å¡Å¡i
ĠH el
Ġdol oÅ¡
l ed
Ġmi h
ĠMarg rethe
Ġovd amearkk
Ġgol uid
D utkan
Ġskuvl ii
ber ga
b liote
an gaska
rateg iijat
Ġb ah
ĠÄįoahkki ma
s uodjalus
Ġlass i
st an
c t
ĠE l
ĠÄįiel ggas
Ġserv odahkii
oah tÃ¡n
ist an
ut nje
kt od
ĠJ agi
ĠH e
olbm uide
ea t
ĠgeahÄįÄį alit
ĠS u
ast eapmi
Ġjuollud an
ud it
ĠBiras gÃ¡htten
e isevÃ¡ldd
ĠS to
Ġeal Ã¡sk
ĠgÃ¡ib Ã¡dus
DÃ¡l kkÃ¡dat
f Ã¡pm
Ġs m
ĠD Ã¡b
ĠM o
Ġovtt ad
ĠÃģ Å¡Å¡
g aid
Ġs mÃ¡vva
Ã¡id dus
Ã¡pme laÄįÄįat
Ġj uks
ĠE urohp
Ġg irjji
ĠvÃ¡hne mat
ah Ã¡lddaÅ¡
Ġboh te
ĠA B
ĠMÃ¡ tta
ĠvÃ¡ld et
ceal kÃ¡muÅ¡
or a
ihkk ii
Å¡ iehtadus
Ġloh kÃ¡
ĠgÃ¡vp og
ĠsÃ¡megiela id
ĠlÃ¡g as
uovll ut
Ġfr iddja
ogrÃ¡f alaÅ¡
ie rra
Ġ3 2
ĠK ir
Ġmearr asÃ¡mi
eguovd ilis
Ġo dne
anv ejolaÅ¡
Ġposit ii
itt ot
dd at
aj iena
ĠDa kkÃ¡r
Ġv ar
ivv an
ig a
m me
org Ã¡n
ĠmÃ¡nÃ¡idgÃ¡rdd is
Ġrekru tt
b an
id ii
Ġh ilg
Ġla s
Ġjuo ga
amÃ¡n us
Ġdoarj agiid
Ġbuoh tast
ĠÃ¡i ggiid
miel de
st ivra
Ġdil iid
F Ã¡ddÃ¡
Ġn appo
Ġea ige
Ġvuostta Å¾ettiin
Ġbo rramuÅ¡
ĠvÃ¡il evaÅ¡
Ġkapihtt alis
Ġoahppop lÃ¡na
esur ssaid
Ġolbm uin
idd ut
uo vl
Ġb ust
vuo da
ĠÃ¡i rras
ĠF inn
ĠdikÅ¡ un
ĠS c
Ġduo pm
Ġguorah allan
Ġsohka beal
ĠÃ¡id na
M un
Ġd Ã¡httu
Ġar en
Ġdah ket
Ġbo as
Ġ9 7
ĠgeahÄį adit
Ġgalg e
Ġgeah ÄįÄįa
u vttad
Ġ5 4
ĠÃ¡rv oh
Ġ ...
Ġelekt r
oh ko
Ġber rejit
jÃ¡v rri
Ġt j
Ġ199 0
ĠRuoÅ¡Å¡ a
b el
Ġg irj
ah ki
âĢĿ ,
Ġf in
Ġr astÃ¡
Ã¡s is
te ra
di gen
vdd us
Ġgear ggus
Ġunnimus at
b ealla
ar iid
Ġ................................................................ ................
Ġdoib mii
ĠI sa
Ġmihtt omearri
Kon takt
Ġenergiij adepartemeanta
d is
Ġj oavku
M uh
vuor kÃ¡
R uhtadandepartemeanta
ĠMuh tun
Ġguo htu
ĠStuor adi
Ġadd et
v Ã¡ikkuh
Ġf Ã¡sta
Ġte or
Ġ as
ĠE riksen
ll ii
Ġguo ss
bo dd
Ġjuovla mÃ¡nu
Ã¡i tt
Ġadd ojuvvo
Ġkon ferÃ¡n
Ġluondd us
ĠmÃ¡nÃ¡idgÃ¡rdd iid
Â º
Ġde m
Ġgar ra
Ġs ervv
Ġgeavah a
T T
k or
ar t
eh it
ĠÄįuo v
Ġ199 6
Ol jo
Ġovttas rÃ¡Äĳiid
omer iid
ĠP ors
le f
ĠÄįaÄĳah an
Ġp ost
Ġnj eallje
} Â¢
ba kk
}Â¢ {
gg Ã¡
ÄįÄį aid
gal gÃ¡
is a
irjj is
Ġheiv e
e k
Ġg irjer
ĠJ es
c i
u w
ĠN A
ĠUnivers ity
ĠÃģl gg
ĠmÃ¡ks ojuvvo
m uh
Ġea ktod
Ġgoh ÄįÄį
ĠgÃ¡ib Ã¡dusaid
ĠmÃ¡il mmis
D D
uor ggis
ĠDavv is
Ġ ................................
Ġo n
Ġ................................................................ ................................................
ss aide
ti p
Ġrie kta
Ġovddid a
Almm ust
Ġreg ul
Olgor iikadepartemeanta
8 7
on en
ih kkÃ¡r
Ġ5 7
J ohtalus
De partemeanttat
s kuvla
Ã¡laÅ¡ vuohta
StÃ¡hta ministara
Ġd Ã¡Å¾a
us ge
Ġv iess
ĠÄį Ã¡lalaÅ¡
ĠB r
Ġguos ki
Ġs oai
pr esideanta
iikk Ã¡
vv aid
Ġkultur Ã¡r
Ġjoh tui
fÃ¡lald at
G onagas
uÅ¡ t
it e
v ir
eh talaÅ¡
ĠM Ã¡Åĭ
ĠmearkkaÅ¡ ahtti
vuog it
Ã¡la st
ĠvÃ¡rr ejuvvo
ĠduoÄĳaÅ¡t it
Ġ it
ĠsÃ¡ht Ã¡t
Ġt il
Ġlea ba
Ãµ Ãµ
Ġskuvlla in
ust is
juolggadus aid
Ġh er
Ġ6 5
ĠmÃ¡n Ã¡in
doaimm at
digen ous
ealÃ¡hus at
in stit
ĠSÃ¡medigger Ã¡
Ġovtta oaiv
Ġmeahc Ã¡st
Suodjalus departemeanta
Ġnann en
j Ã¡t
ĠÃģlbmot meahc
Ġvuo tn
Ġ0 4
ih pp
Ã¡Å¡Å¡ it
uÄĳ at
Ã¥ v
ĠdieÄĳ alaÅ¡
Ġjuohk it
ĠAlmm olaÅ¡
Ġvieh ka
di g
Ġa kte
eivv iid
ĠvÃ¡lga bii
Ġm eh
al gÃ¡
oh is
Ġovtt ajiena
ĠÃ¡Å¡Å¡ emeannud
Ġveah Ã¡Å¡
Ġear Ã¡id
ĠieÅ¾a met
Ġpr of
Ġbivd Ã¡
Ġresur sa
Ġlea h
Ġbea lli
D an
ĠÃģ irras
va lan
njuolggadus aid
kt asaÅ¡
ĠealÃ¡hus at
Johtalus departemeanta
k os
m Ç©iÃµ
Ġl ohkk
3 4
Ġart ihkkal
ĠoassÃ¡la stit
ĠOvd amear
Ã¡g at
ĠSt at
ht an
Ġpros eantta
i ki
ĠS o
kuvl ii
omearr in
Ġlag aÅ¡
uo Äĳ
Ġguo ll
Ġgea id
Ġlea men
ol ten
uo v
Ġh up
Ġ0 5
Ġoan ehis
3 1
S am
bargg uin
Ġovd a
Ġ5 9
Ġlihk ost
Ġheaj os
Ġg idd
Ġv ihtta
ĠM uot
ĠsÃ¡me lÃ¡ga
ah Äį
. "
ejoÄĳih eaddji
Ġrapor tta
ĠbÃ¡lvalus at
Ġveahkk in
Ġgeavah uvvojit
htt p
V A
ĠM eahcc
ĠbuÅ¡ eahtt
Ġs oahp
all on
eaddj is
eass u
ĠDo ppe
Ġte Ã¡hter
g us
ol e
Ġmiel lahtt
Ġlullis Ã¡mi
Ġus ti
Ġs oahpamuÅ¡
ĠE vttohus
oÅ¡ea kt
ea me
ag iela
ag eavah
kt ot
Ġveah ka
Ġulbmil iid
R Ã¡ÄĳÄĳehusa
k er
do al
Ġbeal i
Ġhistor jjÃ¡
Ġbaicc e
l Ã¡v
dd alaÅ¡
oh cc
vuovd in
Ġanal ys
Ġ kan
iv ss
Ã¡p mu
Ġkonven Å¡uvnna
ĠÃ¡r valusa
Ġ8 4
ĠdÃ¡s se
Ġohc ama
3 2
ah eapmi
OA H
an t
Ġgo ittot
ĠdÃ¡rbbaÅ¡ a
Ġor dn
vuoigat vuoÄĳat
Ġbor ge
earrÃ¡ig eahÄįÄį
ĠrÃ¡ mmaid
Ġda ddj
muÅ¡ at
eivv e
i Å¡g
uh tta
ĠgeahÄįÄį al
Ġgeavah eamis
Ġf al
ĠdilÃ¡laÅ¡ vuoÄĳaid
Äį Ã¡la
rie vd
ĠvuoÄĳÄĳud uvvon
Ġsuor ggis
Ã¤ s
Ġdoa lahit
Ġmen ddo
j as
ah ii
ĠguolÃ¡st an
Ġbeaiv Ã¡d
Ġgos a
Ġdu ddj
Ġ6 6
ĠmÃ¡ks it
Ġfitn odat
Ġealli ma
viid osaÅ¡
Ġg onagas
Ã¡n iid
en e
ĠP a
Ġguh kk
be id
Ã §
Ġgo va
Ġt ear
Ġvuoigat vuoÄĳal
n et
Ġl i
de miid
Ġboht osiid
ĠOhcej oga
Ġn uorra
Ã¡g o
id uvvot
ĠO lli
ĠL Ã¡vdegoddi
ter min
ĠA s
Ġl on
oÅ¡ tu
Ġsis dollui
ĠhÃ¡lddaÅ¡ eapmi
Ġsp esi
ĠStuorradi ggÃ¡i
1 00
Ġm e
uh tte
uoh tu
N SR
Ã¡n s
ĠmÃ¡ ttas
eatna miid
o me
Ġ ~
Ġj ot
od an
200 2
Ġdoaimm ahit
R K
o vttad
Ġs ullas
Ġl uondu
doall Ã¡
ĠÃ¡lggah uvvon
la ga
Ã¡d a
ĠmÃ¡htt it
ĠSiid das
R Ã¡va
b iras
ĠL e
ĠÃ¡rb edieÄĳ
ĠHen rik
ĠÃ¡sah eami
Nor ggas
Ġgo ll
ĠnaÅ¡uvnn alaÅ¡
d uvvo
ĠL ulli
Ġs utnje
Ġ ill
Ġd uohk
Ġv Ã¡n
ĠsÃ¡tn eg
Ġipmir dit
Ġdohkkeh an
Ġveah Ã¡
m Ã¡htu
ea tt
Äįoahkki ma
Ġd adj
bÃ¡l valusa
ikk el
Ġlahtt u
Ġmoa dde
vv ir
Ġsu b
Ġl Ã¡dje
ĠS A
v rras
Ġg iel
Ġj Ã¡
vuo Ã°
ĠdÃ¡r uid
oahpahus sii
De partemeantta
Ġn Ã¡vcc
ĠÃ¡l kit
Ġfylkk amÃ¡n
Ġgust ojit
Ġm easta
ĠO ll
ĠBargiid bellodaga
rr e
Ġl ed
ovddasvÃ¡st Ã¡dus
at t
Ġo Äĳ
Ã¡ht at
201 7
Ġalmm uhit
3 6
Ġf estivÃ¡la
alla miidda
ĠGuovdagea idnu
Ġr uvdn
ĠG uolÃ¡stus
Ġgol ut
Ġr a
ĠM uÄĳui
Ġh Ã¡hkat
ĠB Ã¡l
org alaÅ¡
Ġmus ihkka
Ġsearvad ahttindepartemeanta
Ġgoa ppaÅ¡
go ddi
Ġunnit log
Ġeaktu n
vuo tna
ĠÃ¡ss et
dd aid
Ġf Ã¡t
ĠÄįadn on
ear aÅ¡
d Ã¡l
h p
j ord
ĠmÃ¡ inn
ot na
vuogÃ¡d aga
ĠAB C
d in
Ġd uh
ĠoaÄįÄį o
N uor
tt o
ĠK ultuvra
Ġmu nn
Ġd is
di gg
Ã¡v kk
lÃ¡n ddas
Ġservodat eallima
. :
al Ã¡hka
ĠS aj
Ġr iid
Ġ ka
Ġm idjiide
Ġk at
jÃ¡v ri
TrÃ¸ nd
ĠdÃ¡ ppe
Ġ6 8
ĠoÄĳÄĳ ajagi
ĠleamaÅ¡ an
Ġoahpponeavv ut
Ar t
Ġd ivv
Ġduog Ã¡Å¡
Ġev alu
Ġl obi
ĠÃ¡l gÃ¡
Ġde partemeanta
Kultur departementet
k el
ddar a
ĠÄįÃ¡j Ã¡hus
Ġg uÄĳet
cc es
ode partemeantta
uhtti ma
Å £
er t
ĠU njÃ¡r
Ġn eahtt
Ãģ igeguovdil
ĠÃ¡r jja
ĠV iid
ĠI eÅ¡
ĠvejolaÅ¡ vuoÄĳat
ĠBal to
Ġgiella n
Ġopp alaÄįÄįat
ĠvÃ¡rr ejuvvon
k ielÃ¢
v ai
ev a
eg or
Ġdo allat
ktii buot
ĠmÃ¡t kk
me ksi
eann u
Ġs adji
Ġv er
am u
Ã¡rvv u
T ema
........ ...
Ã¨ Ã¨
l ing
mi iguin
Ġoahpah it
Ġdavv in
Ġvuol g
an sen
l in
igg odagaid
L Ã¡hka
ea Å§
ĠÃ¡rvv us
D oaibma
o e
ĠD utkan
âĪı âĪı
ĠgeahÄįÄįa lan
G u
Äĳasm ahttin
bidj u
Ġmiel la
okta vuoÄĳas
Ġc uoÅĭomÃ¡n
Ġv uÄĳ
Ġ4 9
ĠGuo vddÃ¡Å¡
Ġtu ris
ĠÃ¡v nnas
rie kti
ĠskÃ¡bma mÃ¡nu
O kta
d Ã¡id
Ã¡ÄĳÄĳ Ã¡i
aj Ã¡s
Ġr ii
Ġ4 2
ist ar
l es
Ġaktii vvalaÄįÄįat
vtt Ã¡
Ġbadje las
us ta
en n
Ġoa ivi
Ġ8 01
ĠmearkkaÅ¡ umi
ĠÃ¡sah uvvui
Ġvuo g
tt uid
ss on
vo w
ĠTh om
ĠPr oÅ¡eakta
ĠbÃ¡ gg
ĠfÃ¡l lat
ih kku
Ã¡Å¡Å¡ iin
eah ta
Ġdag ahan
Ġm uohta
ĠT e
pros eassa
h ild
al valusat
gg ain
ĠG ielda
Ġla hka
Ġman d
Ġgea l
Ġolgg os
am aid
Ġbukt Ã¡n
Ġrievtt i
ĠÄįakÄį amÃ¡nu
ĠK le
ĠD aid
ĠrÃ¡dd jejuvvon
ĠÃ¡lbmotmeahc it
4 4
g os
Ġsiid duin
Ġgalg at
all ojuvvon
ĠL ar
ĠgÃ¡v pe
Ġsuohkan at
istt u
Ġgeavah eapmÃ¡i
ĠÃ¡s sa
olbm o
l u
eass ad
Ġopp a
ĠgaÅ¾ald agat
Ġeanemus at
Ġceavz ilis
ĠÄįuoh c
l os
m Ã¡ll
ĠKÃ¡rÃ¡Å¡j oga
r uo
ea bb
Ġbiddj on
ĠG ieldd
all ojuvvo
dieÄĳ ut
Ġjie tn
ĠÄįav ÄįÄįa
Ġ8 0
ĠAn Ã¡ra
oahpah eaddji
ĠÃģl ttÃ¡
ĠÃ¡Å¡Å¡ edovd
ĠovdÃ¡n ahttin
Ã¡htt et
Ġdo all
Ġ8 5
Ġlea i
ar ie
ĠS iidda
O U
a vtt
ig ht
ovdd ideami
ah eami
Ġortneg a
e w
ad eapmi
ig o
Ġ6 00
Ġdavv i
3 7
ĠH istorjÃ¡
Ġt r
ĠberoÅ¡tu pmi
Ġnjie dj
l f
Ã¡ll u
Ġla gab
ovdd ideapmi
o rr
Ġm olssa
ar en
B oazodoall
uks en
mearr Ã¡dus
Ġoaivvil dit
Ġp sy
ĠdÃ¡s a
Ġ199 5
ĠoÅ¾Å¾ o
ĠMar i
q u
Ġo lah
Ġr ed
Ġr iika
Ġdeadd il
Ġgoz ihit
Ġbargos aj
eh ÄįÄį
ĠÄįÃ¡ll Ã¡n
pm an
c a
ĠâĢ Ļ
ĠF erte
Ġohc amuÅ¡
Ġceal kka
emiid e
........ .
ĠÃ¡rvvoÅ¡t allama
Ġor tnet
dus tr
ĠsÃ¡n it
i fis
Ġbarg ov
ĠvÃ¡s Ã¡husaid
Ġstiv r
ĠP oasta
barg iid
oas is
Ġeaktod Ã¡htolaÅ¡
Ġboaz os
g ieldd
Ġgulasku dda
ĠfÃ¡l u
ĠS Ã¡httÃ¡
ga Å¾ald
Ġbohcc ot
Ġgoit ge
ĠnjÃ¡lmm Ã¡laÅ¡
Ġf ier
Ġbarg un
ĠÃ¡ mm
oai mma
ĠM ikkel
Ġbea kt
ĠÃ ¨
SÃ¡medi kkis
Ġruhta dan
Ġlog ut
ĠvÃ¡st idit
Ã° Ã°
ĠVÃ¡nddar deami
Ġea sta
N eahtta
ĠK a
tip ean
Ġb Ã¡z
ĠS e
ĠÃ¡dd ejumi
Ġh eivv
ed h
apor ta
T elef
ĠO la
ĠstÃ¡hta buÅ¡eah
Ã Ħ
Ġboaz ologu
ĠKÃ¡rÃ¡Å¡j ohka
Ġe k
Ġ4 1
ĠÃģ igeguovdil
Ġdahkk on
Ġc e
Ġresur ssat
ĠB i
ĠoÄĳÄĳ asis
Ġbargg uin
ĠMa ÅĭÅĭ
Ġgeatnegas vuoÄĳaid
iki o
Ġdie h
K U
g uin
plÃ¡n as
Ġeaktu da
9 0
val it
Ġloahpah uvvui
Ġmin or
Ġbuohk aide
Ġg en
oh kan
Ġguh kÃ¡s
Ġmeannud it
aguo vddÃ¡Å¾
ĠÄįuovvol eapmi
ĠÃģ ig
id Ã¡
Ġd Ã¡hk
ĠÄį oah
bo ks
Ã¡la Å¾Å¾an
ĠM Ã¡n
Ġsiid du
Ġguos kk
Davv i
direktor Ã¡hta
Ġgolggot mÃ¡nu
is sa
ĠLuonddu guovddÃ¡Å¾at
ĠP e
ĠdÃ¡rog iella
ĠS Ã¡pmi
st r
ĠP lÃ¡na
Ġdoaimma in
ĠvÃ¡ikkuhangaska oamit
ĠR aba
ĠA ili
Ġn aÅ¡unÃ¡la
ed iehtu
he iv
Ġ6 7
Ġjulev sÃ¡mi
Ġn eg
ear ch
Barg o
Ġdoarjj astivra
Ġvuo gÃ¡d
ean d
Ã¡ jeh
Ġevttoh an
ĠsÃ¡medi gge
Äįoahkki mis
Ġp asi
ĠJ uohke
Ġbea s
Ġoaiv il
Ġbargg ut
Ã¶ n
Ġboazodoall o
ĠÄįuogg Ã¡
Suo ma
. ),
ĠcealkÃ¡muÅ¡ a
ĠAnd ers
E G
uhta dus
Ġ199 4
Ġbis uhit
v Ã¡s
Ġhistor jÃ¡
aguo vddÃ¡Å¡
ĠLass in
oÅ¡eakt ar
B iras
rÃ¡ÄĳÄĳ ehus
Ġgirk odepartemeanta
Ġg Ã¡ld
Ġvuoi ÅĭÅĭ
Ġ aid
ĠrÃ¡f Ã¡id
oh as
Åĭ gg
ĠÃ¡ it
ĠDavv iriikkalaÅ¡
Ġeah pe
N j
S iid
h Ã¡pmi
in ar
ir je
arj aga
Ġboaz og
Ġovttasbarg o
F acebook
asa ÄįÄįat
ĠÅ¡ iehtadusa
irjj it
Ġjag iin
iriikk aid
it a
Ġ5 2
kon sul
ĠvÃ¡ll jejuvvon
tud ean
oss odat
ĠollaÅ¡ uhtt
oj oavku
s uodjal
Ã¡g ast
ĠvÃ¡ikkuhangaska omiid
ĠnjukÄį amÃ¡nu
Ġd ohko
Ġh e
ĠieÅ¡guÄĳet ge
m ar
v Ã¡
Ġg es
ĠE konomalaÅ¡
ĠsÃ¡htt Ã¡n
ĠmÃ¡nÃ¡idgÃ¡r ddi
konven Å¡uvdna
ĠNuor ta
ĠÄįear ddalaÅ¡
ĠÃģlbmotmeahc it
V Ã¡l
Ġb ii
ĠÃ¡i mmah
Ġlahtu t
t al
do alus
u la
ĠsÃ¡medigg evÃ¡l
ĠsÃ¡pmelaÄįÄį aide
S T
Ġ Ã¡hp
oh an
ihkk alis
Ã¯ el
idne mÃ¡nu
Ġ ku
ĠEan adoall
ĠTur i
ĠD Ã¡in
urn Ã¡la
ĠÃ¡ig eguovdilis
Ġsuohkan iid
Ġjie na
inn as
Ġnisson olbmuid
o ur
Ġal cces
ĠC on
dÃ¡r bb
ÏĢ ÏĢ
oÅ¡t allan
ok Ã¡la
Ġoaidn u
Ġeall it
Ġbi rrasa
A l
b r
Å¡uvnn ain
Ġbivd Ã¡n
Ã¡r bev
Ġte l
edieÄĳ Ã¡husa
Ġ801 9
ortneg at
ĠJoh tolagat
Ġ )
tii sa
Ġt eavstta
g un
ea kta
tt Ã¡s
Ġm on
Ġ1 10
i ke
Ã¡r valus
eah tas
und sen
Ġet n
Ġv eal
ĠE U
Ġohc anvuÄĳot
ĠmÃ¡nÃ¡idgÃ¡rdd iide
Ġjienastuslohku i
gg iide
Ġuh cc
r Ã¡hkad
ĠhÃ¡b met
Ġgoass ege
ĠS us
ĠS om
ĠieÅ¾ an
l uo
bm Ã¡i
ĠI s
lÃ¡g as
Ġm Ã¡id
kk ii
ĠMuot ka
s Ã¡megiella
Ã¡lvalus at
istor jjÃ¡laÅ¡
Ġovttasbarg oÅ¡iehtadus
Ġl Ã¡i
Ġbiddj ojuvvon
Ġbiddj ojuvvo
j ii
ĠL ean
ĠmÃ¡htt Ã¡
ĠLapp i
Ġmiel lahtu
erv odat
Ġohc amii
ĠsÃ¡me politihkalaÅ¡
c ation
uÅ¡Å¡ at
Ġadd ojuvvon
ĠvÃ¡l mm
M in
b es
Ġp edagogalaÅ¡
te h
ĠS ihke
ĠlÃ¡g ain
Ġbeal e
ĠboaÄĳ us
ĠS and
Ġr uv
Ãģ I
ĠÃ¡lbmog iid
ĠÃ¡sahus ain
Ġr ustteg
Ġsih kk
Ã¡rv osaÅ¡
Ã¡r at
ĠdÃ¡in na
Ġdoai bmi
ĠJ on
Ġ5 1
ĠdÃ¡id aga
m Ã¡httu
bÃ¡i kki
fÃ¡g alaÅ¡
ĠDi vttas
Ġskuv lah
Ġs urggiin
Ġrievdad uvvon
ĠmÃ¡htt et
ĠMa Åĭ
Ã¡ig odagas
Ġbeass an
te ne
vtt olaÅ¡
ĠlÃ¡hka Ã¡sahusa
ĠgÃ¡v pot
t ie
uh eapmi
Ġovd ii
al Ã¡g
Ġduo jÃ¡r
oaÅ¾Å¾ u
at ur
vv u
Ġbie gga
A nn
Ġh Ã¡mis
Ã¡ss Ã¡saÅ¡
ĠSea mma
Ġnam mii
Ġgirjj is
uÅ¡eah tta
Ġeroh us
ĠÄĮ Ã¡ll
ĠÃ¡vÅ¾Å¾ uh
I i
ter et
P er
Ġd aga
oh te
oah tÃ¡
Ġmann at
Ġl Ã¡id
ĠÄįaÄĳah uvvot
Ġjoat k
oavd a
Ġduohk en
o men
di o
f yl
Ġr el
ĠD ain
ĠÃ¡Å¡Å¡ Ã¡i
oahkking irji
ĠbajÃ¡s Å¡addan
Ġb ier
Ġ2 50
ĠM an
uor ggi
ĠÄĮ uo
Ġruvnn u
Ġstrateg iija
Ġh u
ĠH eai
Ġrapor ta
ĠLar sen
ĠrÃ¡mma eavttuid
rr at
Ġ0 6
iin na
seÃ¡rv u
ĠfÃ¡lald aga
Ma Åĭ
Ġo adje
ĠÃ¡kk ast
h eim
Ã¡ig odat
Ġunn a
Ġovddast eaddji
ĠieÅ¡mearr idan
Oahp ahus
t aid
v ugiid
er a
ĠG eav
rateg iija
Ġs om
es en
vdd Ã¡
ahtt Ã¡n
ĠF or
Ġlog u
b or
Ġd uoh
dd in
ĠsÃ¡m Ã¡st
v r
aÅ¡ ii
Ġdut k
Ġav ii
Ì Į
Ġo astit
Ġnu vttÃ¡
p o
ss ain
Ġos iid
ri ks
ovdd idan
ĠdÃ¡hp Ã¡hus
v an
uv ai
Ġ0 20
in sa
Ġloh pi
ko vvi
ost uol
vuo htan
ĠorganisaÅ¡uvnn at
bm Ã¡
ĠB a
mÃ¡i l
Ġokt o
jj Ã¡s
Ġ Ã¡vd
ĠsÃ¡dd et
Ġs Ã¡vv
ul ev
olaÅ¡ vuoÄĳa
polit ihkas
ĠR o
Ġjuollud uvvon
omear it
Ġ y
Ġp er
Ġbeaivv e
Ġduhta vaÅ¡
te d
Ġvuo hki
ĠdieÄĳ Ã¡hus
Ġ199 3
Ġoas it
Ġregistr erejuvvon
ĠB or
Ġbarg ob
Ġgulah allama
m aiddÃ¡i
Ġpr oÅ¡ektii
Ġst uorr
ĠvÃ¡st ida
Ġ198 9
L LA
m Ã¡t
ra por
ab ealde
Ġsearv an
ĠÃ¡iras is
Ġdoa lah
ĠMÃ¡htt olo
id ieÄĳut
ĠÂ ¢
Ġdovd at
ĠdievasÄįoahkki mis
L in
Ã¡h cc
ĠB erg
ĠPr oÅ¡eavtt
a min
g k
on a
Ġruhta deami
j or
p et
Ãģ H
eaddj Ã¡i
Ġs ys
al usa
Ã¡r aÅ¡
mear i
Ġlea go
Ġ8 8
ĠÃ¡lbmot vÃ¡ll
fer ds
tt ut
Ġ199 2
c tic
s Ã¡megillii
ĠhÃ¡lddaÅ¡ eamis
u it
Ġear Ã¡l
ĠSÃ¡me Ã¡lbmot
Ġovttajiena laÄįÄįat
e las
r asa
ĠÄį uv
Ã¡il mmi
Ġjoh tin
m eahcc
Ġsuodj alit
ĠvÃ¡h nen
iÅĭ kkat
Ġallas kuvllas
dÃ¡s i
kÅ¡ un
eadd i
ĠdieÄĳ usge
ĠÃ¡dd et
eaÅ§ alaÅ¡
Ãģ Å¡Å¡
Ã¡vdego ttis
mit ea
eahÄį en
ĠRiikk aidgaskasaÅ¡
Ġ8 7
Ġj oavkku
g ed
ĠproÅ¡eavtt aid
Ġos kk
emin Ã¡ra
Ã¡s sa
ĠÃģl go
ĠlÃ¡hk Ã¡i
Ġs oj
Ġstiv rra
Ġvis ot
4 8
Ġlea v
ast is
gi llii
h Äį
Ġv ugiin
Ġoahpp og
and Ã¡r
Ġgil i
ĠB o
proÅ¡eavtt at
Ġ all
Ġoass e
or i
ealli mis
urn al
Ġs Ã¡htii
Ġs Ã¡tne
Ġled jen
Ġl iikkÃ¡
ealÃ¡hus ain
Ġdoarjj an
Ġdoaibmabij uide
ĠgaÅ¾ald agaid
Ġna mm
Ġelektr ovnnalaÅ¡
= "
Ġh Ã¡st
Ġmat eriÃ¡la
eaddj iide
Ġskuvlla id
g in
ĠfÃ¡pm ud
ferds els
Ġm uor
Ã¡vdego ddÃ¡i
Ġsihkkarast in
oa Äĳi
ĠR a
ovdd ideapmÃ¡i
Ġlea ge
iv nn
Ġovtt aid
Ġdeh Ã¡leamos
ĠeisevÃ¡ldd iiguin
me nn
Ġkon se
ĠVuo sttaÅ¡
Ġvir ge
Ġjuo go
Sam ferdsels
ivÄįÄį e
ĠberoÅ¡ keahttÃ¡
ĠfÃ¡lald at
uohki ma
Ġa ut
Ġloh p
Ġbeal es
Fin ans
ĠÃ¡sah an
of Ã¡lald
rievtt i
alg ihtii
l la
âĢ¢ âĢ¢
Samferdsels departementet
Ġb uh
ĠE ai
Ġla h
doaimm aide
ĠsÃ¡dd ejuvvo
f ierpm
Ġs otna
Ġb Ã¡ldd
ĠS kuvla
Ġf Ã¡
ĠV uor
ĠE gil
ĠV al
Ġalmm ust
Ġkon t
Ġgaska bodd
bliote hka
Ġrievd an
d el
Ġduo dji
Ġdanin go
it it
Ġm ed
ĠÃ¡rv u
ĠMÃ¡nÃ¡idgÃ¡r ddit
ĠA m
ten riks
Ġmedi a
ĠPors Ã¡Åĭ
Ġm eal
Ã¡l iid
Finans departementet
ĠNord lÃ¡ndda
Ġsuomag illii
Ġr ahÄį
Ãģ L
Ġ201 8
ĠrÃ¡d je
ĠolmmoÅ¡ lohku
............ .
ĠIpmi l
al eamos
Ġeanado alu
B uot
s oahpamuÅ¡a
........ ..
Ġseaill uhit
Ġovttas barggus
Ġoahpah eddjiid
ĠO llu
ĠÃ¡r ga
ĠriegÃ¡d an
Ġl uhtte
Ġh ut
es te
ĠÃ¡sah uvvo
ĠdÃ¡ vvir
Ġruhta d
tenriks departementet
ig in
Ġnuor ta
ĠAnÃ¡r is
stan tii
h o
Ġevttoh usaid
guovddÃ¡Å¾ a
ob uvttad
Ġhuks ejuvvon
kkaÅ¡ umi
Ġdem ok
uvdna pr
Ohc an
Ġrev id
Ġmerk ejuvvon
" ,
U tenriksdepartementet
m ols
m Ã¡lle
il la
ĠO pp
II D
Ġam as
R ie
Ġo idno
ĠT er
Ġjien ain
ĠfÃ¡pm ui
n ii
uoh tas
ĠS p
ĠbÃ¡l k
ĠÃ¡vkkÃ¡st allat
ahtti mii
at e
Ġsuomag iela
Ġg Ã¡rv
plÃ¡n aid
rr eg
Ġbuoremus at
Ġj u
rr u
Ã¡ige mearri
Â «
Ġpr akt
ht on
............ ...
Ġgeatnegas vuohta
s uohkan
v rii
ĠÄį uvvot
Ġorganis eren
Ġv ies
Ã¡n sa
Ã¡s at
ov kui
Ġ9 6
ĠÃ¡rvv uid
Ġohpp iin
lis h
ĠP ar
minister iija
Ġs ear
Ġbohcc o
ĠbeaivÃ¡d uvvon
d uid
Ġj Ã¡hkk
ast usa
ortneg ii
et s
............ ..
ou tu
f ievrr
g Ã¡v
ĠB Ã¡i
Ġdea iv
Ã¡hk ii
Ġar kiiva
Ġdas go
Ġluondd um
ĠIn stit
ĠplÃ¡n en
ĠmÃ¡Åĭgg alÃ¡gan
is ten
Ġn orgalaÅ¡
ĠL ei
Ġbivd o
Ġnubb ing
ÄįÃ¡j Ã¡hus
âĢ ľ
ĠK o
Ġ0 7
ĠsÃ¡medigg er
b Ã¡r
Ġloahp alaÅ¡
Kultur departemeanta
vtt ir
ĠO arje
f il
bargg uid
ĠvÃ¡s ihan
vÃ¡ldd i
v ii
ĠfÃ¡dd Ã¡n
Ġg Ã¥
ĠS PR
kta giid
Ġoroh at
g adit
Ġm Ã¡hc
og at
Ġoahp Ã¡sm
ktii va
ell e
S k
ĠbÃ¡i kki
Ġrievtt Ã¡laÅ¡
ĠNj Ã¡vd
ĠdÃ¡rkk ist
Ġg r
Ġs ta
Ġh an
ol ohku
vuoÄĳ adepartemeanta
Ġgal le
ĠOl sen
e Å¾
Â ¡
ad us
St uorradi
9 4
Ġl Ã¡
is ka
vtt i
ĠB j
Departemen tene
O vttas
r iikk
r ustteg
bi rrasa
Ġekono miija
Ã¡lddaÅ¡ an
ĠoahppoplÃ¡n aid
pers pektii
st Ã¡i
doaimm ah
Â ¨
ĠD oai
bm ag
ast at
Ġkr it
Ġ ed
ĠO ass
Ġe isev
ys tad
ĠStuorradi kki
Å¡uvdn ii
bÃ¡ikk it
Ġ7 6
ĠÄįÃ¡ll i
iess u
Ġguovtteg ielalaÅ¡
ĠvuoÄĳÄĳos kuvlla
l ob
Ġevttoh it
ĠMar ie
or e
ĠB ir
Ã¡ht aid
ĠÄĮ oahkki
m ahttit
in st
ĠO h
Ġmann an
Rom ssa
oj oavkku
ĠAnn e
ĠFyl kk
uvv i
ĠT ove
ihtta la
Ġb uohta
ĠR idd
Ġotn Ã¡
Ġguo hton
Ġovddid eamis
ĠÃ¡ig ut
Ġevttoh uvvon
Ġfierpm Ã¡dat
t d
rr an
Ġovddast eaddjit
Äį uj
od oaimmah
Ġ3 50
Ġealli mis
G uovdagea
d ag
as iin
Ġhir bmat
Ġnjuol gg
a ks
Ġla n
Ġdie kkÃ¡r
ĠoÄĳÄĳ asit
ĠmÃ¡Åĭgg aid
ol uid
Ġ9 00
ĠealÃ¡hus aide
ĠFinnmÃ¡rkk uopm
beid s
Ġ inn
ad aga
Â·Â· Â·Â·
Ġgi ÄĳÄĳ
U SA
ĠG Ã¡r
ĠÄįÃ¡ll ojuvvon
ĠNu bbi
ĠoÄįÄį odit
Ã¡vdn asat
Ġsearv i
ar Ã¡j
ĠDÃ¡l Ã¡
y sa
ĠK al
Ġdeatt uhuvvo
ihtt u
eivv es
ĠhÃ¡lddaÅ¡ eapmÃ¡i
Ġsosi al
c es
s iid
Ġrie vdd
Nor d
Ġpoas ttas
j iid
oh it
ere mii
ĠgelbbolaÅ¡ vuoÄĳ
ah kk
s ea
an ta
Ġmat emat
ĠvÃ¡ld ojuvvo
ĠvÃ¡ldd ii
P A
p er
ĠÄį al
ĠA k
Ġbaj it
Dokumean ttat
al Ã¡vdegotti
Ġv e
ma in
Ġguo dd
9 3
K T
is te
Ġkultur vies
an i
il mas
4 6
I V
Ġr at
Ġ0 2
Ġbuorr in
ĠfÃ¡r us
ĠHar ald
ogra f
d ie
Å¡ iehtadusa
bij ut
Ġeatna miin
Dokumen ter
ame la
Ġstob ut
s u
vtt es
ĠN y
ahtti mis
Ġvuor dit
Ġvuovd in
ĠÄįovd osiid
E r
ĠA pp
Ġear Ã¡ide
Ġmihtt omeriid
ĠguÄĳ e
ĠGas ka
va la
li mus
Ġnisson olbmot
ĠberoÅ¡tu mi
Ġsierr alÃ¡gan
Ġgo kko
ĠÄĮ uovv
ĠsÃ¡medi ggi
Ġborge mÃ¡nu
irjj iid
Ġvuol ggas
Barg odepartemeanta
ĠGas ki
la k
ĠoÄĳasm ahttindepartemeanta
Ġjorgal uvvon
en ti
Ġguo v
Ã¡ig eassu
ĠAr t
ea bbo
Almm olaÅ¡
Ġde partemeantta
Ġda ddjo
suor ggis
ĠdÃ¡rog ielat
Ġvuoll el
ĠollaÅ¡ uhttit
Ġea Åĭ
ĠieÅ¾ at
Ġmea rra
Ġ ih
ĠMuh tin
ĠgaÅ¾ald at
Ġsk ov
Ġusti bii
Ġda j
Ã¡j us
Ġluo ssa
u k
Ġovddid ii
Ġunn idit
ĠIn tern
ĠïĤ· ïĢł
ggaÅ¡t usa
k v
ĠGa up
obeal e
M earr
ĠF in
ĠÃ¡lgg ii
ĠIn digenous
Ã¡las turr
ar Ã¢Å¡
ear a
ĠJ ien
arj j
adj in
ea lah
vuo l
oh tet
ĠOs los
ĠSom by
Departemen tets
m miid
id i
ere mis
ĠÄįakÄį at
il je
uÅ¡Å¡ ii
Ġdoarjj ar
Ġkonsulta Å¡uvnnaid
Ã¡ldd ahusa
Ġlass Ã¡na
ĠdÃ¡rbbaÅ¡ uvvo
Äį ilgehus
Ġmunn je
ĠD epartemeanta
ĠÃ¡lbmotrievtt Ã¡laÅ¡
Ġref er
Ġ Ã¡hÄįÄį
Ġg ess
Ġ8 6
Ġsoa b
Ġsisttis doallÃ¡
ean sa
Ġg udn
Ġstuor it
T witter
Ġgea n
Ġmeahc is
ĠeaiggÃ¡d uÅ¡Å¡an
S ÃģM
ah uvvo
ĠvÃ¡st idan
Ġsullas aÅ¡
ĠS ir
Ġjus te
Ġdahkk ojuvvon
ĠvÃ¡n he
on ag
Ġeren om
ĠcuoÅĭomÃ¡n u
ie Å¾
Ã¡r jeh
Ġovddid uvvon
angaska oamit
emi edi
Ġeroh usat
Ġal imus
Ġgul lan
Ġart ihkkalis
ĠEan et
Ġl Ã¡hÄįÄį
Ġm Ã¡hte
al s
uvnn a
ĠÃ¡Å¡Å¡ e
con c
Ġgoittot ge
ĠmÃ¡inn aÅ¡
Ġs Ã¡tni
Ġjuo idÃ¡
Ġse ks
Ġ termin
Ã¡s i
ear Ã¡
vrr at
lag idde
Ġl is
Ġl ul
ĠS F
Ġjuollud us
d oa
id eamis
Ġpr o
ĠÄįuovv ova
ttÃ¡ muÅ¡
Ġoidn osii
ĠÂ »
ĠdieÄĳ ihit
l y
er ud
Ġoktavuo das
agn hild
ĠmÃ¡n u
ĠÄįaÄĳah uvvo
Ġnamma dan
kultuvrra laÅ¡
Ġvealah eami
d ieÄĳÃ¡hus
Ã¡ vva
Ã¡Å¡Å¡ is
oposi Å¡uvnnat
f Ã¡r
Ġvuo ig
eah ÄįÄįat
ĠT witter
ĠÃģ h
ull evaÅ¡
ĠovdÃ¡n eapmÃ¡i
ĠOl mmoÅ¡
kar ta
Ġrehket doallu
m od
ĠB ea
da vv
Ġte lef
ĠplÃ¡n aid
Ġdoib met
j jat
m d
p a
Ġv ur
Ã¥ n
Ġgir ko
Ġvie Å¾Å¾
B R
eall Ã¡i
Ġposit iiva
Ġnjuol gga
E urohp
f jord
Ġrievdad usaid
Ġsir dit
ĠBoazodoall u
Ġ020 5
Ġ ans
Ġs mi
og o
Ġkulturmuit os
organisaÅ¡uvnn at
Ġulbmi la
Ġgieldd aide
Ġce gg
Ġv iss
ĠberoÅ¡tu mit
M ar
Ġs oahpamuÅ¡a
te rreg
ĠÃ¡i rasa
Ġbadjelas as
emiedi gk
U T
bea iv
ĠrÃ¡vv agiid
Ġgearggus vuoÄĳadepartemeanta
Äĳ iin
ĠVuo igat
ĠÃ¡vkk Ã¡laÅ¡
ĠÃ¡lbmotmeahc i
Ġmaid ege
ad eami
os tii
Ġdi Äĳ
ĠproÅ¡eavtt at
vuog Ã¡dat
ea tnegas
barg it
Ġge ogrÃ¡falaÅ¡
ĠgohÄįod uvvon
Ġheivv olaÅ¡
vv en
ad ettiin
Ġf innmÃ¡r
Ġdeaivv adan
ar e
ĠOvd al
rr is
ean a
ĠdÃ¡rbb ut
Ġovddid uvvo
Ġoaidn Ã¡n
ÄĮÃ¡l Ã¡n
Ġnjiedj an
Ġ201 9
Jus tiisa
ĠÃ¡rbevier uid
oh ÄįÄį
ĠsÃ¡mi in
uor ah
Ãģl go
.... ...
Ġp en
ĠAre Ã¡la
K ap
M us
d ul
k ommi
.... .
ad is
Ġeanet lohku
ĠJ agis
bo kte
Ã¡sahus at
Ġj uoh
ar r
ĠB Ã¡lvalusat
Ġc on
ĠhÃ¡liid at
oÄĳ astus
V D
ĠJ ahk
iteh tat
j oga
Ġg ier
Ġvuo rras
ĠU r
Neahtta karta
ĠplÃ¡n ejuvvon
ÄĮÃ¡lÃ¡n hÃ¡pmi
e ddjiin
k om
ol f
ĠhÃ¡ldd ahusa
ĠÃ¡ig ot
ĠÃ¡lgg os
ĠovdÃ¡n an
Ġsemin Ã¡r
EDI G
ur o
ob ier
kono miija
ĠÃ¡lggah uvvo
ĠvÃ¡st ideaddji
Ġbaji muÅ¡
iel ggad
ĠStuorradi ggi
dÃ¡s is
E avtt
ĠvÃ¡ld og
Ġluonddu guovddÃ¡Å¡
ĠSÃ¡me musea
okta vuoÄĳat
B la
v ul
Ġg Ã¡dd
Ã¡d agas
Ġovdamear kan
Ġ ah
as te
ation al
Ġbaj Ã¡bealde
Ġdulk ot
S iida
n de
al Ã¡vdegoddi
Ġgu la
ĠOahpp it
Ġmiht ilmas
d ain
all it
ĠN ett
SÃ¡medigger Ã¡Äĳi
Ġneahtt asiid
G ir
Ġ ................................................
vdd i
Ġ197 0
ĠguÄĳ ege
ĠÄįÃ¡la laÄįÄįat
Ġo lahit
Ġovdd algihtii
Ġmiel lagidde
Ġviid odat
ĠÃ¡sah eapmi
Ãģl bmot
Ġovttaoaiv ilis
Ġovd as
Ã¡tt Ã¡t
Ġdea vd
Ġbargoj oavkku
ĠhÃ¡lddaÅ¡an guovllus
Ã¡r kk
di hte
ka mis
Ã¡id da
op lÃ¡n
ĠIn ger
Ġollis laÄįÄįat
ĠgÃ¡nnÃ¡h ahtti
J agi
oa b
Ġmeh tera
Ġdieh to
Ġol mm
Ġovd ag
ĠEar ret
ĠÃ¡mm Ã¡t
G uolÃ¡stus
Ġb y
ĠLass idieÄĳut
ĠN Ã¡
Ġdoaibma doarjaga
ĠhÃ¡stalus san
ieht ar
ohpp ui
ĠPa ul
Ġgiela t
ĠvÃ¡il u
tola ga
Ġj Ã¡hk
ear d
ord in
ĠAnd ersen
heiv eh
G a
Ġr igg
iht al
Ġjor ga
l ik
ĠS Ãģ
Ġguo Äĳ
ĠV Ã¡ld
Ġde vd
esid eantta
Ġteavstt aid
ĠoÄĳÄĳajagi mÃ¡nu
G eahÄįa
j us
Ġd ire
it u
Ã¡pme laÅ¡
Ġgulah allat
ĠVuoÄĳÄĳ o
Ġjoavkk uid
ĠsÃ¡me politihka
ĠBarg o
TrÃ¸nd elÃ¡ga
K Ã¡r
es ta
Ã¸ re
id h
Ġda kko
ĠgÃ¡ib iduvvo
ĠsÃ¡pmelaÄįÄį ain
Ġoadje bas
as ka
ĠdÃ¡ss Ã¡i
ĠOvttas bargu
in o
sk ov
n ie
Ġd ill
ĠdÃ¡rog iel
Ġeatna miidda
Dokumen tets
Ġdokumen tet
Ã ĥ
Ġgiella geavah
ĠÄįoa vdit
4 9
h an
p osi
Ġv rd
Ġoainn us
ĠhÃ¡v e
ĠvuostÃ¡i vÃ¡ld
4 3
o mm
ivv a
ihk ar
ber oÅ¡tu
Ġjur id
ean ttaid
aÅ¡uvnn a
Ġrievdad us
EA R
5 5
Ġj e
Ġb ist
ĠB eaivv
ealli mii
ĠdievasÄįoahkki ma
LA Åł
Ġdearvvas vuoÄĳa
d es
Ġr Ã¡hk
Åĭ ge
Ġpros eanta
up mÃ¡i
njuolggadus at
ĠSt rategiijat
Ġmus ihka
Ġmovttiid ahttit
Ġs Ã¡l
Ã¡Å¾ iid
J A
ĠN ystad
ĠÃģl ttÃ¡s
Ġg ivss
vtt eg
proÅ¡eavtt aide
Ġat t
suo djalan
b uor
b uol
SÃ¡medi gge
Ġgirjj iid
kk Ã¡n
ĠA S
Ġdih tor
Nor ga
Almm uhan
ĠvuollÃ¡i ÄįÃ¡ll
t j
Ġo b
Ġmi ll
juo llud
Ġ18 6
Ġbiddj o
e mÃ¡nu
Ġd in
ag iidda
Ġf idno
ĠN o
ĠN RK
ĠbÃ¡l kÃ¡
Ġdutka mii
ĠrÃ¡mma eavttut
i an
Ġo ba
Ġar kii
Ġd Ã¥
ihka laÄįÄįat
Ġlullis Ã¡megiela
ĠbÃ¡iken amaid
ĠÄįuoÅ¾Å¾ u
vuo ÏĢ
eh tet
stt as
ĠlÃ¡g i
Ġjear ald
ĠoÄĳasm ahttin
ĠS te
Ġeatna ma
Ġkruvnn u
L uondd
omear i
Ġnjeal ji
ĠEn g
bel iid
h ean
Ã¡ ks
ea ktu
rie kte
s kuvllas
ea ba
ĠieÅ¡ al
aidgas k
Ġdul kon
ĠdÃ¡hpÃ¡h uvvan
ĠR Ã¡vv
ahus aid
ĠÂ ª
ĠH ed
ĠmÃ¡nÃ¡idgÃ¡rdd it
Ġsp iehk
ĠstÃ¡ht aid
i or
Ġnj uovv
Ġatn et
ĠÃ §
at ge
ĠG il
ĠB ie
ahtt ojuvvo
ĠJes us
Ã Ģ
se min
ealÃ¡hus aide
Ġrel ev
bm Ã¡t
ĠÃ¡ig odahkii
uorr e
ala i
ĠRi ch
ĠThom assen
Ġ â
el Ã¡gan
ĠÄįuj uhuvvo
Ġlog i
Vuo ÄĳÄĳ
A R
Ġovdal is
ĠvÃ¡il ot
arÃ¢Å¡ kielÃ¢
eah kk
Ã¡hta laÄįÄįat
ĠjoÄĳih it
var lig
ĠguolÃ¡stus departemeanta
Ġinstit uÅ¡uvnn
O S
r Ã¥d
ast eaddji
Ã¡sahus aid
V UO
d f
Ġl usa
Ġnj ul
Ã¥ s
ĠmearkkaÅ¡ umiid
ĠbÃ¡i kkiin
E T
at na
sk al
Ġlagab ui
ĠTwitter is
v uÄĳot
Äį Ã¡z
vd o
ĠL Ã¡vdegotti
uÄĳ ege
Ġgeah pp
ĠvÃ¡lmm aÅ¡t
Ġrehken ast
Ġvuotn aguovll
9 1
Ġo al
re ma
ĠbÃ¡l g
ĠvÃ¡ldd ah
Ġfil bma
konferÃ¡n sa
ĠÃ¡lbmotrievtt i
teddj iid
dustr iija
d alit
r y
Ġv a
Ġie hÄį
L ass
ĠM edi
ĠE ami
ĠdeaÅ§ alaÄįÄįat
ĠÄįie kÅĭ
nuor aid
ĠOvdamear kka
er h
ĠsÃ¡htt e
Ġgaskkust it
oh at
Ġkultu rr
Ġan Ã¡raÅ¡
Ġoss odat
ĠdÃ¡l Ã¡Å¡
Ġloh ket
Ġrievdad usat
Ġorganis erema
gal get
Ġoaivi la
Ġo v
Ġb il
ma il
er ie
uvv oÅ¡ii
land er
ĠA d
ĠTelef on
s Ã¡n
Ġd Ã¡htt
ĠÄįiel ggadus
Ã¡lbmog at
Ġbiras departemeanta
A nd
Å Ī
Ġg or
ĠÃ¡ig odaga
Ġoahpah eaddjin
Ġekono mii
Ġovdamear ka
ĠJuo llud
Ġm eannu
er ejuvvo
Ġf er
eah te
ĠÃ¡i c
Ġduo vd
fÃ¡lald agaid
ĠgÃ¡rvv ist
kk ul
Ġf on
Ġba kte
Ġko mmun
Ġguovl odepartemeanta
e ktui
as iidda
ĠBarg u
guovddÃ¡Å¾ is
Ġopm odat
V ai
b ir
olbm uin
muh to
dd iid
guovll ut
Ġoroh aga
kk an
ĠÃģr bev
Ġguovd u
oÅ¾ in
Ġdass Ã¡Å¾ii
Ġmihtt omearrin
jÃ¡r ggas
us as
eh ahtti
ĠÃ¡r val
ab argg
Ġstuorra digg
b ie
oh Ã¡lddahus
ĠB oazodoalu
earkk at
Ġnann ejuvvo
Ġruhta dit
Ġmuital ii
ierr u
ob argg
op olit
Ġi mp
Ġdahkk ojuvvo
Barg u
c tion
Ġsih kar
Ġdeh Ã¡laÄįÄįat
Ġolbm ui
199 9
uvv ama
Ġeahp es
O ÄĳÄĳ
ĠS ED
kte ma
Ġsuo idnemÃ¡nu
ĠOkta vuohta
ĠÄįoahkk an
Ġj oav
Ġovd asiidu
ib e
Ġbie htt
Ġjulev sÃ¡megiela
Ġskuvl lat
ĠOvttas barg
p oas
Ã¡r bb
ĠD on
Ã¤ t
ĠdieÄĳ Ã¡husa
ĠÃ¡rvoh Ã¡hkan
o pp
ĠK ap
Ġalmm uhuvvon
ĠvÃ¡st Ã¡dus
Ġan us
ic a
ĠÃ¡lg it
ĠdÃ¡sse Ã¡rvvu
Ġg Ã¡iddus
Ġohpp ui
ĠsosiÃ¡la departemeanta
al uin
uvnn alaÅ¡
inn ost
osi Ã¡la
ĠS ku
Ġ7 00
ĠNu go
9 2
Ġbarg i
Ġeanan doallu
ĠÃģr vv
Ġoainn uid
red aktÃ¸r
ĠKle met
Ġf Ã¡m
Ġin div
ĠÃ¡sah uvvot
Ġseamm alÃ¡gan
ĠvÃ¡ld on
Ġdavvis Ã¡megillii
ĠÄįatn asit
ĠipmÃ¡r dus
ĠvÃ¡ttis vuoÄĳaid
Ġri vttes
ĠRich ard
Ġl ie
al eaddji
ĠK ra
Ġsemin Ã¡ra
5 1
v Ã¤
Ġ0 3
ĠÄįuo kkis
ĠhÃ¡liid an
Ġpar agrÃ¡
proÅ¡eavtt aid
Ġguolle bivd
S is
b oaÄĳ
Ġv uhtt
beal e
Cavgil GovÄįÄįa
j ien
as jon
all o
kte vra
ib ahis
ĠVÃ¡l do
f erte
k eg
ĠN ina
ev i
gas at
Ġalmm Ã¡i
dil is
Ġbirras is
Biras gÃ¡htten
n Ã¥
tt en
ie Å¡
ii met
Ġf ok
ĠdieÄĳ e
ĠU t
ĠDuo dje
Ġortneg iid
s ub
ol mm
Ġorr ut
ĠErenoam Ã¡Å¡
et r
guo vl
sa misk
Ġguovtt e
ĠJohan sen
Ġ Ã¡vdnasiid
at ti
Ġsiid da
Ġmearrid uvvo
Doarjja ortnega
ĠipmÃ¡r dusa
Ġred aktÃ¸r
M ari
V Ã¡ikkuh
uo djalan
Ġor o
Ġinves tere
Ġsotna beaivi
. ~
d er
uh eami
Ġfier bme
Ġs am
Ġriikk aid
ĠbÃ¡ikk is
eri Ã¡las
Ġeatn amat
h r
o aidn
Ġg ehÄįÄį
tt iide
.... ..
ĠD ieÄĳ
Ġohpp et
emi htt
Ġo ast
Ġbea vdeg
Ġgas kan
Ã¡ig Ã¡i
ohc an
Ġvej olaÄįÄįat
Ovd asiidu
< /
Ġg ur
bb Ã¡
ĠÃ¡rb ediehtu
ard eaddji
Ġmih kk
ĠÃ¡vnnas laÅ¡
D ie
T el
g Ã¡ldu
Ġo Äĳas
Ã¡s eappot
FinnmÃ¡r kkus
ĠNett redaktÃ¸r
t Ã¶
ĠdÃ¡rkil it
Ġbaicc a
u mii
ĠS ÃģM
Ġgiela in
Ġvear d
ĠÃ¡vv ud
s kka
Ġ6 3
ĠgÃ¡ib Ã¡dusat
Ġjoatkkas kuvllas
Sol berga
rr ain
Ġvuo dd
ĠF r
kk ust
ĠG irji
Ġovdd abealde
ĠSuo dj
Ã¡tn ed
B ar
Ġr ihkk
ot o
ĠlÃ¡g at
ĠÃ¡ innas
ihkka lat
Ġipmi rd
Ã¡n eapmi
ed jon
pr Ã¥
ĠSa mi
ĠduoÄĳ alaÅ¡
ÄįÃ¡ll in
ak er
Äįoa kkÃ¡ld
Ġmols aÅ¡
Ġgeal b
d utkan
Ġoass ev
ĠhÃ¡l lat
Ġbargoj oavku
ĠSc ien
Ġl Ã¡vd
earkk aid
ovdÃ¡n eami
ehket doallu
Äį a
Ġnam at
Ġriikk ain
ĠBarg odepartemeanta
Ġgaska mear
al eami
Ġv urd
Ã¡r tn
st ipean
Ġuhcc Ã¡n
Ã¡d agaid
Ġla si
pm aid
ĠSÃ¡me lÃ¡ga
ĠsÃ¡gast allan
ĠÄįalmmust ahttit
ag ielda
ist ri
Ã¤ iv
eiv e
lÃ¡g Ã¡n
ovttas barggu
ĠrÃ¡ÄĳÄĳÃ¡d allan
Ġfoan dda
de miin
Ġjur dda
Ġeana vuovdin
bj Ã¸rn
Ġjearr at
ĠmÃ¡tkk oÅ¡t
E n
Ġd ohkk
ku n
Ġvej olaÅ¾Å¾an
B ie
Ġ ai
Ġv ari
is u
ĠÃģ v
osa ÄįÄįat
ĠdÃ¡ruid uhttin
M on
m eannud
s ear
uh usa
Ġvuo dj
sÃ¡mi id
Ġboht osat
A N
T ove
r t
Â» ,
Ġpers ovnnalaÅ¡
ĠhÃ¡r j
Ã¡l ii
all j
ĠR Ã¸
ĠÄįoahkki mii
Ġjoh tolat
Ġsiskk il
ĠEan an
Ġkonven Å¡uvdna
iil las
Ġmeal gat
ol m
Ġbir g
Telef ovdna
Ġguo ÄĳÄĳ
ĠmÃ¡ks Ã¡
ĠvÃ¡ikkuhangaska oa
joavkk uid
- /
f o
os of
mean ta
ĠK an
ĠI nn
ĠÃģ s
pr insihp
ĠvÃ¡llje jit
J I
id uvvojit
ĠS Ã¡l
eh t
eg is
ĠieÅ¡ hean
ic al
ehtt ii
Ġkonsulta Å¡uvdna
Ġrat ifis
ĠÃ¡rvvoÅ¡t allÃ¡
ĠSiid ii
ĠÄį o
iikk as
ĠÄįÃ¡jeh an
Ġnjeal jÃ¡t
b ar
Ġg ra
Ġv uvd
or k
Ġgir ji
Ġhuksen lÃ¡ga
Ġnisson iid
Ġsaj Ã¡daga
lasku ddan
div Å¡Å¡
ĠDean us
ieht oj
un k
Ã¡ht us
Ġalmm uhan
ĠovdÃ¡n it
eav et
Ġgirjj Ã¡laÅ¡
ĠG ol
ĠÃ¡Å¡Å¡ iide
Ġsoa mes
Eavtt uhus
id u
ta la
bm o
ĠÃ¡rbev ir
Ġgil v
Ġsihkkarast Ã¡
kultu vra
ĠÃ¡v ii
Âª Âª
ïĤ· ïĢł
ag ielat
ĠM is
Ġnupp e
ĠlÃ¡hkaÃ¡sahus aid
Ġdill Ã¡i
Äĳ it
Ġm Ã¡lle
ĠB uor
ĠA ikio
Ġduo dj
ri tt
ieh to
Ġmeannud an
ĠproÅ¡eavtt aide
dil iid
Ġdahje ge
Ġeaigg Ã¡t
ĠÃ¡ÅĭgiruÅ¡Å¡ ans
ĠKar ine
j ag
r uhta
mÃ¡n n
Ġdii mmu
ĠvuoÄĳÄĳos kuvllas
G I
c om
Ġdo allan
do ahp
ĠÅ¡ ib
ĠdeaÅ§ aleamos
Ġruvdn osaÅ¡
g Ã¡Å¡
s Ã¡httÃ¡
te hta
ĠdÃ¡l kk
laÄįÄį aide
Ġmear kka
gea tnegas
C O
G eavah
Ġh Ã¡mi
ĠG r
Ã¡ll Ã¡s
ĠF e
Ã¡dd i
R abas
ur s
Ġovdd astit
ĠK jel
va ÄįÄįat
bu vtt
ĠdÃ¡idd ad
l ei
ĠS iv
Ġmi j
el i
Ġlog ah
Ġorr un
ĠAr ctic
Ġbust Ã¡v
L Ã¡vdegoddi
ĠF il
mat eriÃ¡la
Ġstrateg iijaid
Äįiel ggad
Ġaktii vvalaÅ¡
t za
te k
ĠG iehtar
ĠDat tetge
Ã¡j aid
Tr om
ea Åĭ
ĠH Ã¡lddahus
Ġ198 0
Ġdeaivv adit
Ġmand Ã¡hta
V Ã¡nddar
Ã ĺ
vv uid
eh as
Ġdut ki
ĠvÃ¡s Ã¡hus
la tii
ĠsÃ¡medi kkiid
G O
h et
Ġd es
Ġf uol
add i
Ġman ai
ĠSa amela
ĠsÃ¡dd ejuvvon
ĠgeahÄįÄį ala
Ġform Ã¡la
d earvvaÅ¡vuoÄĳa
f on
iela s
op olitihka
ĠdievasÄįoahkki mii
Ġeks Ã¡me
eand ar
g eahÄįÄį
v at
vv e
Ġv ugiid
Ġgea Äĳ
Ġovdd os
ann et
ĠÂ§ :
Ġvuor uhuvvon
bo ksa
Ġkap ihttala
eaigg Ã¡t
1 000
Ġd Ã¡ll
aÅ¡ it
ĠÄįuj uhan
Ġjuollu da
Ġm Ã¡Å¡
ĠT V
ĠealÃ¡hus san
ĠÃ¡rvalus aid
ĠjurddaÅ¡ it
iil la
Ġf a
ĠSt iv
j ot
bÃ¡ikk is
is kkad
Ġh ei
ĠH ansen
kuvl lat
ĠfÃ¡g ain
Ġoaivvil duvvon
Ġorr o
ĠruÄĳ a
4 2
a mm
all u
ĠJ en
âĢĵ âĢĵ
ĠmearkkaÅ¡ it
ĠviidÃ¡s it
ĠdÃ¡sseÃ¡rv u
vuogÃ¡d agas
ĠÃģlgg ahus
h ti
Ġgo vva
Ã¡ikk Ã¡laÅ¡
ĠÃ¡rvv u
ĠrÃ¡ÄĳÄĳ e
Ġgil d
ĠgÃ¡vnn ahit
Ġ ahk
Ãģ ig
Ġoh cci
Ġ199 1
ĠÄįÃ¡l ii
birras iid
doaibmabij uid
oj eaddji
Ġkat egor
Ġf anas
en eavv
ist is
ĠÄįÃ¡ll ing
Ġsoa itÃ¡
earr Ã¡
Ġluondd uv
45 7
. âĢĵ
F o
Ġn eahtta
Ġsuo ma
Ġdoa ba
ha ug
Ġvistt iid
uor gi
ĠH Ã¸
ĠvÃ¡l gal
ĠmÃ¡nÃ¡idgÃ¡r di
ola Âª
J oh
n it
es sii
ĠÄĮ oahkkingirji
Ġos iin
u miin
de dje
ĠJ Ã¥
mis ke
ĠH Ã¡stalus
uÄĳ a
Ġoass Ã¡i
ĠGo vva
ĠRÃ¡vv agat
v is
al eapmi
Ġe innost
ÄĮ Ã¡ll
-------- --------
f ol
Ġr astt
ing u
Ġjuo ig
Äįuo ggÃ¡
ĠS y
jÃ¡r gga
stru p
ĠrÃ¡ ddj
Ã¤ kk
Ġdieht Ã¡
ruktu vrra
Âŀ Âŀ
Ã¤ tt
Ġrea iddut
ĠdÃ¡lkkÃ¡dat rievd
ĠTrom s
ĠGÃ¡i vuona
Ġsear va
p en
s ke
Ġvuo gas
Ġda Äĳi
Ġbuvttad an
ĠdutkamuÅ¡ a
Ġjot k
v Ã¡ttis
Ġj oavkkus
Ã¡vv al
Ġdovd et
Ġgoa pp
ĠbearrÃ¡ig eahÄįÄįat
Ġgulaskuddan cealkÃ¡muÅ¡
lag aid
ĠgalggaÅ¡ edje
Ġat tii
ĠBer it
ĠMÃ¡n Ã¡t
K ultuvra
ĠS ve
ĠrÃ¡ jis
lah allan
ĠealÃ¡hus as
ĠÃ¡iras at
joÄĳihango tti
ĠvuoigatvuoÄĳal Ã¡vdegotti
D oai
o lan
ĠS ilje
jov kui
G algÃ¡
Ġo inn
Ġk v
Ġ198 7
ean an
Ġge ig
Ġdeatt uhan
ĠstÃ¡ht as
Ġad no
Ġcel kkii
mm aide
ĠÂ ©
ab eth
ven ska
bÃ¡lvalus as
ĠÃģr ktalaÅ¡
Ġvi Äĳa
Åĭge las
j Ã¸
an ti
ĠN ew
w a
ĠealÃ¡hus ain
ĠLea mmi
vrr aid
ĠdÃ¡hpÃ¡h uvvat
Ġenerg iija
Ġgeavat laÅ¡
L app
V V
f estivÃ¡la
g uh
k ad
ĠO skal
ĠÃ¡r vala
Ar beids
Ġadn ojuvvo
Ġgeas uh
ĠdearvvaÅ¡ vuoÄĳad
doaibmabij ut
ĠE a
Ġbea sa
Ġi maÅ¡
ĠU N
Ġdutka mis
Ã¡vv ir
Ġduopm ostuol
ĠÄįoah kis
Ġl uohk
Ġdan n
Ġovttasbarg ui
Ġmusea id
ĠnÃ¡vcc aid
Ġg ilis
ut o
Ġgul dal
ĠkÃ¡r ten
Ġrehket doall
Ġgirje b
Ġridd odepartemeanta
Ġlah kon
oh Ã¡lddaÅ¡
Ġjuollud it
Ġluoh ttÃ¡muÅ¡
ĠgohÄįod it
ĠVÃ¡ikkuh it
ĠP lÃ¡n
ri ft
insih ppa
Ġgeahp ed
h el
ag en
ĠE li
Ġstuor is
ug erud
Ġvir gg
Ġsadj Ã¡saÅ¡
Ġnan us
Ġpositii vvalaÅ¡
ĠDavvis Ã¡megiella
olten berg
Ġnubbing iellan
ĠF uo
op iija
Ġmeahcceg uovllut
Ġbirras ii
hÃ¡lddaÅ¡ an
k iin
m on
Ġea ra
Ġmu ttus
ess or
Ġpost boks
ĠÃ¡hÄįÄį i
Ġaid do
aidgask asaÄįÄįat
7 7
Ġh edjon
Ġbi ologalaÅ¡
ahus at
ĠÃ¡ig eguovdil
ĠÄįuj uhus
D epartemeanta
T TA
h uks
k oh
Ġo arjel
Ã¡h ne
vdd iid
Ã¡la ga
Ġmas ter
ĠvÃ¡hne miid
Ġell iid
Ġspesi alis
T or
ĠG unn
ovd an
ĠsÃ¡gast allat
Ã¡rvv oÅ¡t
anl Ã¡vdegoddi
Ġstatist ihkka
Ġdann ego
Ġs ym
or Ã¡hkad
Ġjien astan
" )
s earvi
en r
Åĭ a
ĠT abealla
oahkk Ã¡igeassu
Ġnamma dit
Ġans varlig
Ġrelev Ã¡nta
ĠKjel strup
M Ã¡n
rr aid
Å¾ald at
Ġjurd agiid
M en
Ġl iv
eal e
ĠÃ¡Å¡Å¡ in
Ġrievdad uvvo
Ġdul ko
ĠvÃ¡nddar d
ĠkulturÃ¡r bbi
tipean da
Ġjohtin oktavuoÄĳat
ĠEng lish
J o
ĠÃ¡s si
ĠgÃ¡ib Ã¡dusa
Ġjuollud uvvo
ĠEr tza
Ġhup mat
ĠKra ugerud
ĠErtza as
l er
ĠÄĮ oahkkin
Ġsohka bea
f Ã¡mu
al Ã¡ga
ar Ã¡ÄĳÄĳi
eh Ã¡laÅ¡
Ġboh c
eahtt un
vas Äįoahkkin
Ġear et
ĠhÃ¡lddaÅ¡an guvlui
38 87
Ġ98 3887
Ġsosial departementet
Ġ983887 457
al Ã¡n
ÄįÄį as
ĠB u
Ġin te
ĠÄįaÄĳah eami
Ġdii bm
sp an
Ġl Ã¡mis
og er
ĠH y
Ã¡b ut
ĠW eb
Ġid enti
ĠdivÅ¡Å¡ ohas
5 6
ĠAl it
ĠErenoam Ã¡Å¾it
f e
m mii
ol Ã¡gas
ĠÃ¡rjja laÄįÄįat
Ġl Ã¦
ĠP Ã¥
ĠdieÄĳ Ã¡husas
ĠvuoÄĳ ust
Ġnam uhit
Ġsuo kkar
esur sa
Ġ01 3
lis abeth
oaÅ¾Å¾ ut
Or g
Ġsys tem
Eurohp Ã¡
g ielat
t y
aÅ¡uvnn at
ĠSol bakk
Ġta bealla
pp Ã¡st
ist i
ĠvÃ¡ld ojuvvon
Ġsa emien
Ġdu ddjo
ovttas bargu
Gov us
O ass
P MI
Ġs Ã¡i
Ã¡h kku
Ġnamma d
ĠlassÃ¡n eapmi
ago tti
IN G
ĠdÃ¡rkil eappot
ĠearÃ¡l Ã¡gan
Ġd el
ah ka
te ma
ĠM aid
ĠR uvdnapr
Ġovd am
Ġal bma
p h
s ki
id edje
ĠrÃ¡ ji
ĠÄįuovv ul
O Äĳasmahttin
S Ã¡
ast eami
ov at
Ġbarg oa
mearr Ã¡dusaid
OAH KK
Ġmiellagidde vaÅ¡
B N
M o
g ra
Ġv igg
ar gga
Ã¡dus as
Ġdea vdit
barg i
pm u
Ġsuodjal eami
Ġkulturmuitt ut
b ok
Ġsuo pman
j agis
ĠV ars
ĠmearkkaÅ¡ umit
stiv rra
joh tolat
jul ggaÅ¡tus
E L
F Ã¡ttÃ¡t
O s
Ġd uÅ¡Å¡
an u
dd u
uohkan assii
Ġcealk aga
S on
Ġluonddu b
Ã¡ ÅĭgiruÅ¡Å¡
Äį ie
Ġp ostii
Ġovddas ta
ĠsÃ¡dd en
Ġsoa Äĳi
ĠjurddaÅ¡ an
as e
Ġol Ã¡mu
oahpp a
imus at
Ġdoa lai
adoall i
Ġpolit ihkka
Davv is
ĠD ut
uv ll
sul ta
ĠÄįohkk et
Ġl in
ĠÃ¡iras iid
5 3
ĠP L
Ġdohkkeh a
ĠgaÅ¾ald aga
ĠfuomÃ¡Å¡ umi
iid na
ĠR iikka
Ġsea il
ĠlÃ¡g iduvvo
Ġovttasbarg at
Ġovdanbukt it
8 0
ĠN isson
Ġmiel dd
Ġda jai
Ġdeaivv ad
Ġvuolgg asa
Ġjuks at
en g
Ġoahpah eaddje
Ġmeannud uvvo
Ġsaj Ã¡dat
ĠbÃ¡ kte
ĠKir sti
alÃ¡hka i
ĠP or
ĠolmmoÅ¡ vuoigatvuoÄĳaid
ĠgieÄĳah allat
eatn u
Ġovttad Ã¡ssÃ¡saÅ¡
ĠvieÅ¾Å¾ at
f al
s kap
ih tu
ĠdÃ¡s si
op lÃ¡na
istor jjÃ¡
Ġjie tna
ĠgokÄį at
proseass as
is laÅ¡
ĠD eaÅ§alaÅ¡
ĠvÃ¡st Ã¡dusa
ĠÃ¡dd ejupmi
ĠOktavuohta dieÄĳut
j oavkkus
Ġb Ã¡hp
ĠÄĮ Ã¡l
Ã¤j Ã¤rvi
Ġfer tii
as tet
om d
earkkaÅ¡ upmi
Ġruo Å¡Å¡
Ġruvnn uin
ĠguovddÃ¡Å¾ a
te kn
Ã¡i gg
Ã¡la t
ĠK n
iteh tii
ok Ã¡rta
adj Ã¡i
Ġviidd idit
ĠGe ir
D i
F yl
Ġg Ã¡htt
os m
ĠSt oltenberg
ĠbÃ¡hc Ã¡n
Ġgirj Ã¡i
vow lat
S K
Ã¡d ahkii
ĠmÃ¡nÃ¡id suodjalus
ĠnÃ¡ k
ĠIsa ksen
Ġmihkk ege
ass an
Ġgiella njuolggadusaid
Ġstrateg alaÅ¡
Ġsierr anas
D ieÄĳ
J on
M Ã¡ilmmi
s ten
Ġsu bmi
Ġvuoll Ã¡saÅ¡
ceal k
Ġo bb
kk aid
ĠÄįilg ehusa
ĠOl gor
i la
us ain
ii vva
er ejuvvot
ĠrÃ¡ Åĭgg
Ġdie t
oam Ã¡Å¡
ĠoassÃ¡last in
no w
ĠmÃ¡Åĭ gii
ĠovdÃ¡n a
ĠSÃ¡megiela t
Ġsiv as
ie tn
Ġsuo pme
ĠÅ¡add e
doaimm aheaddji
Ġgusto vaÅ¡
suor ggi
ins eassa
ĠTor e
ad as
Ġf ys
Ġnam aid
Ġlog uid
Ġdatte ge
i min
n or
Ġl inn
ih uvvon
om at
Ġl u
Ġh Ã¡ld
Ġ7 1
ĠÂ Ń
Ã¡hp Ã¡hus
Ã¯ j
Ġinves teren
5 2
p df
eah ki
oai tt
Ġal bm
laÄįÄį ain
ĠÄįilg ejuvvon
ĠW il
gelbbolaÅ¡ vuohta
ĠPoasta boksa
ĠO ÄĳÄĳ
Ġ18 00
amÃ¡n ni
U H
s c
Ġ ×
Ġv Ã¡dd
ka in
Ġbi vdd
ĠÄįoahkki miid
ĠvuosttaÅ¡ giellan
ĠHeai ka
R iikk
ĠD u
ĠG eavah
ĠR an
inn uid
Ġ6 1
ĠIsa k
odoaimmah eaddji
in de
is eren
ĠrÃ¡hkad uvvot
Ġ _
iin a
ĠF Ã¡g
ÄĮ oahkkin
Ġ6 2
Ġruo Å§
Ġvuos te
Ġna vd
ĠbÃ¡iken amat
ĠvuhtiivÃ¡ld it
Ã¤kk Ã¤l
i mmi
Ġr ihkku
Ġsuohkan iidda
jj as
ĠÅ¡iehtad allan
4 1
v iessu
ĠM or
Ġjuo s
ĠvuoÄĳÄĳos kuvla
ĠEalÃ¡hus at
b adje
al v
ĠâĢ Ķ
Ġtermin ologiija
ĠSku m
m Ã¡hc
Ġd Ã¡htu
aÅ¡ uvvÃ¡
Ġvuo h
ud an
konferÃ¡n ssa
Ġla Äĳas
org iel
Ġoas Ã¡la
Ġ197 8
ĠÄįie Å¾a
ĠVÃ¡ikkuh angaskaoamit
ron net
os iidda
el e
Ã¡z a
ĠOhcej ogas
k od
od ahkan
Ġboaz olohku
ĠbÃ¡ikk Ã¡laÄįÄįat
ĠcealkÃ¡muÅ¡ aid
bÃ¡ikk iid
ĠÄįuogg Ã¡s
Ġg arv
Ġf Ã¡pmu
ĠB oah
ud uvvon
Ġdohkkeh eapmi
ĠstÃ¡ht us
ve ig
Ġfylkkagieldd a
Ġdoahp agiid
Ġdoaibmag olut
ĠmÃ¡htolaÅ¡ vuoÄĳa
Ĥ ¬
ĠSuo pma
esur s
ĠvÃ¡nddar deapmi
ĠmÃ¡ttas Ã¡mi
stÃ¡i vÃ¡ldi
O H
Â ©
Ãģ N
st in
Ġvai kke
partemen tii
ĠÄįadn ojuvvon
ĠsÃ¡mÃ¡st it
de partemeanttain
ĠG al
un i
Ġdah kko
Ã¥ r
ation s
inst ohpu
Ġm Ã¡ll
âĢ Ĳ
ai met
Ġnuor tas
Ġevttoh usat
Ġjien astit
ĠjoÄĳ us
ĠFinn mark
R e
p l
Ã¡r iid
pp agirjj
ur ggiide
ion al
sk ning
MÃ¡nÃ¡id gÃ¡r
Ġ Z
uor at
ĠsÃ¡megiela in
Ġguh tta
ohk ii
Ġmann et
Ġlo ktet
ĠMu it
P L
ea met
iij ain
Ã¡ss it
Ġnubb in
Ġgirjer Ã¡dj
b oht
Ġea dni
uh t
ĠÄį uvv
ĠG eass
ug at
Ġj Ã¡p
dd ui
ch el
anl Ã¡vdegotti
Ġnie idd
astiv rra
P O
Ã¡ Äĳis
Ġn ai
ĠG i
Ã¢ s
Ġdokumean tta
BirasgÃ¡htten departemeanta
uh is
ka mii
Ġ7 2
idn ui
ĠorganisaÅ¡uvnn aid
ĠgÃ¡vnn at
d r
Ã ¾
Ġsearv ego
ĠgeahÄįÄį Ã¡
ĠÄįuovvol eami
ĠhÃ¡rjeh allan
Ġboas tut
k us
as taga
lÃ¡n da
pr p
oam Ã¡Å¾it
Ġovtta mielalaÅ¡
Ġdovd Ã¡
beaivv e
jahk Ã¡saÅ¡
gelbbolaÅ¡ vuoÄĳa
Ġskuvlah istorjÃ¡
ĠS oa
di ma
ĠV ar
Ġulbmil iin
Ġekono ma
ĠÅ¡l Ã¡dd
Ġr adi
ss en
Ġvuol gÃ¡
Ġdii mm
Ġs yn
Ġgo all
ÄįÄį aide
Ġe uro
ĠJ ar
do ll
ĠHa ug
Ġboas ttu
ĠG uovllu
ĠA limus
Ã¡ig odaga
ide miin
ĠKÃ¡r ttat
o ÄĳÄĳa
nn e
Ġbi bliotehka
Ġperspektii vvas
ĠIpmi la
Ġcel k
Ġl iig
arj agat
ĠRiikk as
c o
ĠS tud
ean ttain
Ġovd alaÅ¡
ann er
Ġvir ggi
Ġgear dd
b earr
b aj
Ġm uorra
Ã¡l es
Ġ( "
ai la
Ġrie v
Ġdie nas
pm aha
Ġriikk arÃ¡j
ĠsÃ¡ht Ã¡Å¡
minist ar
6 6
S Ã¡megiel
ur es
ĠÄįÃ¡ll on
ĠmaÅĭ it
Ġluo ss
ÄįÃ¡ll it
Ġjoavkk ut
I H
id da
ĠR es
Ġ7 9
sih kkar
Ġjoatkkas kuvla
Ġsiv iila
s oahpamuÅ¡
Ã¡r i
oah tt
Ġserv odagain
201 8
ost iv
ĠfÃ¡g aid
Ġmeahc it
B earaÅ¡
ii pp
er r
Ġruo ktot
ĠieÅ¡g uÄĳege
ĠTr ine
dÃ¡r og
ĠgieÄĳah allÃ¡
Ġbuhta dusa
A H
Ġo arje
Ġn Ã¡Å¡
eh pet
ĠL uondu
Ġfuo la
ĠmearrÃ¡dus ain
ĠvahÃ¡g iid
Ġmuhtu min
Ġdaga i
5 7
Ã¡h a
ĠL o
sa emien
eavtt a
ĠÃ¡lbmot meahcc
Ã¢ st
Ġboazodoall olÃ¡ga
progrÃ¡ mmaid
ĠJen sen
b oazodoall
bb aid
Ġpr ior
ĠÃ¡ m
Ġ198 4
ĠÃ¡l k
ĠfÃ¡tt Ã¡
Ġoam astan
h er
h Ã¡lddahus
Ġ asto
Ġs ivvan
Ã¡l g
ll eg
el se
ĠÄįilg en
ĠÃ¡vkkÃ¡st allan
T U
id ar
uh eamit
ean ttat
Ġsuodj alus
ĠfÃ¡lald agaid
Ġfr iija
Ġbir gen
Ġstudean ttat
I L
Ġl Ã¡htt
Ġp osi
ĠI ss
Ã¡rv e
Ġbiddj ot
ibe ke
Ã¡ ma
vv an
Ġgea si
ĠdÃ¡rbb uide
Ġnjuolggadus ain
p min
Ġv ii
ĠL uo
ide miid
sk og
ĠboaÄĳ e
at ta
Ã¡lbmog a
Ã¡sa Å¾Å¾an
Ġidenti fis
n isson
Ã¡i rras
Ã¡ll je
ĠDavv iriikkaid
Ġnamma da
Ġre ktor
ĠÃ¡ÅĭgiruÅ¡Å¡ an
DÃ¡s seÃ¡rvu
Ġruovttu guovllu
Ġjoht ilit
V L
ĠS uol
Ġpr oÅ¡eaktar
ĠH or
ĠSÃ¡me politihka
Ġr ohk
ĠR ii
eapmi n
ojuvvo jedje
ĠmÃ¡htt o
Åł Åł
Vuo llÃ¡i
Oahpp u
Ġstipean da
Ã¡v jÃ¡
ĠÃ¡v kki
ĠvÃ¡s Ã¡husat
Ġbiddj ojuvvojit
Ġeanan doall
Ġmusea t
Ġjea vdd
fuo lahus
USA T
8 8
eal th
Ġollu gat
Ġovtta Ã¡rvosaÅ¡
O ll
e e
la Âª
al Ã¡dje
ean u
Ġear Ã¡iguin
eaigg Ã¡dat
lahtu t
ĠNil sen
Ġboazog uohtun
Ġgudn ej
mm alla
oai mmaid
uv a
ob arg
Ġsu dd
Ġruhta deapmi
ĠFinnmÃ¡rkk ul
ĠfÃ¡t mm
us sii
el v
ĠL iv
lÃ¡hka i
muÅ¡ aid
ĠÄĮ eavet
ĠPr ogrÃ¡mma
anv ugiid
Â ²
Ã¡r valusa
Ã¡j it
ĠmÃ¡nn Ã¡i
birras is
Ġsm Ã¡vv
R SS
j ea
Ġb adj
ĠE inar
tneg a
Ġriikk aidgaskasaÄįÄįat
Ġnann ejit
ĠDuo dji
ovddasvÃ¡st Ã¡dusa
ĠfÃ¡ll Ã¡
ĠieÅ¡al ddis
k Ã¡r
p on
Ġo lahus
ag iella
Ġ1 000
Ġvuo tna
lah usa
Ġnj uo
ieh tta
Ġberre Å¡ii
Ġluonddur iggodagaid
B o
Ġr aÅ¡
Ġovddid uvvot
Ġsub stantii
And ers
Ġo dda
Ġm uos
Ġv okÃ¡la
ĠR Ã¡ÄĳÄĳ
um p
ĠbÃ¡l valan
Ġis kat
Ġeanado alus
y h
ĠN Ã¤kkÃ¤l
Ã¡dus ain
ÄĮ Ã¡j
Ġbis uh
ang u
Ġhistor jjÃ¡s
ĠsÃ¡r dn
eatn amat
ĠRuoÅ¡Å¡ as
U lbmil
Ġh Ã¡pmi
Ġk al
ĠK ultu
ĠdÃ¡r k
ĠH ans
ĠÃ¡dd e
Ġlo kte
Ġjuohk in
Ġp Ã¥
âĪ Ĵ
ÄĮÃ¡l it
Ġohc Ã¡
Ġmuit alan
Ġproseass as
ktiv itehtat
mÃ¡il mmi
M Ã¡r
} Â
Ġm or
vtt ast
ĠrÃ¡hkad uvvo
ealÃ¡hus as
alis eren
Ġunivers itehtas
Ġvuoruh emiid
j ur
m met
Ġj ovkui
Ġf Ã¶r
ĠM ihtt
Ġgeavah eddjiid
Ġkonsulta Å¡uvdn
Ġbirras iid
ĠÃ¡ige ÄįÃ¡la
P oasta
Ġc o
Ġ7 50
sen s
Ġfuo ÄĳÄĳ
Ġjuhkk ojuvvon
ĠÄįuohc Ã¡
ĠSus anne
Ġfok us
id uvvui
ÄĳÄĳ osa
ĠNor ge
Ġ6 9
ĠÃ¡lgg u
Ġguh k
ĠIn terreg
Ġgeatneg ahtton
Ġat te
vuoÃ° a
S uohkan
V uor
r am
vv Ã¡
eah ka
Ġgalg an
ĠhÃ¡b men
EA PMI
Ġvuolg it
i ka
o Äįiel
Ġ Ã¡dj
is e
ĠÃ¡r rat
Ġolgg obeale
Ġrapor ttas
Ġeahpe Äįiel
5 00
g is
Ġd Ã¡ht
al i
ĠM os
ĠvÃ¡ld ojuvvojit
ĠÄįielggad an
Ã¤r Ã¤j
NA ÄĮ
g eahÄįa
ear ah
Ġvear b
Ġjoavkk uide
Ġl Ã¡dd
ie d
Ġn oh
Ãģ R
ing v
Ġgiella guovddÃ¡Å¾at
kon om
Ġko ordin
Ġregistr eren
ĠS ij
en te
od oaibma
ĠE ur
ĠvuoÄĳÄĳ og
Ġulbmil iidda
oahpp ol
ĠLuondd ub
ĠgÃ¡rvv is
veah ki
lÃ¡ jat
Ġoahpp ol
jo k
istt at
for mÃ¡n
Ġ197 9
Ġgeavahan eavttut
Ġprinsihp alaÅ¡
ĠÃ¡lgoÃ¡lbmog at
anta a
Ġr ean
Ġ6 50
Ġmeannud eami
Ġgovv ida
Ġdav imus
Ġgulaskudda mii
Ġprakt ihkalaÅ¡
iehtoj uohkin
h us
v ier
ĠD Ã¡sa
ull ii
ĠmÃ¡ tta
Ġduo ddar
ik en
Ġloahpp a
ĠsÃ¡medigger Ã¡Äĳi
ĠUt si
Ġs venska
Ã¡p mÃ¡i
Ġduo jis
Ġbeaivv Ã¡laÄįÄįat
Ġmeahcceg uovllu
j er
Ġ es
ui mmiid
Ã¡la gaid
am usat
ĠB is
go tti
doai bman
ĠstÃ¡ht at
ĠÃ¡vÅ¾Å¾ uha
fÃ¡g as
R I
Ġb e
Ġv ahk
je me
rÃ¡ Äĳis
Ã¡Å¾ at
ĠoÄĳÄĳa Ã¡igÃ¡saÅ¡
or ustteg
ĠB earrÃ¡igeahÄįÄį
ĠR Ã¡ÄĳÄĳi
Ġc a
j org
m Ã¤
ĠD uÅ¡Å¡e
Ġgea idn
ĠV antaa
Ġnam uh
ĠOahp ah
Ġof e
Ã¸ n
ĠC o
ĠIn g
ĠjoÄĳ Ã¡nit
Ġek ologalaÅ¡
mmalla hti
B ea
Ã¡s n
Ã¡s si
en is
kt it
ĠB argg
Ġdohkkeh ii
ĠÃ Ħ
ĠgeahÄįÄį an
organisaÅ¡uvnn aid
Ġbargosaj iid
uto ke
k Ã¡rta
v ut
Ġd et
Ġp o
ĠE vttoh
oahp us
ĠAn arÃ¢Å¡kielÃ¢
Ġsa jiin
sih ke
Barg iid
Ean et
Ġsuor ggi
ĠY outu
Ġnan u
Ġoaivil iid
ĠWeb doaimmaheaddji
pp ii
st Ã¡hta
Ġoahpp iid
ĠIn sta
ĠO ktiibuot
kat u
ĠovddasvÃ¡st ideaddji
ĠÄįoa kk
Ġulbmi lat
ruo vtt
, ...
d asa
tt alaÅ¡
Ã¡i ras
ĠS in
ĠS ierra
Ġla nj
Ġa k
ĠÃ¡v ki
ĠHen riksen
Art ihkal
Ġhei tt
Â ±
all in
ĠB uoh
Ġokta vuhtii
ala Å¾Å¾an
Ġ Ã¡n
Ã¡mi i
ĠG ea
all ojuvvojit
olaÅ¡ vuohta
ortneg is
ĠÃģr b
ĠÃ¡lg Ã¡n
Ġbuohk aid
er eg
Ġoahpp ofÃ¡lald
Ġduo vdd
ĠhÃ¡l lan
idd uid
VÃ¡nddar danÄįuozÃ¡hagat
d en
d or
Ġf Ã¡mus
II I
Ġg iehta
ĠÃ¡Å¡Å¡ iiguin
ti ma
Ġveahkk eneavv
mÃ¡hc ahat
iel sen
bb es
Ġnj unn
irj Ã¡i
dieÄĳ Ã¡husa
eassad ieÄĳÃ¡husat
Ġs ivva
oh us
Ġf argga
ob Ã¡i
Ġstudean ttaid
âĢ¦âĢ¦âĢ¦âĢ¦ âĢ¦âĢ¦âĢ¦âĢ¦
KÃ¡r Ã¡Å¡j
ĠScien ces
Ġbohc iid
ĠYoutu bes
vv aide
uj iid
ĠnjÃ¡lmm Ã¡laÄįÄįat
ĠvÃ¡lgabii re
Ġ013 01
D asa
S p
V ern
v rd
Ġa kt
ĠÄĮ a
ĠrÃ¡hkad a
Ã¢ n
In ga
Ġgoa bbat
Ġluoh kk
progrÃ¡ mmas
ĠgÃ¡vpe departemeanta
Ġrevid erejuvvon
Ġviss is
ĠInsta gra
Äį uol
ĠS ch
on av
eg a
ĠG algÃ¡
ĠE ana
ddj iid
Ġdohkkeh uvvo
Ġgul dalit
rievtt Ã¡laÅ¡
c an
c et
at kka
Ġ0 98
Ġevttoh uvvo
Ġdohkkeh uvvot
Ġatn Ã¡n
Ġorganis aÅ¡uvdna
plÃ¡n at
ĠSol berg
ci al
ĠgiÄĳÄĳ at
i T
mus tÃ¡
Ġokt iig
ĠSÃ¡medigg e
Ġguos kat
ĠÃ¡sah usa
ĠjoÄĳih a
ip mÃ¡r
Ġsp ea
ĠrÃ¡v es
ĠrÃ¡j Ã¡id
Ã¡itt os
tu ris
ĠÃ¡rvv ut
ĠSuo meksi
ett er
Vuo sttaÅ¡
Ġtekn ihkalaÅ¡
issa katu
ĠÃ¡immah uÅ¡Å¡at
R O
as j
kk en
Ã¡la Âª
uin na
Ġk olon
Ġdie tn
Ġboazodoall og
ĠlassÃ¡n it
Ġdeattuh ii
ĠÃ¡ssa ma
Ġfierbme bÃ¡lvalusat
oahppol iÅĭkkat
Vern issakatu
ĠInstagra mis
D Ã¡
tt os
Ġm Ã¡hcc
Ġh Ã¡vd
mm an
Ġe Åĭgelas
ĠL og
Ã¡ldd i
ĠdÃ¡ ÄįÄįa
jo urnÃ¡la
Ġnann os
ĠEan odaga
Sa emiedigk
eatna miin
ĠareÃ¡la id
Äİ Äİ
J an
] .
e ta
} .
on omen
Ġea skka
ĠâĢ ĺ
Ġmu dde
ĠÄįoahkki miin
ĠstÃ¡ht arÃ¡
eha ÄįÄįat
Ġovdamearkk at
Ġlihkost uvvan
Ġluonddub alvalusat
Ġmi lli
Ġgal led
pr oÅ¡ektii
bargg ut
Äįuo gg
Ġjear ahallan
olten berga
igin Ã¡la
D OA
j t
as mus
Ġr itt
ih a
ĠD iv
ĠG oa
ĠB Ã¦
guo vd
Ġgi Äĳa
ĠbearraÅ¡ a
Ġuhc it
Ã¡itt ardeaddji
Ã¤rÃ¤j Ã¤t
Â ¦
ĠE ven
ĠKultur muit
Ġjurid ihkalaÅ¡
pp iid
ĠU nn
Ġsu bj
ĠÃ¡lbmog in
Ġvir gel
Ġdovdd us
Ġseks uÃ¡la
mi l
Ġvuo j
Ġvuo n
Ġgeavah eaddji
Ġgull o
Ġdohkkeh uvvui
Ġridd og
joÄĳihango ddi
Ġlas Ã¡hus
ograf iija
vul oÅ¡
Ġ x
Ã¡ ksa
al og
ar tta
Ġoahpp ama
ĠÃ¡ j
ĠÃ¡sahus aide
ĠvÃ¡ldd e
Ġipmi l
Ġboraspir iid
Ġdeadd u
Dokumean ta
lie d
utoke ino
Ġst oah
ing er
Ġdie htt
ruktu vra
7 6
j Ã¡i
Ġstuor imus
ĠÄįaÄĳah uvvojit
ĠÄįoahkki mat
5 9
Ġf Ã¡ddÃ¡
Ġmearr i
ĠolmmoÅ¡ vuoigat
ĠlÃ¡v e
g eav
Ġl usta
Äĳ aÅ¡t
Ġn e
ĠsosiÃ¡la laÅ¡
Äįoahkki mii
Ġbuvttad it
Ġsiv aid
ĠfÃ¡tt Ã¡id
ĠSto but
ight s
ĠPorsÃ¡Åĭ ggu
as itehta
Ġgo vttolaÅ¡
ot n
Ġ9 9
Ġmearrid eaddji
Ġevttoh ii
esur ssat
Ġbiddj ojuvvot
S iv
f atn
mm ar
Ġp Ã¤iv
ul u
ov ed
Ã¡ld in
Ġ7 4
Ã¡tn eg
Ġsp ieh
Ġgov aid
ĠMearr Ã¡dus
mÃ¡nÃ¡id gÃ¡r
Ġ Ã¡hÄį
al t
Ġoahp us
Ġt lf
Lea t
Ġlahtt un
j id
s urggiin
Ġgo vd
ĠM Ã¡t
Ġol go
Ġvuoigat vuoÄĳaide
ĠÃ¡lggah uvvot
ĠgullevaÅ¡ vuoÄĳa
ĠbÃ¡r tn
ĠOla v
Lapp i
V ii
k og
Äį uoh
ĠG eahÄįa
ĠN OU
Ġdut nje
ĠdÃ¡rbbaÅ¡ uvvojit
Ġgovv idit
Ġpoas tta
j ji
l ov
Ġbarg iide
Ġstiv re
ĠbÃ¡i ki
ĠnÃ¡ it
Ġbadjel ii
ĠApp lied
ĠÄįuovv olan
Ġbid jet
vrra laÅ¡
ĠKrist in
Ġmoht or
s for
tu id
Ġkon kl
Ġjahk ed
ĠJuo ge
ĠiehÄį anas
E P
M u
ah t
vuoÄĳ ul
stt ii
Ġolbm os
Ġjoh to
Äįoahkki miid
bÃ¡lvalus ain
Ġ196 0
MÃ¡htt e
ĠÃ¡lgoÃ¡lbmog iidda
VÃ¡r jj
is ke
Ã¡v nnas
ud us
ĠSt uorra
kkaÅ¡ upmi
A L
uh k
pp an
Ã¡ht or
Ġbaj il
Ġnanne ma
mmas ta
ĠkÃ¡r tet
ĠrÃ¡j iid
p mat
ĠE du
ĠgÃ¡v cci
ĠGiella gÃ¡ldu
Ġprinsihp aid
is to
od uo
eh aÅ¡
ĠO ktasaÅ¡
Ġolgg ob
ĠOl bmot
kantu vra
Or igo
ĠNÃ¤kkÃ¤l Ã¤jÃ¤rvi
Ġh eahte
Ġla hk
Ġ19 00
Ġda iguin
ĠÄĮ uj
ĠrÃ¡ÄĳÄĳ eaddi
Ġdeatt u
Ġdoarjja ortnega
Men y
P lÃ¡na
os e
ĠdÃ¡s iin
ĠbÃ¡l kk
Ġgov at
ĠOrg anis
ĠProÅ¡eavtt a
g uÄĳet
Å¡ un
ĠÄįielggad eami
geavah eapmi
isk Ã¤rÃ¤jÃ¤t
Ġmiesse mÃ¡nus
Ã¡rbev ier
Ã¡rkk ist
r Ã¡d
Ã¡ di
al dd
ih eaddji
es e
ĠsÃ¡n iin
Ġfylkkagieldd aiguin
:::::::: ::::::::
ĠHistorjÃ¡ ÄįuozÃ¡hagat
Ġeasta dit
b un
p edagogalaÅ¡
Ġb Ã¡hÄį
ol Ã¡ig
ej upmÃ¡i
pp el
ĠR ibahis
Ġunnit logu
Ġmuital usa
Ġbuohtast ahttit
Ġneg atii
tÃ¶ Ã¶n
ĠJÃ¥ ma
T he
ĠMuh tu
Â¢ Â¢
Ġsuodjal eapmi
ĠvuÄĳ olaÅ¡
alÃ¡g Ã¡n
Ġâ Ĥ¬
Ġfylkk agielda
ĠsÃ¡megiel oahpahusa
r ud
Ã¡s et
ost uo
ĠproÅ¡eavtt as
Juo llud
organisaÅ¡uvnn aide
ĠÃ¡lbmotvÃ¡ll jen
mi e
ĠR ev
ĠL ars
ĠdieÄĳ ihan
Ġvahk us
ĠmÃ¡n Ã¡iguin
Ġokta vuoÄĳaid
mÃ¡n nu
em ant
ett y
vÃ¡r i
Ġrehket doalu
Ġotn e
Ã¡vkk Ã¡stallan
ĠlÃ¡id est
Ġinte gr
uo vlu
ĠB uÅ¡eahtta
Ġadd ojuvvot
Ġsa misk
Ġvuol Ã¡bealde
ĠorganisaÅ¡uvnn aide
Ġlahtu id
Ġlii ge
78 0
Ġgra mmat
Ġprior it
oh allan
ad uvvon
Ġso ahte
ĠAm undsen
ĠDavvisÃ¡megiella VÃ¡nddardanÄįuozÃ¡hagat
3 00
E konomiija
t Ã¡s
te l
ku Å¡Å¡
od u
do vd
Ġjuo gadit
St oltenberga
ĠsÃ¡n iiguin
bÃ¡i kin
Ġpolit ihkkÃ¡r
ĠÄįohkk en
Ġperspektii va
Ġgaskabodd osaÅ¡
ah tii
ah ahtti
at en
Ġb r
ih kkas
ĠM on
Ġk il
ĠK Ã¥
Ġalmm olaÄįÄįat
um an
irjer Ã¡jus
ĠÃ¡rvoh Ã¡hka
Ç §
al ohp
Ġadd o
Ġbargg uide
olog y
giela s
Ġmols un
Ġmet od
Ġunnitlog ut
Stuorradi kki
ĠSF S
O B
v ea
Ġs Ã¡
al uo
ĠL und
ĠV ir
Ã¡Å¾ is
Ġsis Ã¤l
Ġmus eas
U N
ĠV ibeke
ĠÄĮ Ã¡hc
ren de
ĠBarg at
Ġstud eanta
ĠÄĮuo vu
ĠSaamela iskÃ¤rÃ¤jÃ¤t
ĠHy pp
Ġbi ll
Ġluondd ug
ĠPr ess
fer ean
ĠLuonddub alvalusat
f Ã¡pmu
i me
n om
Ġjo ks
ib mii
Ġoahpponeavv o
Sa mediggi
Ġcealk agis
R o
o Âª
Ġr eal
earr et
ĠH oahppoliÅĭkkat
ust it
ĠSiid okÃ¡rta
Ġlohkan guovddÃ¡Å¡
ĠDÃ¡r og
Ġsym bo
ĠsisÃ¤l tÃ¶Ã¶n
ĠHypp Ã¤Ã¤
J ustis
b en
Ġj oavd
in na
ag es
es a
ĠO aidn
Ġbu ktet
Ġovttasbarg oÅ¡iehtadusa
amuÅ¡ aid
Ġdi kki
Ã¡i ggit
ean et
ĠA sp
Ġ8 1
ĠplÃ¡n as
ĠvÃ¡ttis vuoÄĳat
Ġdahkk ot
ĠfylkkamÃ¡n ni
di mis
ĠL aila
Ġhehtt ehus
ĠSuol oÄįiel
Ġ und
Ġboazodo ll
ĠMa kkÃ¡r
Ġ098 0
E O
et il
ĠM er
ĠG Ã¡v
ĠmearrÃ¡dus aide
St uor
Ġdoaibmabij uiguin
Ġjul ggaÅ¡tus
ĠÄįohkk ejuvvon
. ).
Ġl uvv
ag eahÄįen
earvv uoÄĳ
Ġmo an
eb Ã¡i
199 7
ĠMari anne
ĠEdu cation
Ļ ×
Ġv iel
ag illii
go vva
ĠeisevÃ¡ldd iin
Ġbeakt ilis
Dokumeanta vuorkÃ¡
7 9
tn ja
Ġgust ot
Ġdoal uid
Ġgeaid da
ĠUnjÃ¡r gga
D a
D anne
Ġm orf
is ma
ĠoÄĳÄĳ aj
Ġdoarjja ortnegiid
mit h
Ġsp eal
ĠNord lÃ¡nddas
ago ddi
Ġseaill uh
led ge
ĠFe Fo
it etty
uÅ¡ tit
Ġlei mmet
gas kkust
Ġadd on
Ġ Q
Ġg idde
Ġb esse
ĠL oga
Ġstiv ret
div ers
Ġleah kit
ĠÄįuovvova ÄįÄįat
c u
eap p
rÃ¡ vv
ing en
ĠC eal
Ġ20 20
ĠsÃ¡hka vuo
Ġdoahp aga
s o
ĠG uh
ĠÃ¡ Åĭgir
ĠÄįÃ¡ ppagirjj
rie vdad
Äįoahkki mat
Ġgirjj Ã¡laÅ¡vuohta
ĠduoÄĳaÅ¡t uvvon
eatna ma
Ġgeahp edit
Ġovdas kuvla
Ġmeannu da
Ġh Ã¡rve
eb Ã¡hp
Ġpers ovnn
Rom ssas
Ġgeavahus as
n y
gg et
Ã¡n tu
eh tte
oÅ¡ iehtad
ĠL Ã¡g
iin nas
Ġhuks ema
ĠOahpp oneavv
Ma ÅĭÅĭ
Ġvier uid
bid dj
s ierra
Ġl Ã¡vv
ĠS no
ei gga
yl vi
jÃ¡v rris
Ġve el
J a
er ea
os aj
uÅ¡ uvdna
ssa iguin
ĠsÃ¡pme la
Ġveahka vÃ¡lddi
ajÃ¡s geass
Ġvuog Ã¡dat
ĠÃģrbev irolaÅ¡
m un
Ġjoat kÃ¡
ĠieÅ¡mearr ideami
Ġeatnig iela
eabb ot
ĠBeaivv Ã¡Å¡
ĠS anner
uoh ku
ĠB on
Ġgeavah eaddjit
uon Ã¡
ti mat
Ġserv odagaid
ko mitea
Ġsearv e
Ġos kku
Ġform Ã¡lalaÅ¡
ĠDivttas vuona
Ġs Ã¤
Ġdut kat
Ġ10 6
mearr Ã¡dusa
elbbolaÅ¡ vuoÄĳa
Ġbuvttad eapmi
ĠorgÃ¡n at
Muh to
Bie bmu
id epartemeanta
ĠI II
ĠealÃ¡hus sii
uos kk
D iehtu
ĠG uovd
Å¾Å¾ ii
Ã¥ rd
add Ã¡
19 6
ĠrÃ¡dd je
Ġrekrutt eren
Ġovdag ihtii
Ġs Ã¡tt
Ġm uohtt
Ġv ih
di ggi
un uÅ¡
ass e
Ġgirjj it
ĠfÃ¡r ren
Ġstipean dda
Ġbist Ã¡
ĠpÃ¤iv itetty
j uid
l isttu
rÃ¡ dd
ĠgohÄįod uvvo
vuoÄĳad ieÄĳut
ĠJohn sen
ĠlÃ¡ig oh
ĠMÃ¡httolo kten
ĠbÃ¡ldd ala
Vii meksi
B i
m os
Ġl ih
os kuvla
Ġh Ã¡hkan
ul bmi
Ġolbm uiguin
ĠrÃ¡hkad eami
Ġgieldd aiguin
eavah eami
ĠNu ppi
ĠEan aÅ¡
Ġko lle
Ġdohk Ã¡laÄįÄįat
R eg
Ã¡l m
Ã¡v it
ĠSÃ¡mi t
Ġ4 50
Ġlei gga
oa ivi
ĠD earvvaÅ¡
st rateg
Ã¥ Ã¥
Ġ7 3
Ġgil vv
5 4
it h
it Ã¡n
mÃ¡r kku
ĠÄįaÄĳah eapmÃ¡i
ĠdÃ¡hp Ã¡husaid
kumean ttat
ĠÄįoa vd
ĠbÃ¡iken amma
ÃµÃµ zz
ĠÃ¡vd instohpu
L oga
S tudean
la Ã³
Ġb lo
or ld
oÅ¡ edje
ĠvÃ¡l de
ohk Ã¡i
polit ihkkii
o w
Ġr isttalaÅ¡
vuoÄĳ ado
ĠM Ã¡hte
ĠR u
doai m
san ger
vrr ain
Ã¸r ge
Ġbuvttad eami
Ġsearvv i
ĠgokÄį Ã¡
Ġmoht orgiel
Ġjuoh kÃ¡
o di
ĠO a
ĠL angu
oahp as
Ġbo ald
ri min
Ġmeannud eapmÃ¡i
Ġvah kk
Ġortneg is
Ġoktan aga
ĠMathis en
âĦ¦ âĦ¦
Ġnamm asaÅ¡
M ihtt
ui gg
ĠR oger
Ġla gat
Pr oÅ¡eavtt
Ġkulturmuit or
eard Ã¡saÅ¡
prÃ¥ k
n amma
Ġdoaibma doarjja
op les
ĠvÃ¡l gga
Ġvuovd it
ĠjurddaÅ¡ uvvon
ĠÅł iehtadus
Ġdoll ojuvvui
S ea
aÅ¡ ta
vuo daid
Ġohc amiid
ĠÃ¡rvvoÅ¡t allamis
ĠOahp aheaddji
duo ddara
Ġvi Äĳ
Ġdav Ã¡bealde
mihtt omearri
ĠÃ¡it ojuvvon
onag asa
ĠfinnmÃ¡r kkul
/ -
h Ã¡l
ĠV ik
guovll uide
ĠeisevÃ¡ldd iide
dieÄĳ uid
Ġmihtt omeari
eahÄį u
ĠguovddÃ¡Å¾ ii
ĠÄįatn as
j Ã¡s
Ġ ï
Ġh om
Ġbarg ag
eassad ieÄĳÃ¡hus
iehtta lan
L Ã¡vdegotti
u mustÃ¡
vdd e
ev ies
ĠÃģ n
adj u
Ġdor jot
Ġeanadoall u
Ġsi rr
MaÅĭ umustÃ¡
Ġdemok rat
ĠJ ulev
ud no
Ġboaz u
ĠRom sa
Ġbohcc obier
lahtu id
earvvas vuoÄĳa
j agiid
Ġv aj
ir i
ovd n
Ġvuor uhan
Ġvah kku
Ġos ku
Ġluoh kÃ¡
Ġeroh usaid
ĠÃħ arjel
M eahcc
g Ã¡l
m earkkaÅ¡
Ã¡n i
ĠÄį anas
ĠlÃ¡v l
ĠÃ¡vÅ¾Å¾ uhit
a miin
b Ã¡
id dj
Ġd Ã¯
Ġdie vdd
Ġorg Ã¡nan
aguo vlu
ĠÃ¡ÅĭgiruÅ¡Å¡ at
Ġekonoma laÄįÄįat
er ejit
Ġdoaibma bidju
bargg uide
Ġluonddur igg
ĠDÃ¡b Ã¡leamos
ĠfÃ¡t mmasta
M Ã¡Åĭ
b uhtadus
c he
ur a
Ã¡ld it
Ġlean as
ĠJien asteapmi
i miin
Ġg er
Ġp edagog
ang er
Ġfievrr idit
ĠGeav u
ĠVuoÄĳÄĳo oahpahus
ti mmi
val itehta
Ġsihkkarast ojuvvo
dal en
ĠÃ¡ss iid
Ġkonsulta Å¡uvnnat
ĠvÃ¡nddar dan
Ãģlgo Ã¡lbmogat
b agad
er iid
Ġbi o
ahk at
Ġalmm atge
Ġgalgg at
Ġdi Åĭg
Ġlasih uvvo
ej umis
Ġovtt alÃ¡gan
Ġbea ll
Ol sen
IE LLA
Ġmass Ã¡n
ĠdÃ¡lv eg
ĠeaÅĭ kil
ĠD ieÄĳut
ĠE atn
Ġduo Äĳas
ald agaid
ĠMa c
beaivv it
Ġsiida oasi
ĠS ivvan
kt Ã¡i
ĠB oar
ĠR aporta
Ġfyl ka
Ã¢ m
Ġvel Ã¡
joavkk ut
M at
Ã¡r is
de partemeanttas
ej oga
ĠR iika
Ã¸ nn
ĠSÃ¡medigg evÃ¡l
ĠrÃ¡d ji
Ġskuvlla ide
eavstt as
ĠÄįatn at
Ġmuitalus aid
Ġref le
g oh
r Ã¡htalaÅ¡
at uv
Ġo z
el d
las j
ĠSt atist
Ã¶ Ã¶r
ĠdilÃ¡laÅ¡ vuoÄĳain
uhtti mis
ĠhÃ¡ll et
Gonagas laÅ¡
Ġstivr ejupmi
uvll olaÅ¡
L ean
m s
m Ã¡Åĭ
us san
ĠM e
ĠI v
Ġsuohkan ii
ĠovdÃ¡n eamis
Ġruo Å§a
bo alu
ĠgÃ¡vdn an
Ġdahkk ojuvvot
ĠoahppoplÃ¡n at
Ġsisab oaÄĳ
8 6
T O
b eivviid
eah k
uoh ton
of itn
ĠPr os
ĠSiid u
Ġpolit idepartemeanta
ĠÃ¡ss it
ĠÅ¡atta Å¡ii
sÃ¡me politihka
ĠTer je
OÄĳÄĳ asat
r Ã¡i
r Ã¡id
Ġ uv
di kki
eg as
Ã¡v rri
ĠL Ã¡ga
uhtt Ã¡
ĠSÃ¡medigger Ã¡ÄĳÄĳÃ¡i
ĠduoÄĳ aid
ĠstÃ¡htabuÅ¡eah tas
Ġlan gu
y p
Ġdeh Ã¡laÅ¾Å¾an
SÃ¡mi id
ĠdÃ¡rbbaÅ¡ laÅ¾Å¾an
Ġsihkkar astet
beal i
Ġhilg ojuvvui
Ã Ń
Ġp e
kt Ã¡
ri f
Ã¡b me
Ġstuor idit
ĠEan andoallo
Ġ198 8
ievrr ideapmi
Ġgust ojeaddji
Ġlag amus
ÄįÄį ain
ĠB Ã¡llÃ¡s
ĠP ers
istt aid
ost ivra
Ġallas kuvlii
ic s
ĠÃ¡lg et
Ġloahp a
pi x
________________ _
ĠrÃ¡vis olbmuid
ĠSÃ¡mediggerÃ¡ Äĳis
m sen
Ã¡ f
Ġd oahtt
as jok
Ġj Ã¡h
oah ti
Ġguovll ust
ktii vvalaÅ¡
Ġgeatnegas vuoÄĳat
ĠVÃ¡r do
Luondd u
ĠrÃ¡Åĭgg Ã¡Å¡t
il e
uor ggit
ĠH earrÃ¡
ĠÃ¡sah usaiguin
oass Ã¡i
Ġdokumean ttas
Ġvirgg Ã¡laÅ¡
k st
u da
Ġl ulli
el Ã¡gas
Ġk Ã¡s
Ġdeh Ã¡la
ĠstÃ¡hta in
Ġlog ald
Ġgeatneg ahttÃ¡
lahtt un
ĠBÃ¦ hr
G ieldd
Ġb es
dd iin
te ge
am earr
ast uvvon
ĠR apor
ĠdÃ¡r ki
irjji in
EalÃ¡hus eallin
Ġovttast ahttit
ĠGe org
Ġm ariid
ĠS O
Ã¡n is
Ã¡d ja
ĠB uÅ¡
ahtt ojuvvot
Ġt h
Ġbu kta
Ã¡b Ã¡laÅ¡
Ġnann ejuvvon
oahpah eaddje
ode partemeanttain
eatna mis
Ġjienastus logu
J ulev
Ġ ur
ĠA an
Ġbi kt
ĠV uovd
ĠhÃ¡lddahus as
Ġfuolah a
ment ar
p an
Ġg ud
us se
rr es
Ġf idne
alla nn
Ġeanan doalu
ĠÃ¡rvvoÅ¡tall ojuvvo
oÄĳ astusa
oguo vddÃ¡Å¾
Ã¸re ide
h op
ĠS Ã¸reide
Ġdo allÃ¡
Ġalmm uhuvvo
ĠplÃ¡n ii
ÄĮÃ¡j et
oa vven
ĠÄĮ oahkk
iteh taid
Ġdor jon
ĠMÃ¡htt odepartemeanta
ĠhÃ¡bme j
Ã¡l i
ĠN iillas
Ġbi jai
op m
ĠÄįaÄĳ at
Ġdohkkeh eami
ĠstÃ¡ht usa
Ġfylkkasuohkan iid
b uoh
Ġh ehtte
Ġnann ejuvvot
ĠplÃ¡n at
ĠplÃ¡n et
ĠgÃ¡vdn on
ĠdÃ¡sseÃ¡rv odepartemeanta
ĠoassÃ¡last ima
fr ast
Ġsihkk ojuvvo
Geavah eaddji
b oaz
m uÅ¡Å¡an
Ġserv et
Ã¡vcc aid
ĠHel ss
ĠEa ktu
M eahcir
ĠM Ã¦
ĠB Ã¡ikkÃ¡laÅ¡
ĠK or
ĠNor gii
Ã¥ h
Ġnamma duvvon
ovdÃ¡n eapmi
Ġperspektii vva
H istorjjÃ¡laÅ¡
m uÅ¡Å¡ii
o ktasaÅ¡
r uÄĳaid
s earv
v ald
Ã¡s ah
vuo Äİ
oahp a
Ġulbmil laÅ¡
Ġaut om
Ġkulturmuitos uodjal
chel or
A T
L Ã¡g
Ġ kul
ĠD ieÄĳÃ¡hus
ĠD ronnet
na i
Ġ19 50
ĠH er
men y
Ã¡ib Ã¡dus
Ġgil dii
Ġpers on
SÃ¡medigg Ã¡i
ĠOhc an
ĠsÃ¡mediggej oavkku
Ġgoass ige
ĠTrom ssa
ĠJes usa
ĠÃ¡rbedieÄĳ u
ĠRÃ¸ e
7 4
eh Ã¡lddaÅ¡
ĠL ist
Ġa ktiv
Ġgu lai
Ġ10 2
Ġdil iin
almm uhus
Ġdoa vttir
ĠÃ¥ r
Ġil us
ĠdigaÅ¡t allat
ĠfÃ¡rr ui
Ġdadj an
Ġ idj
ie mi
ol gg
Ġvuo itt
kt ie
ÄĮ uovv
ĠdÃ¡l u
kas uohkan
Ġvuol it
Ġbir get
vear ba
oh ii
pp al
ĠF al
ill y
ĠsÃ¡r tn
ĠViid Ã¡seappot
F inn
Ġd mu
Ġd istri
Ġm uÄĳ
ie v
Ġh ear
ÄĮ uj
Ġdut kit
ĠsÃ¡g adoalli
ll Ã¤s
il s
ur dda
Ġbarg om
ĠÂ ·
maÅ¡ uvdna
Ġguos kka
Ġdoa iv
Ġbiebm o
ĠdÃ¡ss ed
jul ggaÅ¡tusa
ĠÄįuv g
D ieÄĳÃ¡husat
v on
Ġd igg
Ġl undui
ĠG en
ĠNor sk
sa j
Ġovddid uvvojit
ealÃ¡hus sii
ĠKon ferÃ¡n
g ut
u dd
Ġ ag
Ã¡h at
ĠB rende
Ġjoh tit
Ġovddidan foandda
ĠOll es
F Ã¡llu
v in
Ġh ell
ĠN a
jÃ¡r ga
Ġdiv rras
Ġdus tet
Ġbuvtt ii
Ġ agi
el ii
ed er
Ġk ven
dj Ã¡
Ġokt i
ĠGo vv
Ġservodat laÅ¡
ĠPaul sen
Ġs Ã¤Ã¤
Ġn eavv
ĠÄį eahp
vuoÄĳ us
eah kki
oÅ¡ a
' '
E lisabeth
v istt
Ġgo ar
earr u
konom Ã¡laÅ¡
vv ut
Ã¡h kka
ĠN am
ĠJ Ã¸rn
Ġruovtt ug
Ġmil jÃ¡r
Ġdad ja
ĠdÃ¡hpÃ¡h uvai
ĠfÃ¡ll et
ĠgiellaguovddÃ¡Å¾ iid
Ġsohkabeal i
ĠHÃ¸ ie
D asto
t ja
Ġj g
Ġo all
Ġfylkkagieldd aid
Ġkval it
ĠRie vdad
Ġgeavahus sii
R Ãģ
ear j
Åĭ kke
Ġk l
Ġk ommi
Ã¡ll i
Ġmearr ag
Ġc uigg
Ġnjuol ggad
ĠkÃ¡r te
Ġanal ysa
ĠbÃ¡ikego ttiid
ĠlÃ¡gid ii
An Ã¡ra
Ġhehtt et
ĠEurohp Ã¡
Rie vdad
k ego
gg in
Ã¡n ii
rr it
Ã¡s iid
Ã¡id n
ĠH of
Ġal menn
Ġsaj Ã¡id
199 6
Ã§ Ã§
ĠÃ¡rbedieÄĳ uid
Ġdire ktor
wa y
s Ã¡m
t is
Ġl uon
ie ll
ĠA ktivitehtat
Ġjorg alit
35 8
D Ã¡r
ag er
ĠÃģ i
ĠlÃ¡g ida
Ġrievd Ã¡
Ġortneg at
g ar
Ġb uohkanassii
dd es
Ã¡Å¡t allan
Ġkonven Âª
Sol veig
eisevÃ¡ldd it
Ġbeas ai
g iel
Ã ¼
ÄįÄį i
eal las
Ġovdd astus
ĠV uol
do allat
Ġokta gas
laÄįÄį a
ĠdÃ¡hp Ã¡husat
Ġheiveh an
Ġgaska oa
Ġjurd agat
u muÅ¡
Ġr om
Ġh a
Ġmiel ke
ĠF Ã¡les
Ġoahpahus lÃ¡ga
ĠieÅ¡guÄĳet lÃ¡gÃ¡n
Ġheiveh eapmi
Ġvir gi
Ġgeass it
plÃ¡n ii
ĠdÃ¡sseÃ¡rv osaÅ¡
Ġbeaiv Ã¡i
TrÃ¸ nde
ĠSand berg
j ahis
Ġs ohpp
ĠS Ã¡
Ġr eivves
iel i
eg Ã¡v
to b
ĠdÃ¡l ve
Ġman in
kap ihtt
Ġ198 6
ĠduoÄĳaÅ¡t an
ĠbajÃ¡s geass
Ġpoasta journÃ¡la
aguovddÃ¡Å¾ a
ĠvuoiÅĭÅĭ alaÅ¡
Ġbuh cc
Ġah tan
I M
V Ã¡llje
b l
e um
r al
Ġ X
Ġm ur
oh ahkii
Ġdea talaÅ¡
Ġnisson at
Ġmear as
Ġheaj ut
ahÃ¡lddaÅ¡ eami
ĠList haug
H oved
K etil
Ġb oaitt
Ġbea lle
Ã¡hk Ã¡i
Ġdoarjja oaÅ¾Å¾u
ĠgÃ¡r ren
Kultur departemeantta
ĠVuoÄĳÄĳ olÃ¡ga
ĠvÃ¡rre lahttu
ĠÃ¡rvvoÅ¡tall ojuvvot
ĠDÃ¡in na
h i
j jes
ĠD ale
ĠL and
ĠdieÄĳ Ã¡husat
ĠFinnmÃ¡r ku
Ġgul iid
Ġoainn usin
Ġveh Ã¡dat
Ġveh kiin
Ġmod ealla
omm y
u min
un a
ĠA vvil
Ġkon son
Ã¡rv u
Ġfitn odagat
EA H
Ġsearvv ai
ĠKn ut
Ġv rt
Ġn Ã¡ittos
Ġoahpah eddjiide
ĠSuohkan iid
ĠfylkkamÃ¡n n
Ġbiegga fÃ¡pm
i miid
ah uks
Ġl ihtt
es ne
ĠÃ¡lgo Ã¡l
Ġoain ne
Ġunnit lohku
ĠSÃ¡meÃ¡lbmot foanda
ĠMÃ¦ land
U L
aÅ¡ kuÅ¡Å¡
ĠH elle
osiid ui
ĠKon ven
ervv iin
ĠSto ck
ĠrÃ¡hk is
ĠAsp aker
S Ã¡pmi
V iid
j uol
ion s
ĠUlbmil in
Ġmih Ã¡
ĠNA V
Ġmiella guo
Ã¡h ki
vah ku
ĠÃ¡ig odat
201 9
ĠAn undsen
Ġboahtte Ã¡igÃ¡i
ĠgÃ¡vnn ahan
Ġsohka buol
Ġkapihtt al
Ġkruvnn o
ĠWil hel
l uondd
tt et
ur g
Ġjie kÅĭ
doaimma in
Ġy our
Ġeisev Ã¡ldi
s Ã¡medi
Ġo astin
oai vvi
go ttis
ÄĮ oahkkÃ¡igeassu
ĠÄįoa kkÃ¡ld
ĠfÃ¡tt Ã¡t
ĠReg jeringen
Ġnag odit
ĠBoaz os
ĠEli assen
g ear
ol uide
ĠL ien
ĠT ommy
ĠÅ¡iehtad allamiid
Olgor iikka
Er na
5 8
B uÅ¡eahtta
ĠdÃ¡ kko
Ġjuo vl
ovdd idit
Ġdag ahii
beal it
ustt et
Ġvuoruh eamit
Ġri vttiid
Ġeanadoall o
ES CO
ealah eapmi
S iidda
ĠL as
Ġkultur biras
earvv it
ĠfÃ¡ga laÄįÄįat
ĠmeroÅ¡t allan
ĠboarrÃ¡s iid
4 00
I ne
d ohkkeh
y g
os tu
Ġdo alu
ĠÂ§ Â§
199 5
ĠdÃ¡rogiela s
ĠdivÅ¡Å¡ u
Ġdeavd Ã¡
Hoved meny
Ã¡r ii
di Äĳ
iv a
ĠL u
ĠA EP
Ġalmm uha
Ã¡ib Ã¡dusat
Ġheiveh uvvot
ĠBarg ojoavku
Ġnanne mii
gea Å¾
Ġvuolggas adjin
etr ole
ĠSve in
Org anis
Ġveel jeme
S ylvi
Ġo arj
uh usat
âĢ Ķ
ĠG uolÃ¡st
Ġloh ppii
Ġveahkk erea
Ç ¥
ol Ã¡g
uor gÃ¡i
mÃ¡r kan
Ã¡ht ar
ĠÃ¡sah eapmÃ¡i
Ġgirk us
ĠDoaibma bijut
ajÃ¡s Å¡addan
O adju
mi Å¡uvnna
an al
Ã¡n alaÅ¡
ĠD ah
Ġda kka
Ġdie vdo
ĠvÃ¡ld ojuvvot
ĠSa emien
ub li
tad earvvaÅ¡vuoÄĳa
Ġluonddum eahc
s by
Ġs j
Äį Ã¡hc
oa kt
di kÅ¡
Ġh oa
Ġvuo dul
eh k
eal it
ĠA le
Pr eassadieÄĳÃ¡hus
doarj agiid
ĠGir ko
ĠTroms Ã¸
6 3
ĠR asmus
ĠL oab
Ġoahpah an
ĠrÃ¡hkad eapmÃ¡i
Ġhuks e
ĠsosiÃ¡la bÃ¡lvalusaid
doaimm as
ĠgieÄĳah allan
ĠSol vik
Ġstatist ihka
ĠskÃ¡bma mÃ¡nus
Ġevalu eren
I B
al oga
eh pp
mean tta
gas kasaÅ¡
aÅ¡uvnn aid
Ġhea Äĳ
Vuo stÃ¡ivÃ¡ldi
ĠoÄĳasm ahttit
L as
Ã¡ muÅ¡at
Ġm Ã¡l
ku ment
ĠâĢ ¦
Ġkultur politihkka
Ġdiv at
Ê¹ r
hka laÅ¡
Ġrahp an
Nuor ta
arie vdad
Lin da
B Ã¸rge
i gga
ĠB ohcc
ĠÃ¡i tt
ĠH els
mearr Ã¡dusat
Ġatn u
ĠgÃ¡r g
Ġeanan goddi
ĠDuo ttar
Ġfylkkagieldd ain
Ġruovttu guovllus
Äįuj uhus
mod ealla
ĠHor ne
ĠHelle land
la d
Ã¡s te
uh tas
Ġguo ÏĢ
Ġla nd
Ġpr eassadieÄĳÃ¡husat
ĠlÃ¡g Ã¡dus
Ġru maÅ¡
Ġboazodoall oÅ¡iehtadus
Ġear Ã¡ge
ĠÄįilg ejuvvo
OlgeÅ¡ bellodaga
Ġmiellahtt ut
ĠÃ¡rbevir olaÄįÄįat
Ġgirjeb uss
MÃ¡ilmmi viidosaÅ¡
O ktiibuot
j Ã¤rvi
ĠD ieÄĳÃ¡husat
ieÄĳ uid
Ġgas kii
ĠhÃ¡ldd us
ba ji
ĠÃģl tÃ¡
ĠolmmoÅ¡ laÅ¡
Ġskuvl en
uohtt asa
F ievrrideapmi
j uohkin
barg o
Ġ8 3
for m
osis dollui
. Â·
B ent
Ġ Ã¡vdnasat
aÅ¡ iehtadus
Ġf Ã¡gan
ul das
Ġpr oposiÅ¡uvnnat
Ġgiella guovddÃ¡Å¡
Ġmearrid anv
Pr oÅ¡eakta
ac e
ĠdÃ¡rkk istit
veah kki
Ġjoatkka oahpahusa
Ġvier is
suodjal usa
Mon ica
tek no
A S
a kon
f estiv
g iidda
vdd it
ĠV Ã¡st
ĠF o
Ġgiella lÃ¡ga
eb ie
ĠÄįaÄĳah uvvui
Ġdoa kt
199 8
Ã³ Ã³
Ġteavstt as
Ã¡last in
Ġdaddj ojuvvo
Ann iken
Ġovttaid uhttin
Ġjorga lan
l uoh
Ġ Ã¡hku
gg edieÄĳÃ¡hus
ĠS T
en de
ahttin Ã¡igodat
Ġga Å¾
ĠNuor aid
ĠrÃ¡dd jej
ade partemeantta
U n
s et
on e
llin or
Ġfitn odagaid
Ġdavvis Ã¡megiella
mÃ¡ ks
Ġdal Ã¡
M uÄĳui
S kuvla
ar es
os ten
ol is
Ġbi vddu
ĠsÃ¡dd e
Ġveahkeh a
njÃ¡r gga
Ġheaitt ihit
Ġveahkkerea iddut
T ord
ag iiguin
ĠÄį uh
ĠÃ¡l ge
da kkÃ¡r
ĠF ran
ĠmearrÃ¡dus as
ĠÃ¡lggah ii
Tor bjÃ¸rn
ĠHaug lie
ĠHof stad
E ai
s le
t eaksta
as as
ĠD eatnu
ĠmÃ¡ dd
Ġin ter
bea ss
ĠC tr
Ġgieldd alaÅ¡
Ġsearv Ã¡
oaÄĳ us
ĠmÃ¡nÃ¡idgÃ¡rde fÃ¡laldaga
ĠlÃ¡vdego dde
ĠorgÃ¡n aid
ĠdÃ¡lv et
ĠCtr l
H e
v it
} ,
uo vtt
Ġs it
Ã¡i ggiid
ig aÅ¡uvdna
am p
bi vddus
bivd ui
ĠÅ¡iehtadus aid
ĠlaÄĳÄĳ asis
boah tÃ¡
Ġeatnig iellan
Almmust ahtti
Ã¡lasturr odat
Ġvuhtt o
C md
G eass
Ġ Äĳ
Ġs urggiid
ĠO Äĳasmahttin
ĠJ u
bu ktet
Ġoaidn in
oahpp it
ĠoassÃ¡last Ã¡n
ked In
ĠHe lander
ĠJon assen
Lin kedIn
erh ard
ĠmÃ¡Å¡ iinnas
E post
ĠÄį Ã¡lasturr
ÄĮ Ã¡lasturrodat
Ã¡ht Ã¡t
Ġvuoigat vuoÄĳain
ĠÃ¡lg osiidui
poasta almmuhus
ĠbÃ¡ik Ã¡i
ĠvÃ¡lljen listtu
Ġteaksta oassi
amearkk at
eaiggÃ¡d iid
VÃ¡ld onav
VÃ¡ld osisdollui
fÃ¡r ren
ĠAd olf
NAÄĮ at
Olgoriikka Ã¡ssit
ĠAEP l
ĠÄįÃ¡lasturr odaga
VÃ¡ldonav igaÅ¡uvdna
J ogat
as aid
ie Å¡g
er o
Ġol gun
kÃ¡ bmag
iikk alaÅ¡
ĠvÃ¡r ren
ĠieÅ¡ stiv
Ġto p
Ġno min
hk Ã¡i
Almmust ahttinÃ¡igodat
Ã¡vkk Ã¡st
" >
Ã¡r f
ĠL ullis
mÃ¡n Ã¡t
barg iide
Ġlass e
Ġbu ktagiid
oahpp i
direktor Ã¡htta
ĠEar en
ĠbearrÃ¡igeahÄįÄį an
IR JI
Ġovttaoaiv il
Ġh add
ĠM iella
ĠB adje
Ġovttas bargguin
erg iija
ĠÄįÃ¡l go
ĠÃ¡lbmotmeahc is
Ġjahke c
ĠvuordÃ¡ muÅ¡at
Ã¥v nÃ¥
ĠÃ¡rjja laÅ¡
fyl kk
ĠÃ¡lbmotvÃ¡ll jejuvvon
Vai kko
k ag
Ġb ih
ĠS ihkkar
ĠM earkkaÅ¡
Ġor iginÃ¡la
Ġvuor as
Ġnann osit
ĠnÃ¡ kk
Ġfil osof
davv is
aÅ¡ at
vtt iin
all ji
Ġst andÃ¡r
Ġma Äĳe
Ġ9 3
ĠsÃ¡dd ejuvvot
giela id
ĠKon sulta
Ġolahus joavku
E H
J ahk
Å ½
Ġ iss
Ġs Ã¡ga
dd en
st at
ud ahka
Ġor ui
Ġboazodo aluin
ĠhÃ¡l it
ĠmÃ¡Åĭgg at
DÃ¡l Ã¡
Â¾ Â¾
ĠDÃ¡b Ã¡laÅ¡
ĠFinnmÃ¡rkkuopm odaga
emihtt omearri
Ġleat ge
ĠD Ã¡vjÃ¡
ĠG erhard
ĠR esursa
ĠrÃ¡ mmat
Ġa b
Ġeavtt uin
oss odaga
Ġoidn et
Ġcealk Ã¡n
ĠmÃ¡tke ealÃ¡hus
ĠBirasgÃ¡htten departemeanta
ĠoahpÃ¡sm uvvat
g iin
Ġb iehttalan
ĠA hte
ĠÃģ rran
pr esid
ĠfÃ¡g agirjj
ovaÅ¡ uvdna
Ġbuoh kain
geavah it
Ġealli mii
ĠRie kte
Ġdavvig uovlluid
Ġdadj et
ĠWilhel msen
as ii
al itehta
inn us
ĠoaÅ¾Å¾ un
beaivv is
Ġovdanbukt in
ĠhÃ¡bme juvvon
Ġbell odat
ĠIntern ational
ĠSÃģ MI
sa jit
erv odaga
ĠmaÅĭ is
ik al
ide o
Ġulbmil ii
ĠproÅ¡eavtt ain
Ġeanado llui
ĠlÃ¡gid uvvui
ĠMaÅĭ imuÅ¡
Ġd en
Ġd ej
Ġb ieÄĳ
is eret
Ġf uon
ĠN BR
ĠR isten
Ġnj uov
ĠvÃ¡ld odoaimmaheaddji
Ġdi men
ĠÄįoa vddus
ĠÃ¡ÅĭgiruÅ¡Å¡ ama
ĠÃ¡ssan guovlluin
Ã¤n s
Ġteor iija
ĠKa utokeino
Ġveal ta
L a
j ohka
Ġg Ã¡n
Ġl istt
er k
Ġguo ras
ĠE d
kultu vrii
st Ã¡
Ġ8 50
ĠgÃ¡v ppaÅ¡
Ġ198 1
Ġbear j
ĠSuodj alus
m or
ĠM i
Ġnuor tta
ĠFinnmÃ¡r kui
ĠhÃ¡l eÅ¡
ĠduoÄĳ ai
Ã¡sahus ain
nu go
kur sa
ĠrÃ¡vv e
Ġjuogad uvvo
Ã± Ã±
Ġduddj ot
Ã¯j re
Ġspieh kas
k Å¡uvdna
Å¡ l
mi r
Ġo bj
kk olaÅ¡
ĠÄį org
Ġdoaimm aha
Ġmuit it
isev Ã¡ldi
igg alaÅ¡
ĠvÃ¡ldo ulbmil
pros ed
ĠfÃ¡lald agat
Ġ53 6
Ġruovttus iid
Ġell et
Ġlis tu
ĠGil bbes
7 1
d eatt
Ġlea ma
Ġ1 01
oai mmat
ĠlÃ¡g idan
Ġeanet logu
av eardÃ¡saÅ¡
olog alaÄįÄįat
Ġjulev sÃ¡megillii
Ġsird in
ĠDie t
ĠvuogÃ¡d aga
ĠO u
ĠK r
Ã¡Å¡Å¡ enr
Ġ9 2
ultur al
Ġguovllu laÅ¡
UO V
duo ttar
ĠmÃ¡Åĭggabealat vuohta
ĠvuoigatvuoÄĳal Ã¡vdegoddi
Ġgaskan easet
h ol
Ġguo rras
partemean ttaid
Ã¡ld ut
met ji
uks es
Ġjear aldat
Ġbirras iin
eisevÃ¡ldd iid
ĠMÃ¡Åĭ gga
ĠAk ers
O L
o o
al de
ar eg
ĠJo urnal
Ġguovv amÃ¡nus
Guovdagea innu
je ma
Ġh Ã¡miid
na mis
uvnn as
bÃ¡l kkaÅ¡umi
ĠvÃ¡id da
Ġoidn osis
ĠeamiÃ¡lbmog at
Ġduoh tan
ieÅ¾ as
ĠÅ¡ib it
M an
k ret
Ġd uol
Ġfuo pm
ĠgÃ¡ib idan
Ġsor jjas
ĠAs la
us aide
vdd is
Ġ8 2
op olitihkalaÅ¡
eas tta
ĠTr ond
ĠÃ¡ss iide
Ġgirk olaÅ¡
assii ge
Ġlundd olaÄįÄįat
ĠRan di
r ad
ĠH ir
Ġbargg ai
Ġgir di
ĠnuppÃ¡st uhttin
ĠdigaÅ¡t allan
Ġrustteg iid
Ġj ih
mm Ã¡laÅ¡
do vdd
ĠK e
ĠP olitihkalaÅ¡
ĠÃ¡Å¡Å¡ ejoÄĳiheaddji
Å¡uvnn aide
Ġerenoam Ã¡
Ġlog ai
ĠTr oan
Ġfitn odaga
Ġdavvis Ã¡mi
Ġvuolggas adji
Ġl oss
di gge
ĠÄį ad
ad Ã¡r
Ã¡d ji
Ġp lass
ĠB Ã¡
ĠK at
Ġnam ahuvvon
ovd al
ĠrÃ¡ÄĳÄĳ eadd
St ivra
ĠEan as
Ġbir ge
ĠVÃ¡r jjat
fr iddja
sis kk
Ġmuhtu mat
ĠDain na
Ġsearva ma
H Ã¡lddahus
j aid
pmi l
ĠÃ¡sah uvvojit
idd u
ras tt
bÃ¡i kkiin
Ġjorgal eami
ĠmÃ¡id n
Ġn ot
Ġf ra
Ġbivd u
Ġgeasse mÃ¡nus
Ġevttohus as
Ãģl gg
Ġnubb Ã¡i
Ġmieldd usin
Ġofe laÄįÄįat
eta bealla
b uÅ¡
b org
r esurssaid
s Ã¡megiel
ĠS d
ĠG ov
am oe
odo arjja
ĠsÃ¡me kultuvrra
ĠsÃ¡dd ejuvvojit
amat eriÃ¡la
irjer Ã¡dj
Ġoam ast
Ġluonddus uodjalan
Ġminor itehta
N O
Ġb eivviid
Ġv il
Ġgea innu
st uor
Ġoll Ã¡h
unn i
Ġohc et
Ġboazodoall oÅ¡iehtadusa
Ġguovtteg iela
ĠKar in
Ġdoll ojuvvo
ĠÃ¡lgoÃ¡lbmog iin
Ġproseass aid
Ġneg atiiva
Ġerenom Ã¡Å¡
Riikk aidgaskasaÅ¡
Saemiedigk ie
vv ain
Ġr eivve
ĠÃ¡l ohii
Ġa Åĭkke
Ã¡b eale
bea ll
mmi r
Ġear uhit
plÃ¡n ain
ver n
hÃ¡lddaÅ¡ eapmi
fitn odat
elis tu
ĠGieldd a
Ġluonddum eahcc
ĠrÃ¡ddj et
c mp
r ess
Ġs tu
od ii
am eahttun
ing uin
Ġ9 1
oas it
Ġheiv ejit
Ġdovd om
Tr ine
Ġel e
serv odat
Ġoahppo ÄįuoggÃ¡
ĠDavvis Ã¡megiela
Ġprof essor
Ġs n
Ã¡l gg
ĠS oai
ĠB uorre
ĠÃ¡rvvoÅ¡t allamat
Ġguorah allama
Ġgear ddi
Ġjoatkkaskuvlla in
Ġjietn ad
ingv isttalaÅ¡
B uor
Ġo arjja
ĠÄįÃ¡ll et
ĠduÅ¡Å¡e fal
Ġkap asitehta
Ġ198 5
Ġrahp p
Ruo Å§a
Ġsor ja
Ġsoahp an
ĠstÃ¡htabuÅ¡eah ta
ĠMedi at
i kan
i mat
o ma
u tt
uh ii
ĠR uhta
Ġpr esid
Ġin frast
ĠvÃ¡ld os
ĠSa misk
fÃ¡lald agat
KK I
Ġguovlu laÅ¡
Ġsm Ã¡vit
Ġoal Ã¡t
a las
kk es
ih is
eh at
ÄĳÄĳ u
uor ahallan
ĠV ejolaÅ¡
ĠF jell
ĠearÃ¡ in
ktu vra
sÃ¡mi t
Ġjuollud uvvui
Ġvea dje
dilÃ¡laÅ¡ vuoÄĳaid
Ġgoall oss
ĠmiljÃ¡r dda
D Ã¡id
Ġg Ã¯el
in ki
ĠS Ã¡megiel
Ġnuor ain
ĠbÃ¡l valusa
Ġmeahcc ej
Ġmear i
Ġovdanbukt Ã¡
ĠAl ta
Ġintern eahtas
gol ut
ĠlÃ¡i go
os sa
od eapmi
Ġgea sa
Ġ% .
ĠdÃ¡id Ã¡
ĠsÃ¡v z
teddj iide
f Ã¶r
ĠR agnhild
Ġnj unuÅ¡
ĠÄĮ ilgehus
ĠÄįaÄĳah a
Ġguhte ge
miela laÄįÄįat
Ġfin Ã¡ns
vow c
oaidn u
M aiddÃ¡i
m l
Ġ qu
ut h
ul t
ĠG uv
bb ain
ĠvÃ¡s sÃ¡n
Ġ17 00
ĠRuoÅ§ Å§a
ĠsÃ¡gast allama
Ġmeahcceg uovllus
ĠÃ¡ige meari
Ġjuovla mÃ¡nus
uoÄĳ aÅ¡t
te Ã¡hter
ĠG uol
ĠNor way
ĠSt ivra
ide ttiin
tas Ã¡mi
ĠOslo Telefovdna
ĠvuÄĳ olaÄįÄįat
7 3
b ah
ÄĮ OAHKK
yl Ã¤
kap itÃ¡la
Ġorganis erejuvvon
Ġresur ssaide
Ġloahp ageahÄįen
ĠrÃ¡mma plÃ¡na
ĠMarit a
ĠS U
geavah an
ĠMÃ¡r et
ĠÄįujuh ii
Ġjuollu demiid
semin Ã¡ra
ĠPor sanger
O Äĳas
ĠB B
Ġst at
do ibmii
inn ut
Ġbuor idan
ĠmearrÃ¡dus sii
ĠSa mmallahti
Ġvuovd edo
ĠealÃ¡sk ahttin
' .
F uo
V ir
V uol
f as
vuoÄĳ ag
all ojuvvot
ĠV earr
Ġoahpp os
ĠI V
Ġjo urnÃ¡la
Ġvuost Ã¡las
ip s
Ġoan ehaÄįÄįat
ĠdearvvaÅ¡ vuohta
eva ÄįÄįat
Ġmariid na
7 2
a Âª
ĠS Ã¡r
or iija
ku t
ĠR adi
Äįuo kkis
ĠÄįÃ¡l ih
Ġloahpah uvvon
Ġduog Ã¡Å¾a
ĠbuÅ¡ ehttii
vejolaÅ¡ vuoÄĳaid
ĠvÃ¡ cc
uw on
Ġ2 10
ev ear
guo vddÃ¡
Ġkultur h
ĠgÃ¡v pp
Ġoktii ord
ĠrÃ¡vv agat
Ġtekn ologiija
Ġfidn et
Almmust ahtton
ĠmeahcÃ¡st an
Ġduh Ã¡t
Ġturis ma
Ġolah an
âĢ¢âĢ¢ âĢ¢âĢ¢
bir g
M aid
tt er
uor astaga
ĠO vtta
ĠÅ¡ iehta
ĠieÅ¾ Ã¡
ieldd us
atn as
partemen ta
buÅ¡eah tta
B Ã¡i
N OR
Ġr eive
ĠF red
Ġfyl kasuohkan
ovd amear
Ġ12 0
Ġdiehtoj uohkima
Ġsearvad ahttin
ĠMÃ¡r jÃ¡
eÅ¾ as
beroÅ¡tu miid
g ie
Ġb Ã¯jre
ĠS earvi
uvv e
Ġea rr
ad Ã¡id
eh Äį
alus at
ilg es
Ġmihtt omearit
vo ll
Ġboraspir e
birras at
ĠÃ¡rbevier ut
Ġallaskuvlla in
Ã¡hpp es
Ġsmi eh
h en
i z
j n
Ġd Ã¡vd
Ġl eg
ad Ã¡sis
Ã¡d allan
ĠJ ul
Ġgiella rÃ¡
Ġgiella lÃ¡v
Ġnjuolggadus aide
ĠbÃ¡l valit
ĠlassÃ¡n ii
ĠÃģlgo Ã¡lbmot
T e
Ã¡h to
Ã¡la id
ĠB ier
ĠeaiggÃ¡d uÅ¡Å¡
ĠFylkk amÃ¡nni
8 9
h oavda
id ja
ald aga
ĠmÃ¡nÃ¡idgÃ¡r des
Ġdahkk ojuvvojit
SÃ¡me politihkka
veah kk
________________ ________________
ĠgÃ¡vpog is
Ġrii kar
Ġsiskkil da
now ledge
Ġgarv it
ĠGerhard sens
Ġj og
all iid
Ġnj oa
Ġboazodoall it
Pr ess
aguovll us
vÃ¤ gen
Ġovddos guvlui
Ġdel eg
j os
is en
ĠS mith
mm us
ĠE v
Ġduo ttar
ĠdÃ¡l vvi
ti min
bu ktagiid
Ġviid odaga
ĠgÃ¡r tÃ¡
ĠvÃ¡st idii
Ġart ihkkalat
199 1
Ġmear ka
ĠdÃ¡idda laÅ¡
Ġprinsihp at
Ġres ol
Ġvaj Ã¡ld
f ir
o i
ii bb
Ġh em
oÅ¡ e
eivv iin
Ġpolit ihkas
proseass aid
ĠvÃ¡zz it
Ġspea dja
h s
Ã¡l la
Ã¡l go
ĠS Ã¡pmelaÄįÄįat
Ġn ala
Ã¡Å¾ in
Ġar ke
Ġgull i
sk evaÅ¡
St rategiijat
ĠDo arjj
Ġsird ojuvvo
uhtti mii
Ġta beal
Ġlob Ã¡laÅ¡
fa amoe
bÃ¡r ra
s or
Ġg Ã¡htten
Ġb assi
Äį ilg
et ne
vd nje
eg uo
bm udahka
ĠL in
re tt
Ġfyl k
ĠÃ¡lggah a
ĠdÃ¡hp Ã¡husa
Ġrievtt es
Ġvej ola
ins vÃ¤gen
Ġdorvv astit
ĠdÃ¡hpÃ¡hus ain
ĠHed insvÃ¤gen
Ġbivdd ii
ĠAan es
jjes faamoe
G GA
V I
me hc
ta gat
vuo ig
ĠN atur
ĠNor lÃ¡ndda
ald agat
Ġmearrid uvvot
Ġfuo last
ĠW illy
ĠÄįuovvol eapmÃ¡i
Ġ.... .
G Ã¡ldu
Ġo Äį
ĠÄįuo zÃ¡h
ĠÂ ¹
Ġnam uhuvvo
Ġstiv rii
juo gad
ĠJos ef
ĠprogrÃ¡ mmas
Ġvuorras iid
Ġkil ome
ieÅ¡g uÄĳet
G D
S F
V uovd
g irjj
k eap
Ġ ide
Ġea ba
Ġgo dd
ĠR oavven
ĠA as
Ã¤ m
mu ttus
ĠW orld
Ġoainn ut
lÃ¡ Äĳe
Ġregi ovnn
Å£ Å£
Ġnjuovv an
rÃ¥d er
I eÅ¡
M O
s tet
y a
la laÅ¡
Ġs il
Ġmeahcceg uovl
ĠvÃ¡lljej uvvui
Ġregul eren
ĠLe met
agen et
e pm
h ib
o tt
Ġg iehtad
te lef
Ġh Ã¡la
Ġ5 50
jj u
ĠmÃ¡ks ojuvvon
Ġoahpponeavv orÃ¡hkad
Ġnuoraid politihkalaÅ¡
lag et
ĠgaÅ¾ald agaide
ĠÃ¡igumuÅ¡ ain
G aska
r alaÅ¡
en ter
ĠÄį i
vdd as
Ġdah ka
ĠV est
ĠV ealaheapmi
Ġpr esideantta
ĠP ost
Ġferte n
Ã¢ l
ĠplÃ¡n emis
ĠOahpp u
ĠdearvvaÅ¡ vuoÄĳas
ĠorgÃ¡n ain
Duo dje
ĠGÃ¡i vuonas
ĠÃ¡Å¡Å¡edovd i
a x
c it
Ã¡d it
ĠM Ã¡z
ur i
uol u
uhtt et
ĠÃ¡lgoÃ¡lbmot vuoigatvuoÄĳaid
mo vttiid
ĠRidd u
Ġdoarjjar eivve
ĠdÃ¡r u
Ġvi Å¾Å¾
ĠÃ¡rvohÃ¡hkan progrÃ¡mma
ĠAsla ksen
8 5
D on
O pp
s Ã¡
ĠS N
Ã¡n eami
od eami
ĠV eah
Ġeal u
Ã¡j iid
Ġdoaibm as
Ġ13 6
ĠsÃ¡g aÅ¡kuÅ¡Å¡
ĠGonagas viessu
Ġ43 2
progrÃ¡ mmii
kamuÅ¡ a
opolit ihkka
B lÃ¡Äĳe
b is
Ã¡ muÅ¡
Ġmedi aid
ild eaddji
ĠBor aspir
O h
R Ã¡
e konomalaÅ¡
k opiija
Ã¡d agat
Ġsu ddj
Ġdil Ã¡laÅ¡vuoÄĳa
ĠmÃ¡ks in
Ġsearvv is
Ġbuol vvaide
Okta vuoÄĳadieÄĳut
VÃ¡l do
keap Ã¤Ã¤
& #
. (
S earch
d id
m ea
Ġs ign
Ġe x
ĠSt ore
ĠvÃ¡ttis in
Ġsohka beliid
ĠgullevaÅ¡ vuohta
Ãģr vv
Ġtear bma
ĠPorsÃ¡Åĭ ggus
T E
o ÄĳÄĳ
el iid
Ġp ol
ahtt ojuvvojit
Ġbarg og
ĠH Ã¡mm
Ġdihto mielalaÅ¡
ĠOla f
ĠguoÄĳÄĳ it
id uÃ¡la
Ġg ahp
is h
eh an
Ġsuo pm
Ġw ith
Ġdavvig uovlluin
ĠnÃ¡Å¡ uvnnalaÅ¡
G U
g s
ie ra
on y
os kuvlla
os iiguin
dire ktevra
Nu bbi
Ġkonse Å¡uvdna
k oj
v ok
ĠÃ¡s aid
Ġc om
Ġdih tet
ĠdieÄĳih uvvon
ĠÃĺ r
Ġnag odan
g irjjis
Ġg ihpp
Ġg Ã¡httet
aÅ¡ a
Ġ( )
ĠH et
ĠP olit
Ġmeannud ii
edi v
ĠdÃ¡v jji
Ġsuor gg
8 2
Ġj ahki
Ġb as
ĠD ig
es ull
Ġbarg iin
Ġbea vtt
ĠvuoÄĳ us
ĠÄĮ ielggad
Ã¶ Ã¶
Ġvir gÃ¡i
Ġdovdd ahan
FinnmÃ¡r ku
ĠkÃ¡r ta
ĠDÃ¡ ppe
ĠeahpeÄįiel ggas
Ġnoh kÃ¡
kk usat
Ġgo ah
Ġdo last
departemen tii
ĠgeahÄį ad
ĠjÃ¡v kan
ĠguÄĳ a
ĠlÃ¡vdego ddÃ¡i
ĠfestivÃ¡la t
Ġekonomii j
ĠBoah tte
v or
Ġh Ã¡hka
unn it
uvdn ii
ĠfÃ¡g at
vÃ¡ll jid
kkÃ¡ ma
Ġpolitihka laÄįÄįat
ĠMÃ¡httolo ktema
p maÅ¡
ĠS Ã¡pmelaÄįÄįaid
Ġmi htu
ke Åĭ
ĠV i
ĠI t
tii s
Ġc ea
ĠdeaÅ§ alaÅ¾Å¾an
age idnui
foan ddas
Ġvis tti
ĠdÃ¡rkil et
Ã¡ Åĭg
mi ht
ĠS i
Å¾ i
go vv
Ġor dne
ab u
ab ut
Ġvuostt ald
Ġoaivvil duvvo
kar tta
iht Ã¡id
ĠY le
hte ra
ageavah eami
Ġdemok rÃ¡htalaÅ¡
ĠOvttasbarg oÅ¡iehtadus
Ġluohk Ã¡s
ĠSij te
b earaÅ¡
Ġg Ã¡m
er ejuvvojit
Ġn ett
ol en
Ġgo rr
ĠB uol
ev el
Ġloh kki
Ġnam as
Ġ10 7
Ġ12 1
Sa metinget
Ġgaskk al
Ã¡vcc at
Ġguovd ilis
Ġkom p
K S
Ġl ij
oa pmaha
ka laÅ¡
âĢ °
Ã¡la stit
Ġoahp a
ĠE llinor
Ãģ LA
ĠH Ã¡lddaÅ¡an
ivv un
lea maÅ¡
ĠsÃ¡pme laÅ¾Å¾an
ĠbÃ¡ikk it
Ġoahpponeavv uide
ub lik
Ġvuovd ima
Ġloahp alaÄįÄįat
Ġjuohk Ã¡s
Ġadn ot
vuoÄĳal Ã¡ga
ĠÄįuol bma
Ġduddj on
ĠResursa Ã¡vkkÃ¡stallan
Ġfuopm Ã¡Å¡
vÃ¡lljid um
m uor
× Ļ×
Ġd ir
Ġj as
Ġj Ã¡n
ie b
Ġr Ã¡id
ĠR Ã¡Äĳi
ĠI KT
ĠÄĮ iel
ĠmÃ¡Åĭ ggas
Ġorganis aÅ¡uvdn
ĠmÃ¡ks ojuvvot
ĠjoÄĳih eaddjin
ĠoassÃ¡la sttii
doaibmabij uide
ĠdivÅ¡Å¡ oh
ĠealÃ¡husa iguin
oguo vddÃ¡Å¡
Siid das
Ã¡rjeh allan
S PR
an na
et lÃ¡gan
ut i
Ġc lass
Å¾ald agat
ĠsÃ¡n is
âĢĻ ,
Ġoroh agas
ĠÅ¡iehtad allamat
ĠDe partemeantta
Ġguhkk in
ĠRidd og
ĠdÃ¡rk ilis
t Ã¡i
uoh ttas
ĠR ights
ieÄĳ ah
Ġovttas doaibma
ug iide
ĠSa me
ĠgÃ¡vdn Ã¡
guovddÃ¡Å¾ ii
ĠGu laskuddan
ĠboaÄĳ usin
ĠberoÅ¡t usaid
Ġautom Ã¡htalaÄįÄįat
F or
Ġg Ã¡i
Ġm ob
Ġb ivnn
Ã¡s se
ĠÄį uvvon
il u
do kumean
Ġgeavah iÅ¡g
Ġsea g
bea lli
Ġ45 3
Ġfylkkasuohkan a
proseass ain
Ġfierpm Ã¡daga
Ã¡gast allan
ĠM ovt
Ãģ v
Ġk or
gas iid
Ġmie la
ĠÄįoahkki miidda
bÃ¡i kÃ¡i
Ġstrateg iijat
Ġboazo oroh
ulbmil iidda
ĠovttasbargoÅ¡iehtadus aid
ĠmÃ¡innaÅ¡ uvvon
inde er
B B
K a
Ġd ujiid
Ã¡h ppa
ĠB ul
Ġbo an
ĠT a
Ġoahpah eaddjis
ĠvÃ¡hne miidda
Ġalmmuh uvvui
Oahpp it
ĠMus ea
ĠeamiÃ¡lbmog iidda
Un ivers
ĠS ver
Ġr Ã¡n
ĠN T
Ġk ielÃ¢
Ã¡ll ev
argg amusat
Ġsa miske
ere miid
ohp i
Ġvearr og
ĠTelef ovdna
Ġohcc iid
Ġdavvig uovl
ĠKir sten
ĠÄĮuovv ovaÅ¡
bearr al
ĠÃ¡lk id
Ġvearb agenet
d Ã¡hp
Ġg uvllolaÅ¡
Ġb ark
ar is
ĠmÃ¡htt Ã¡n
ĠjÃ¡v ohis
ĠY ork
ovdÃ¡n ahttin
Ġprinsihp a
Ġoss odaga
Ġstudean ttaide
Ġdoaibmag uovllu
ÄįÃ¡l us
Ġmoht orf
ĠmÃ¡htolaÅ¡ vuohta
ĠÃ¡ssa mii
ĠÄĮoahkki mis
6 2
o vtt
Ġb ru
al ohkÃ¡i
rr iid
di kÅ¡un
Ġf unk
Ġh Ã¡
Ġguo vddÃ¡
alla min
ĠH eah
ĠvÃ¡ikkuhan fÃ¡mu
uodjal eapmi
Guo vddÃ¡Å¡
ĠinformÃ¡n ttat
ĠJar le
ĠEur op
Ġoktagas laÅ¡
Ġluonddumeahcc i
G irjerÃ¡jus
M earkkaÅ¡upmi
R Ã¡ÄĳÄĳ
Ġb Ã¡dd
Ã¡n iin
Ġn uoskk
ut kama
Ġe konomÃ¡laÅ¡
Ġbo tta
uovll uide
ans kovvi
ĠlÃ¡v ki
ĠÃ¡rvalus as
ĠRuvdnapr insa
Ġolggob eallÃ¡i
Ġn g
ĠO ulu
Ġ4 13
pr oposi
ĠW oll
ĠsÃ¡megiel oahpahus
ĠvuoÄĳÄĳud uvvÃ¡
ĠGuo kte
age mÃ¡nu
ĠduoÄĳaÅ¡t us
Ġbiss u
Ġbagad allan
ĠberoÅ¡tumiid e
OAH PA
8 3
mi Å¡uvdna
Ġm Ã¡r
me ri
di a
ui tte
kte r
ko la
kÄį amÃ¡nu
ĠDo kumeanttat
ret nes
Ġvah Ã¡t
iriikk ain
Ġevttohus sii
ĠStuoradi ggi
ĠÄįÃ¡lling iela
ĠHet le
gg ii
Ġ1 12
os ta
ĠD OA
Ã¡meg uovllu
do m
Ġbarg od
ĠrÃ¡hkad uvvojit
ĠguolÃ¡st eami
ĠhÃ¡lddahus guovddÃ¡Å¡
Ġdahkk ojuvvui
Ġsird ojuvvon
Ġbel ohahkii
Ġfatn asiid
ĠbÃ¡hc Ã¡
orgÃ¡n aid
ĠTe Ã¡hter
Ġspesialis tadearvvaÅ¡vuoÄĳa
Ġsuopme laÅ¡
6 7
S Ã¡megillii
d ann
f idn
Ġmi ld
ĠO AH
ĠH ei
ĠH Ã¥
Ġma jor
Ġean ad
Ã¸ nd
Ġdoaibma bidj
ĠÃ¡rvvoÅ¡t allamiid
Ġoaivvil dii
Ġbiras gÃ¡htten
Ġkulturmuit olÃ¡ga
ĠdutkamuÅ¡ as
suo mag
Bargiid bellodaga
ĠOaidn Ã¡muÅ¡at
N U
g irji
k la
Ġg el
Ġ8 9
Ġgiela ide
oahpp oneavv
Ġorganis eret
ĠÃ¡dd en
ĠvuoÄĳÄĳud it
Ġ00 01
Ġadn on
ĠDÃ¡id dÃ¡r
ĠÃ¡igumuÅ¡ aid
serv odaga
B or
B oazodoalu
M er
c il
e ks
f to
Äį ear
Ġv Ã¡tt
ĠF itn
Ġt on
ĠvÃ¡r ri
he ter
Ġolgg uldas
ĠdÃ¡v ista
Ġkap ihtal
Ġviidd iduvvon
evttoh usaid
Ġmuitalus at
Ġ................................................................................................................................ ................
Ġsturr odat
Ġlotnolas ealÃ¡husaid
Ġvuotnaguovll uin
S B
g ren
Ġb ul
Ġea ska
mp Ã¡n
vu Ãµ
Å¡uvdn an
Ã¡nn Ã¡
Ġvealah eapmi
uÅ¡uvnn a
ĠDÃ¡r bu
Ġs udno
Ġdih t
Ġdi ggi
almm olaÅ¡
ĠGuo vtteg
Ġtu r
kommi Å¡uvnna
ĠSy nn
Ġiss or
ĠÃģ nne
ĠrÃ¡hkad eapmi
ĠAl las
ĠDÃ¡id da
ĠÃ¡rvvoÅ¡tall et
evttohus as
http s
doal ut
ĠbÃ¡lk Ã¡h
samisk hs
ĠhÃ¡rj Ã¡nan
ĠUN ESCO
ĠFal Ã¡stallan
kÃ¡bmag ovat
ĠWoll mann
id en
vuo hkÃ¡i
Ġn ja
Åĭ ga
ev ah
Ġoahpp Ã¡
ĠT retnes
ĠDÃ¡s seÃ¡rvu
Ġfylkkagieldd at
Ġlakt Ã¡s
Ġmiellahtu t
. ~~
B er
p edagog
er oh
ĠD earvvasvuoÄĳa
ĠL ap
Ġpr oposi
ob le
gas kkas
lan jas
ĠvuoÄĳÄĳ oj
Ġmo atti
Ġ12 5
Ġ198 2
Ġat ne
ĠÄįÃ¡llin go
ĠmeroÅ¡t allat
ĠGonagas laÅ¡
vÃ¡r ri
gol uid
Ġovdamearkk aid
oh pe
ÄĳÄĳ ui
ĠN ationÃ¡la
Ġovtt age
kkas uohkan
Ġorr on
ĠoaÄįÄį ut
Ġlasih a
Âļ Âļ
ĠvÃ¡id in
ond on
Ġsoai tt
Ġjeavdd alaÄįÄįat
r it
mm Ã¡s
Ġol geÅ¡
Ġgeavah usa
ĠÅ¡ Ã¡ll
sa ji
Ġjur dd
Ġmeahcc er
ĠjoÄĳih an
Ġduh kor
ĠMari ann
olmm oÅ¾in
g irjji
Ġv ihkk
ĠG Ã¡ldu
ĠjÃ¡hkk it
Ġdemokrat iija
Ġhell odagaid
> </
f ab
v ig
z e
ar y
ĠD av
to but
Ġol us
ĠhÃ¡l idit
ĠÃ¡rbev ierru
ĠÃģl gu
ĠbÃ¡l jo
Ġmedi ain
ĠlÃ¡vdego ttis
Ġohcc it
LL U
Ġveahka vÃ¡ldd
Ġalcces easet
Ġspiehk astit
ĠdÃ¡ll odo
anti kv
f l
j Ã¡id
ah ehtt
it keahttÃ¡
Ġb Ã¡hkk
ih kÃ¡
Ã¡v is
Ġin dustriija
20 20
bbo laÄįÄįat
Ġguhkes Ã¡iggi
omear ka
Ġdefin ihtta
ĠDearvvaÅ¡vuoÄĳa Ã¡Å¡Å¡it
Ġmuohtt aga
A ikio
p u
v el
× Ĳ
at ive
it ii
is tta
ĠN ie
ĠN juolggadusat
all en
ĠR ef
Ãģ ÅłÅł
ĠF oan
Ġoa pp
barg at
ere miin
Ã¡hte ra
Ġgeass et
lÃ¡g Ã¡dus
Ġrea idduid
ĠvÃ¡rre presideanta
eabb on
ĠsÃ¡mediggevÃ¡l gga
fon dii
: +
S ED
b Ã¡za
h ea
h Ã¡mi
h ei
u mat
ĠD is
ig iela
na laÅ¡
Ġohc amat
ten s
ĠieÅ¡g u
Ġlog us
ĠvÃ¡st Ã¡dusaid
Ġmielddis buvtt
ning s
Ġ.... ..
gos ervodat
Ġgaskamear Ã¡laÅ¡
g uorah
at kkas
am bbo
Ġe p
ĠSÃ¡mi rÃ¡ÄĳÄĳi
ĠvÃ¡r a
kat iiva
Ġbuot lÃ¡gan
Â¹ Â¹
ĠeamiÃ¡lbmog in
ĠÃģrvv oÅ¡t
Äįa Äĳ
b ui
£ {
ah uvvojit
ar at
ĠÄį u
Ġgal l
Ġriikk alaÅ¡
ĠÄįielggad eapmi
app or
Ġnanne mis
Ġso itet
iil lat
Boazodoall u
ĠrÃ¡ÄĳÄĳe lahttu
ĠÄĮÃ¡l goservodat
}Â £{
L iÅĭkkat
m and
Ġj Ã¡pmi
gg o
ĠÄį an
od Ã¡rkkist
ÄįÄį an
ĠO tn
ala Âª
agea tnegas
ĠorganisaÅ¡uvnn a
gea t
aguovll uid
por t
ĠStat skog
ĠInstit uhtta
ĠriikkarÃ¡j iid
en tii
eg uovl
SÃ¡medi kke
ĠlÃ¡g iduvvon
Ġ13 0
Äįuo v
vuoÄĳÄĳ un
ĠÄįovd osa
ĠjoÄĳ Ã¡n
ĠparagrÃ¡ fa
ĠeksÃ¡me n
f acebook
Ã¡ Äĳ
kki mis
Ã¡dd ejumi
Ġoahpah eami
Ġvearr od
ĠvÃ¡lljej uvvo
ÄįÃ¡l lag
Ġstruktu vra
gieldd at
Ġeahpes ihkkar
s earvvi
Ġm y
Ġb oa
od h
ĠF Ã¡ga
lan ka
add an
ĠDavv in
lÃ¡g i
ĠDÃ¡s seÃ¡rv
j ie
l Ã¡hkii
in t
Ġb ol
uh eaddji
Ġf re
Ġbarg on
uÄĳ iid
Ã¡hta in
Ġdea t
jes te
bÃ¡lvalus sii
ĠvÃ¡st id
ĠÃ¡rbevier u
skov i
ostuo llu
ĠLangu age
h Ã¡stalus
Ġ __
Ã¡ bba
Ã¡l mas
me tti
Ġ1 19
oj a
par t
ĠH ealth
Ġkultuvrra laÄįÄįat
mu ddui
Ġjahk edieÄĳÃ¡husa
Ġ11 7
ĠoassÃ¡la stet
Ġba chelor
ĠgÃ¡vnn aha
Ġaktii va
ĠUnivers itehta
ĠrÃ¡ÄĳÄĳÃ¡d allamiid
ĠGir kon
Ruo ktot
ĠStuoradi kki
antikv Ã¡ra
Ġv Ã¡ikk
Ġf arggamusat
ĠA in
Ãģ irras
Ġfr om
Ġadn ojuvvojit
vÃ¡r Ã¡s
ĠMin erÃ¡la
Ġdoal ut
Ġhttp s
ĠÃ¡immah uÅ¡Å¡
ÏĢÏĢ a
ĠEami Ã¡lbmot
ĠKlemet sen
ĠHÃ¡stalus at
ĠHels inki
) -
a miidda
j uvvo
Ġ Ã¡vdn
Ġd ei
Ġr ud
ut iinn
ĠG re
ĠÄįuo ig
Ġsuohkan laÅ¡
ĠmÃ¡nÃ¡idgÃ¡r dÃ¡i
eavah eapmi
loh pi
Go vv
Ġkap itÃ¡la
Ġdovdd uid
98 70
ĠÃ¡lgoÃ¡lbmog in
Ġneahttasiid duin
b ohcc
e dettiin
s g
ĠR uÄĳat
ĠA nna
ĠJ uh
Ġoll en
Ġdoarj agiin
ĠvÃ¡r ret
Ġgol lan
Ġlog ij
departemen ta
199 4
SÃ¡me Ã¡lbmot
Ġ40 3
mear ka
Ġgeatnegas vuoÄĳa
Ġ196 6
Ġalmmuh ii
Â¤ Â¤
ĠkÃ¡s us
M M
u e
ĠS P
ĠG ii
ĠÃ¡ gga
vuoigat vuoÄĳas
Ġheiveh eami
ĠcealkÃ¡muÅ¡ at
organisaÅ¡uvnn aiguin
gr am
Ġjienastus logus
ĠjÃ¡hk ehahtti
g eahÄį
i ba
ĠO S
Å¡Å¡ a
Ġ10 8
Ġ12 3
amÃ¡n n
Ġre latii
ĠNord land
ĠbajÃ¡s do
Ean adoall
ĠÄįÃ¡z Ã¡dat
ĠberoÅ¡t it
Ġartihkkal iid
Ġdaddj on
ĠGoa ppaÅ¡
Ġ tii
Ġlea me
me ld
aÅ¡ iehtadusa
tu r
ĠO V
ĠF estivÃ¡la
Ġrievdad eapmi
ĠruÄĳ ain
Vuo igat
Ġmudd en
ĠdÃ¡iddÃ¡r iid
Ġnan osm
ĠDÃ¡b Ã¡laÄįÄįat
ĠNA ÄĮ
ĠgoappaÅ¡ iid
Ġsom Ã¡
ĠVuoigat vuohta
yh Ã¤
ie w
ĠD oa
ĠM EAR
ĠR et
Ã¡ldd e
tta k
Ġbea llÃ¡i
Ġdoarj agis
dj in
mÃ¡n ni
Ġjuollud ii
Ġovddast uvvon
Ġboht osa
Ġ37 9
Äįiel ggadus
progrÃ¡ mmat
ĠfÃ¡gas uorggis
ĠsÃ¡vv Ã¡
G E
d iid
n am
v et
id ent
ĠS Ã¸r
oh ta
Ġgeavah eddjiide
ter ejuvvon
ĠÄĮ Ã¡j
ĠsÃ¡medi kkit
ĠC an
Ġsihkkarast ojuvvot
ĠÄįoahkk Ã¡ig
vuovd i
ĠUnjÃ¡r ggas
ĠMikkel sen
Ġkulturvies uid
ipmÃ¡r dus
allann juolggadusat
Ã¤ns man
8 4
H istorjÃ¡
d ea
Ġo p
Ġr us
ĠB assi
ÄĮ uo
Ġbivd e
eddj iiguin
ode partemeanttas
ĠjÃ¡v k
ĠdikÅ¡ ut
Ġ36 5
ĠVÃ¡r re
tere ma
anvejolaÅ¡ vuoÄĳaid
ĠVal keapÃ¤Ã¤
poas tta
6 1
h ke
tt ii
te miid
ĠS ven
ol or
bb ot
Ġa pp
ĠmÃ¡n Ã¡s
Ġbea tn
Ġgull e
ĠVuo sttas
ĠEr land
vÃ¡l ga
Ġolgor iikkas
angaska omiid
uw o
Ġnuorta laÄįÄįaid
outu be
sc ri
f idnu
j da
ĠS am
Ġr iik
ĠO dd
Ġovdd emus
ĠsÃ¡megiela gat
Ġal ddis
Ġor t
Ġkon tr
Ġloh kama
oahkki mis
Ã¡sahus aide
Ġbis m
Ġbuvttad eapmÃ¡i
Ġvuos teh
ĠÃ¡vkkÃ¡st allama
ĠlÃ¡hk ii
mann i
Ġolgor iikka
Ġtr ans
Ã¡jeh a
Ġdohkk et
Ġvirgel obi
Ġdiehtt elas
ediv Å¡Å¡
b und
t us
ag il
ean ttas
ob Ã¡l
ĠPr oposiÅ¡uvnnat
ĠgaÅ¾ald ahkii
dil it
oass in
Ġnie ida
Ġaren at
beaiv Ã¡i
ĠGiehtar uohttasa
B oaz
G ol
g Ã¥
o al
en di
ad uo
je lli
Ġh uma
ĠM el
ĠO md
ji vuoÄĳa
bb u
ĠÃ¡r valan
Ġpr ente
ĠÄįuo j
Ġmo vtt
ĠdakkÃ¡r at
ĠdÃ¡v istit
Ã¡hÄį it
Ġboraspir et
ajagi mÃ¡nu
ĠÄĮÃ¡ll in
En ter
doahp aga
Ġs inguin
Ġea stad
ĠG Ã¡
Ãģ s
Ġoahpp is
Ġgiella njuolggadusat
Ġunn i
ÄįÃ¡ll iid
ĠmÃ¡Åĭgga kultuvrralaÅ¡
Ġ197 6
ĠDoarjja ohcan
Ġoaiv egÃ¡v
ĠÃĺ st
Ġbuohcc iv
Ġhu pm
ĠS eminÃ¡ra
ĠrÃ¡ di
Ġgas kar
ĠÃ¡rvv olaÅ¡
ko ar
Ġnupp iid
ortneg iin
Ġluo Äĳi
ĠruÄĳ alaÅ¡
Ġmeahc i
Or tnega
Ġdoahp agat
ĠOll islaÅ¡
fol ket
1 01
D eanu
K o
o Å¾Å¾
s Ã¡httet
t and
la gat
Ġs emant
it iiva
Ġr uovd
ĠO arjel
oah tta
hta laÅ¡
ieÄĳ Ã¡husa
Ġde partemeanttas
mat eriÃ¡las
ĠvÃ¡l g
Ã¡vdn ojit
ĠÄįielggad uvvon
Ġjul ggaÅ¡tusa
Ġom rÃ¥der
Oahp aheaddji
ĠBargiid bellodat
orgÃ¡n at
B earj
¬ ģ
ĠÄį oahkking
ahus as
ĠV Ã¡s
ud eapmi
ĠvuoÄĳÄĳ od
ere mat
Ġoroh agaid
juo gus
boah tin
Ġbuol vvas
ĠvÃ¡ikkuhangaskaoa pme
P lÃ¡n
l Ã¡dd
at a
Ġmat eriÃ¡las
bi bliotehka
Ġmearrid eaddjin
Ġbid ja
ĠU l
Ġ10 5
ĠbÃ¡ikk iid
Ġrievdad an
Ġstiv rras
Ġservodat eallimii
ĠbajÃ¡s Å¡add
ĠdilÃ¡laÅ¡ vuoÄĳat
ĠÃ¡kk aid
S V
di mmi
ĠL Ã¡id
ri a
Ġguorah allÃ¡
ĠdÃ¡iddÃ¡r iidda
ĠKrist usa
istar ii
ĠBa kken
ĠÄĮoahkk etabealla
G i
b at
o llu
it in
Ġr ab
vtt e
Ã¡d as
Ġmaid dÃ¡
ĠÃ¡r ra
Ġpr insihppa
nj uol
ĠPr esideanta
Åĭg als
Ġgeatneg ahttojuvvon
Ġmuital uvvo
Ġteavstt ain
Ġgirjji in
Ġteor ehtalaÅ¡
ovttad aga
ike us
Ġfys alaÅ¡
ĠGuovd ageidnui
ĠÄįuh cet
s ir
s Ã¡dd
v Ã¡zz
Ġl it
rr aide
go Äĳii
ĠNor th
barg ojoavkku
oahpp an
Ġbiddj ojit
ĠlassÃ¡n eami
ĠboarrÃ¡s at
ĠinformÃ¡n ttain
VÃ¡r re
ovdan bukt
Ġbio divers
Ġhoa vva
h Ã¡miid
i as
id un
ej agi
ĠL ondon
Ġovddas guvlui
ĠealÃ¡hus eallima
199 3
vi Äĳe
Ġstud eantta
Ç© Ç©
ĠmieÄĳih it
doal uin
ieÅ¾ aset
G uh
l ohka
l Ã¡vdegoddÃ¡i
Ã Ĳ
la mentÃ¡ralaÅ¡
er ii
uh Ã¡lddaÅ¡an
oh uks
ĠM agnhild
uoh kkÃ¡
eal lat
ĠL Ã¡v
ne bakk
Ġadd in
SÃ¡mi t
Ġvuor uha
sta gram
Ġdovd an
eatna miidda
Ġmielddisbukt it
ĠgiellaguovddÃ¡Å¾ a
VÃ¡r jjat
Ġbargov ugiid
ĠRes earch
Äį oahkk
di llÃ¡i
ĠR Ã¡dd
ĠrÃ¡ m
ov ss
Ġ0 50
ĠVuo ll
Ġfil mma
Ġbuol vvaid
ĠgÃ¡vpog iin
Ġduodj Ã¡i
Ġheitt ot
D ut
Ġj er
ĠS ig
or y
Ġf it
Ġoahp is
Ġbo astt
ĠAn ton
ĠÃ¡lggah uvvojit
ni c
ver b
Ġvearr o
Ġkruvnn uin
Ġed tja
stipean da
ĠfÃ¡tmm astit
i ÅĭÅĭ
t oduo
ar eÃ¡la
Ã¡l u
eh ken
Ã¡la ÄįÄįaid
ĠV UO
Ġdie htun
earvv is
ĠealÃ¡hus Å¡iehtadus
Ġloh ka
ĠÄįÃ¡jeh ii
ĠÄįÃ¡jeh uvvo
ĠvÃ¡ttis vuohta
Ãµ s
ĠnÃ¡ vdd
ĠgalggaÅ¡ e
ĠhÃ¡bme mis
Ovd al
Ġjuks an
Ġbeakt il
Mearr Ã¡dus
Ġeahpes ihkar
SÃ¡ B
immi t
ĠsÃ¡htÃ¡Å¡ edje
Mihtt omearri
M ann
v nn
Ġs y
................................................................ ................
Ġmin isttar
Ġpros eanttain
ĠOl geÅ¡
ĠTr osten
kr iv
Ġloahpah uvvo
asvÃ¡st Ã¡dus
Muh tun
ĠOvdamear kan
Â·Â·Â·Â· Â·Â·Â·Â·
Ġindiv iduÃ¡la
N juolggadusat
f Ã¡rr
m Ã¡htt
de fin
Ãģ h
Ġbarg oh
jes tehta
Ġluo ikk
dal ii
Ġdav Ã¡s
Ġguovttegielat vuoÄĳa
ĠHeai kka
h Ã¡ldd
Ã¡ k
gg Ã¡s
ĠsÃ¡megiela ide
ĠealÃ¡hus ovddideami
Ġbu vtta
Ġ27 2
ĠmÃ¡t ki
Ġlullis Ã¡megillii
uolÃ¡stus lÃ¡vdegotti
Ġjoatkkaskuvlla id
ĠguoÄĳ oh
ĠDuodje instit
u ige
Ġb Ã¡Åĭ
ĠS el
ĠS Ã¡v
Ġf un
ĠM anne
Ġe urohp
ĠA g
Ġie Âª
Ġjo urnal
ĠhÃ¡l ida
ĠRom s
ark iv
Ġrahp Ã¡
ĠhÃ¡rjeh allat
Ġhup met
ĠMaÅĭÅĭ il
konsul eanta
Ġ Ã¦
Ġg ah
Ġj uohki
Äĳ u
Äį ovd
Ġoahp Ã¡sn
ĠÃ¡ ÂªÂª
proÅ¡eavtt as
Ġparla men
Ġcealk agiid
fierpm Ã¡dat
Ġtabeal las
8 1
B eaivv
L og
l edje
p at
v onen
Ġg Ã¡s
st rategiija
ĠrÃ¡ Äĳis
mearr idan
Ġdievas laÅ¡
Oahp ut
rÃ¡ÄĳÄĳ Ã¡i
ĠVÃ¡l ga
ĠoÄĳ ast
ingu ist
Oll es
dd et
ih eapmi
ob Ã¡ikk
Ã¡dd Ã¡n
Ġkultuv rrain
ĠsÃ¡medi kkis
amuÅ¡ at
ĠÃģr v
Ġsihkkarast ima
ĠdÃ¡ss Ã¡Å¾ii
ĠsÃ¡r g
ĠIng vald
S G
Å¡ i
Ġd uvd
Ġg Ã¡ssa
Ġm Ã¡ht
Ġb Ã¥
oh Ã¡lddahusa
vdd aid
Ġguo i
Ã¡d again
ĠM yr
Ã¡g Ã¡n
eadd u
ĠrÃ¡ jit
ĠrÃ¡ dio
sa jiid
eas us
ĠduoÄĳ aÅ¡ta
ĠvuoÄĳÄĳud uvvo
Ġvuovd e
ĠDÃ¡l kkÃ¡dat
ĠOhc amat
kantu vrra
ĠsÃ¡v zz
ĠgÃ¡l v
ĠgohÄįÄį un
j Ã¡n
r uÄĳat
Ġm ar
ĠN O
Ġin tr
Å§ Å§
Ġceal kit
Ġdag uid
Ġoahpponeavv u
ĠÄįatn asa
Ġmuitalus as
ĠfÃ¡rr ejit
ĠvÃ¡sih usaid
Ġvuolg Ã¡n
ĠÃģig i
ĠOpp alaÅ¡
Ã¡hne mat
Ġgel dd
6 5
N OU
P P
T ips
Ġ ass
Ġm ah
Ġr ol
Ã¢ Ã¢
Ġsihkkar it
Ġ11 3
Ġ197 5
iess emÃ¡nu
Ar kiiva
ohpp iid
hÃ¡lddaÅ¡ eami
Guo ss
Ġmiellahtt un
earrÃ¡igeahÄįÄį u
ĠÄįoah k
ĠRo y
ĠJahk Ã¡i
ĠUr heim
ĠÃ¡rvohÃ¡hka ma
Ġjuovl laid
i mi
id eaddjin
Ġs oah
Ã¡s j
di men
ej in
Ġovtt aveardÃ¡saÅ¡
ĠsÃ¡me konvenÅ¡uvnna
rat iiva
gÃ¡d an
Ġgaska vuohta
ĠÄįielggad usa
199 2
Ġlo atna
vvi la
Ġvar as
Ġdivv ut
ĠDivttas vuonas
R ev
vv is
oa innu
ma ÅĭÅĭ
Ġvuo iggalaÅ¡
ĠR on
ĠR ep
ra kt
Ã¸ ve
gÃ¡r ged
iteh t
Ġvear ba
ĠsÃ¡tn er
Ġsiv a
Ġguovl o
ĠCh rist
ĠBi vd
Ġolmm oÅ¾in
Ġbearj adaga
* *
j al
Ġr ett
en d
og e
ej oh
Ġ3 17
Ġdah ke
ĠÃ¡ kkat
ĠU SA
Ġruo ssa
ĠÃ¡igu muÅ¡Å¡an
ib ut
Ġdag ah
ĠBarg ojoavkku
Ġeanan doallo
ĠvuoÄĳÄĳud uvvui
Ġgear gan
Ã¡ss Ã¡i
Ġeatn i
Ġdoal vut
Ġgirj Ã¡s
ĠMaÅĭÅĭ Ã¡
ĠBis tevaÅ¡
buoh cc
ĠFÃ¡les nuor
J ump
a ÃĢ
l ihk
Ġl ossa
je ld
ĠH eandar
ĠÃģ ja
ĠealÃ¡hus rÃ¡
ug iiguin
ado alu
Ġdievas m
Ġ24 6
lass in
In stagram
vÃ¡ld it
Ġvuoruh uvvot
Ġjoavkk uin
Ġgivss ideami
G Ã¡i
} âĢ°
Ġv ed
il de
oj agi
ĠN ielsen
ĠE EO
Ġgeavah edje
stt ar
nj Ã¡l
ĠhÃ¡liid ii
ĠSA M
Ġpasi eanttaid
Ġleav ga
Ġtelef on
}âĢ° {
P ar
j ahki
k ov
t witter
tt es
al mas
dd us
Ġn eahtas
Ġoahp uid
ĠR F
Ġmat eri
ĠH am
ĠsÃ¡megiela laÅ¡
Ġkon kret
olog iijas
Ġmus e
Ġdoaibmabij u
Ġbadje laÅ¡
bÃ¡lvalus aide
Ġbadjel is
ĠÄįakÄį amÃ¡nus
Ġruv ked
Ġerenom Ã¡Å¾it
Trom s
ĠGuv sÃ¡m
h uksen
Ġd Ã¡Å¾
Ġs ol
ĠS osiÃ¡la
ĠM ur
alla g
ĠO f
eren oamÃ¡Å¾it
tte e
ĠlÃ¡v ejit
Ã¡rvv oÅ¡tallan
ĠvÃ¡hne miin
ĠoassÃ¡last Ã¡
PR D
Ġeatnig iella
rustteg iid
Studean tas
. Â§
B D
Y outube
j in
s am
Ġb Ã¡b
on g
ll er
Ġn alde
ĠD C
ĠB aj
ktii vva
ovdd as
of f
Ġeallin vuogi
Ġjienast anl
Ġbuohtast ahttÃ¡
ĠÃ¡rvvus atn
Ġbuhcc iid
an e
ĠO assi
kon sear
Ġservodat surggiin
for um
ĠÄįilg ii
Ġsiskk Ã¡ld
Ġ30 9
bivd o
ĠsÃ¡tn eh
ĠÃģv jov
Ġveadje meahttun
J uohke
id is
ĠD ar
ĠD ien
ĠL otnolas
Ġar kit
val tn
Ġdoa vtt
ĠGuo vddÃ¡Å¾
ĠDuo jÃ¡r
Ġjuohk eha
Ġgaskkust an
KK A
uohtu miid
e laÅ¡
k osa
dd ii
eg uovllu
ast eaddjit
ĠguolÃ¡st eapmi
Ġun sub
Ġ197 2
vÃ¡ld in
ĠNuor talaÅ¡
Ġgolggot mÃ¡nus
Doaibma bidju
ĠBÃ¡i ken
ĠGiehtar uohtas
Ġkonson Ã¡nta
ĠÃĺr nebakk
scri be
Studeantas Ã¡gat
Ġunsub scribe
K rist
M U
S D
Ġs keÅĭ
gg ai
Ã¡r iin
ĠH ea
Ġjoh tti
Ġbie pmu
Ġdovdd a
Ġnama in
Ġjuogad uvvon
Äįoa kk
Ġdevd et
Ġkal eand
K ar
o z
s h
kk iiguin
ĠK app
gÃ¡r g
kuvlla id
bij uid
div at
ĠJuo s
Ġgoll omer
ĠAas rud
Ã¡r gga
Ġf Ã¡s
ol in
eh timmi
Ã¡g is
cc at
ĠÃ¡Å¡Å¡ ehas
Ġdeatt uhuvvon
Ġ11 6
ĠplÃ¡n ain
ys te
mer iid
ĠNu ppe
Ġ197 7
ago Äĳii
mann osaÅ¡
ggot mÃ¡nu
ĠDie vasÄįoahkkin
Ġstuorr Ã¡t
Ġnjuolgg o
ohÃ¡lddaÅ¡ eami
ĠKÃ¥ ven
K an
m Ã¡vss
p og
ot ok
Ã¡d allamat
Ġp etrole
ĠE lle
ĠSÃ¡mi kopiija
Ġdie id
Ã¡vdego ttiin
ti a
Ġsu last
Ġrievdad uvvot
Ġgeass i
Ġdul ka
eavstt aid
ĠÃ¡iras iidda
ĠbÃ¡ikego ttiin
Ġdass Ã¡i
Ġiskkad eami
Ġlon oh
Ã¨Ã¨ at
Fyl kk
ĠovttamielalaÅ¡ vuohta
F il
f ier
j agiin
Äį oah
Ġv o
ĠS tipeanda
el Ã¡hka
Ġal t
Ġt v
mÃ¡r kkus
Ġokt asa
ell iid
ĠdÃ¡b Ã¡la
Ġguovtt os
Ġmil it
ĠorganisaÅ¡uvnn aiguin
Ġceavz il
ĠnavigaÅ¡uvdnii Mana
ĠkonferÃ¡n ssa
Ġsisdollui Mana
ĠIs kkad
Ġohcamii Mana
ĠsÃ¡hkavuo ru
m ovt
Ġleat go
ss an
Ġjo dih
ri b
Ġ10 4
ĠolmmoÅ¡ vuoigatvuoÄĳa
Ġkr uvdn
Ġdutka miid
ĠsÃ¡dd ii
Ġduohta vuoÄĳa
Ġmieh ta
vuog is
ehket doalu
ĠhÃ¡v iid
Ġkur ssaid
vÃ¡l g
Ġbuohta las
Ġai vve
ÄĮÃ¡ll it
ĠÃ¡lbmotmeahcc i
ĠBon go
l Ã¥
o vtta
Ġl iik
ad Ã¡si
ol Ã¡vdegotti
iv Ã¡hta
pp is
pr esideantta
mÃ¡n Ã¡
SÃ¡mi s
Ġdoarjja ortnegat
ĠvuoÄĳÄĳud an
ovdÃ¡n eapmÃ¡i
Ġsearvv it
ĠÄįovd osat
Ġsullas a
irje las
suodjal eapmi
Ga Å¾aldat
oa ddi
uh te
Ã¡d jo
ĠR un
ur e
ĠT ea
Ġkultur gaskkust
ĠvuoÄĳÄĳ olÃ¡ga
met od
ĠAn ita
ĠgÃ¡r ged
Ġruovtt uin
ĠvuoÄĳÄĳo oahpahusa
Ean an
Ġ33 3
ĠmaÅĭÅĭel is
vÃ¡ldi ma
doal uid
Ġbargosaj it
vr ige
Lass in
Ġlangu age
B b
H TA
k aÅ¡
ĠS ervodat
Ġf ol
ĠN ations
ĠE O
ge mÃ¡nu
no un
ĠÄįÃ¡ ppa
Ġ17 7
osa ji
ĠJoh ttis
Ġ23 3
Ġis kk
ĠollaÅ¡ uhttima
ĠdikÅ¡ uma
Ġjoatkka oahpahusas
gir uÅ¡Å¡
ebÃ¡hp ir
J ohan
i lat
¢ ×
al en
el la
Ġguh tet
Ġ10 3
uhtt on
Äįoahkki miin
Sa misk
ĠnÃ¡vcc at
ĠdÃ¡vvir iid
Ġvies u
ĠvÃ¡ldog iellan
ĠEaktu n
Ġdolast allan
f Ã¡mus
w e
al ut
aÅ¡ edje
or ie
ĠD et
Ġde partemeanttain
Ġdavv iriikkaid
Ġduhta vaÄįÄįat
vÃ¡l do
ĠprogrÃ¡ mmaid
ĠguovttegielalaÅ¡ vuoÄĳa
ĠSte inar
ulbmi lat
ĠHÃ¡mm Ã¡rf
Ġ agis
id eamit
ad Ã¡rbb
ĠM uitt
uid da
ĠN jelli
ĠJ ens
ass a
ĠP yhÃ¤
sa la
Ġveah kke
ado kumean
gat a
Ġfylkk ain
Ġviidd ideapmi
bii re
Ġadn ojit
SS I
ĠohcamuÅ¡ aid
konsul ta
Ġleav gga
Ġoainnus m
ĠimaÅ¡ t
Ġvealta meahttun
ĠLÃ¡id ehus
6 8
b in
n ann
Ġs oga
ah uvvot
all ed
ĠL oahppa
Ġovddid emiin
pe ct
ĠbÃ¡l kkaÅ¡umi
Pr eass
Ê¹ m
ĠKar asjok
Ġvu vddiid
ĠRi ÄĳÄĳu
ĠIeÅ¡ guÄĳet
I LO
Ġ1 11
Ġoahpp amateriÃ¡la
iss ovaÅ¡
Ġ16 0
ortneg iidda
Ġ11 8
Äįuo vv
Ohc ejoga
Ġkur sa
Ġduoh tand
Ã¡tned uo
MÃ¡r et
j ahke
o lahusa
kt o
ĠÃ¡Å¡Å¡ el
Ġin di
Ã¡pme laÄįÄįain
kat te
ahtti miin
:: :
Ã¶ m
Ġ12 4
Ġdoaibm ahehtt
jj it
Ġ13 8
Ġ22 3
Ġeatna mis
ĠOl bm
ĠÃ¡rv os
ĠdÃ¡iddÃ¡r at
ĠfÃ¡r re
Ġluonddur esurssaid
Ġsisab oah
rapor ta
ĠBj Ã¸rn
ĠÄĮoahkki ma
Äįie kÄį
ĠKe kk
J es
tt Ã¡n
Ã¡r as
ll o
Ġr Ã¡t
ĠO lmm
ĠP al
ĠP ol
Ã¡Å¾ iin
Ġsis doalus
dj u
ĠlÃ¡g Ã¡dusat
ĠmaÅĭÅĭ on
ĠÄįaÄĳah eapmi
alis eret
Ġvuoll elis
dieÄĳ uide
ĠgeahÄį en
ĠStuor Ã¡mus
uos to
Ġsturr odaga
Ġvul os
fierpm Ã¡daga
ĠNjÃ¡vd Ã¡mis
g Ã¡ld
Ã¡v ri
Ġst Ã¡htii
Ġoahpp Ã¡i
ĠdÃ¡n s
ĠC ar
ĠC om
doaimm ahat
199 0
vuogÃ¡d ahkii
proseass aide
ĠReg ionÃ¡la
Ġruvdn ui
Ġgen er
eaktu n
ĠSÃ¡l toduo
C h
L ulli
S Ãģ
b Ã¡hc
Ġo ch
gg uid
ĠD ieht
eadd el
ht s
ĠÃ¡rvvoÅ¡t allamii
ĠGo almmÃ¡t
Ġjuollud usa
Ġmeannud uvvot
Ġgirk or
iht Ã¡t
Nu go
joh tolaga
Ġsi rret
ĠÃ¡igg un
Ġjearr Ã¡
Ġrekrutt erema
ĠmÃ¡ilmmis oaÄĳi
ĠfÃ¡ ktor
Ġvuotnaguovll uid
ĠBuoh kat
ĠKulturmuit os
Ġahtan uÅ¡Å¡
Ġbul vii
D DA
F r
O llu
r olla
Ġl ull
Ã¡h kÃ¡
on iid
oa d
ma kkÃ¡r
vuoÄĳ alaÅ¡
eal Ã¡sk
ill e
ĠIn ge
Ġ14 0
ĠbÃ¡l ggis
ĠplÃ¡n ema
ub stantii
Ġ28 9
Ġsihkkarast imii
progrÃ¡mma in
Ġbuo z
Ġnag ot
SÃ¡megiela t
guovl un
D USAT
j ear
o mi
ag ear
ul d
Ġoahp es
Ġmearr ar
pr of
ĠÄįÃ¡ll o
org Ã¡nan
ĠÄĮ oa
ĠPr ote
ĠdÃ¡hp Ã¡husas
ĠÃ¡rv o
doarj agat
Ġortneg ii
Ġeana eaiggÃ¡d
Ġlahtu in
Ġbel iide
Ġvuoruh uvvojit
Ġdal Ã¡n
Ġjuhkk ojuvvo
ĠohcamuÅ¡ a
Siid u
eahkk Ã¡i
b ehtet
Ġd ar
Ġs uvd
Ġb Ã¡idn
el es
ĠG iela
Ã¡v Å¾Å¾
ĠJ ur
ĠÃ¡rvv oÅ¡
ĠealÃ¡hus ovddideapmÃ¡i
ĠmearkkaÅ¡ umis
ĠgeahÄį adan
Ġmielddisbukt Ã¡n
Ġregi ovnnalaÅ¡
Ġlihkost uvvat
VÃ¡rjj aga
E MI
ĠS VL
ĠR av
Ġskuvla jagi
Ġdoaibmabij uin
lohku i
organis aÅ¡uvdna
ĠÃ¥ vd
vla mÃ¡nu
Ġbeaiv er
ĠBer re
ĠieÅ¡hean alis
ĠfÃ¡pmu da
Meahcir Ã¡ÄĳÄĳehus
ĠBoazos Ã¡pmelaÄįÄįaid
r iid
Ġd uorastaga
ll et
di r
ĠÄįÃ¡ll osa
dÃ¡r bu
Ġduohta vuoÄĳas
Ġbel iin
ĠbÃ¡iken amm
Rom sa
âĪ« âĪ«
dig aÅ¡t
dÃ¡rbb aÅ¡
Ġoarje mÃ¡ilmmi
ĠRadi o
E l
S N
Å¡ edje
ĠM eahc
pp iin
Ġte m
Ġbiss ut
yr aid
Ġdokumean ttaid
Ġveh Ã¡
buvttad eami
Ġanalys eret
TrÃ¸nd elÃ¡gas
Ġmuor aid
Ġjotk ojuvvo
ĠKapp fjell
6 4
V Ã¡st
d earvvaÅ¡
m ari
Ġd r
Ã¡i vÃ¡
ĠS ta
Ã¡t jÃ¡
ĠN amma
ĠB uhtadus
Ã¡ll jen
Ġoahpp amii
Ġnj uorat
Ġoa gg
ĠÃ¡sah a
iij ii
Ġos iide
Ġviidd es
ĠgÃ¡vd namis
Ġri kkis
ĠÄįÃ¡z iide
Ġjea gel
Ã¥d Ã¥
Ġfoan da
ĠvÃ¡nhe mat
Ġgirko eallima
Ġoinn ii
ĠdearvvaÅ¡vuoÄĳad oaimmah
ĠVar si
Ġdei ke
P olit
S ii
ad Ã¡l
ĠM ag
ĠG Ã¡ldd
ĠN aÅ¡unÃ¡la
ere keahtes
jj Ã¡laÄįÄįat
ĠgÃ¡r tet
ĠguolÃ¡st usa
Ġmann osaÅ¡
ĠNuor tasÃ¡mi
Ġmeahcceg uovlu
ĠorganisaÅ¡uvnn ain
ĠoahppoplÃ¡n ain
Ġeall Ã¡
vejolaÅ¡ vuoÄĳat
ĠSc an
ĠrÃ¡fÃ¡id ahttojuvvon
Ġbargoa ddi
E renoam
S I
j uhk
k Ã¤
n eg
v ran
Ġd all
vuo h
Ġn og
uh usaid
ej eaddjit
Ġe m
go z
ÄĮ a
ko mmun
log uin
ĠÄįilg ejit
Ġgeatneg ahtti
ĠsÃ¡dd ejuvvui
Ġ01 0
ĠÅ¡iehtad allamiin
ĠlÃ¡hkaÃ¡sahus ain
ĠÃ¡vv u
ahÃ¡lddaÅ¡ eapmi
Ġov cci
Ġstuorradigg edieÄĳÃ¡hus
ĠMearkkaÅ¡ umit
J UO
Ġb Ã¡htar
te dje
oa ÄĳÄĳ
Ġh ar
og iella
ĠL edje
ob sen
Ã¡dd Ã¡i
ĠvÃ¡ll jii
ĠStuorradi kkis
Ġna vdit
ĠrÃ¡ÄĳÄĳÃ¡d allat
evttohus sii
ĠÄĮÃ¡hc esull
E vttoh
Y llÃ¤s
p it
Ġb ot
vuo j
vuo st
ĠM od
ĠJoh tolat
Ġpers ovnna
mp er
ĠfÃ¡tt Ã¡in
serv odagas
ĠTor il
ĠvÃ¡lljej uvvojit
Ġdefin i
ĠbuÅ¡eahtt arÃ¡
ostiv rra
A s
E ar
T ab
d ost
e lahttu
Ä ı
is erejuvvon
Ġn ohkan
ad ii
ĠV is
Ġjo urn
Ġman ge
Ġadd ojuvvojit
ĠovdÃ¡n ahttimii
Ġjus ta
ola ga
Ġis kan
Ġmear us
Ġdorvv ast
instit uÅ¡uvnn
ted h
Ġbiehtt al
earvvuoÄĳ agat
Ġnjuov Å¾
P olitihkalaÅ¡
g ull
Ġg lob
Ġj uol
Ġj ierpm
ĠS Ã¡pmelaÅ¡
oahp uid
ĠÃ¡sah ii
Ġjoh tolagat
ĠÄįaÄĳah ii
oahpp o
ang eatnegas
Ġmusea ide
Ġeane but
ĠKrist us
Ġ97 1
ĠEanadoall u
Bar ents
Ġsohkabea lle
doll et
aluo ssa
I s
b ust
p Ã¡
Ġ kuvla
tt uin
ĠE lli
ev er
Ã¡Å¡Å¡ iiguin
Ġkultur guo
Ġeavtt uide
Ġboahtte Ã¡igi
Ġdii bmu
ĠrÃ¡v a
ohc amiid
Ġteavstt at
ĠDie kkÃ¡r
Ġcegg et
ĠOu lanka
Ġmeahccej ohtalus
B ritt
F O
d Ã¥
Ġn Ã¡l
Ġh Ã¡mit
Ġp u
Ġpr es
mis ka
Ġ19 40
Ġgiella geavaheami
ĠÄįaÄĳah eamis
Ġgoz ihan
gr Ã¡da
Ġipmir dan
Ġfatn asa
Ġ.... ...
ÄįÃ¡l laga
ĠieÅ¡mearridan vuoigatvuoÄĳa
Ġje kkiid
VÃ¡ikkuh it
Ġjoks at
ĠPost boks
B r
h olm
Ġd idjiide
Ġm ol
Ġ2 18
ol Ã¡vdegoddi
el t
kt is
Ġoahp ist
am os
par agrÃ¡
oÅ¡t allannjuolggadusat
Ġserv odagat
vuoigat vuoÄĳaide
Ġopp osi
Ġgeass es
16 9
ĠÄįoahkkin ortnegii
ĠsÃ¡tn el
ĠsÃ¡v ahahtti
Ġinfor maÅ¡uvdna
GA T
ĠvÃ¡sih a
ĠnjukÄį amÃ¡nus
Ġvirge oapmaha
ĠFinnmÃ¡rkkuopm odat
ĠInn ovaÅ¡uvdna
I jahis
f old
Ġj Ã¡mii
Ġm oai
ta k
vuo n
Ġf en
ĠN r
ohka m
ĠNuor tt
ĠVai kke
kÃ¡bma mÃ¡nu
aguovll uin
konferÃ¡n ssas
fitn odagat
vejolaÅ¡ vuoÄĳa
ĠPe ter
ĠEanadoall o
Ġnjuolgg odo
Ġbohccobier ggu
ebie bman
M Ã¡
v atn
Å¡ il
in ter
Ġb iila
vuo dji
Ġn ew
ĠD ehÃ¡laÅ¡
ĠD iehtojuohkin
mm Ã¡
oj uvv
Ġ( Â§
guo ski
ĠbÃ¡i ke
Ġmeannud uvvon
Ġgil iid
âĢĻ .
lÃ¡ ja
buÅ¡eah ta
Ġdeattuh uvvojit
ĠBoaz o
Ġaren aid
ĠsÃ¡vv at
Ġpen Å¡uvdna
ĠbustÃ¡v aid
6 9
K IE
Ġh o
vdd iin
ĠR etter
Ġpr insih
ĠH uman
Ġferte jedje
bu kta
Ġun i
ĠVuor kÃ¡
ie t
gg Ã¡n
ĠL eav
Ġk lass
ĠJ ear
ri kul
Ġi j
Ġjoh tolaga
ĠguolÃ¡st it
Ġdieht Ã¡n
Ġjorgal eapmi
Ġregistr eret
Ġfatn asat
Os lo
ĠsÃ¤ mi
ĠScan pix
B uoh
vtt aid
na ma
Ġpr og
Ġ19 20
ĠÄįÃ¡ll osis
ĠFinnmÃ¡r k
Ġhuks emii
Ġoaivvil dan
Ġeam bb
fÃ¡g aid
Ġguolle bivddu
rea bbÃ¡
VÃ¡l ga
Ġjuoig an
VuollÃ¡i ÄįÃ¡llit
o kas
Ġ ........
Ġj uv
is et
Ġ2 16
Ġp at
ĠrÃ¡ fi
Ġbarg e
uvnn aid
ĠI N
Ġkultur politihka
dus t
Ġfuo bmÃ¡t
Ġsa me
Ġdi aloga
Ġmer ken
ber oÅ¡t
ĠVÃ¡r jj
Ġguohtu miid
ĠMÃ¡Åĭ ga
sea mma
Ġnammad uvvui
Ġdietn asa
Ġhom of
e te
Â ĳ
Ġd earvv
Ġl ok
ĠS Ã¡pmÃ¡i
ĠS kÃ¡bmagovat
ig i
ej oavku
oahp alaÅ¡
Ġean dalii
Ġc uo
ht ml
Ġveah kki
isevÃ¡ldd it
Ġjien aste
ĠmÃ¡il bmÃ¡i
Ġsuodjal uvvon
ĠlÃ¡hkaÃ¡sahus as
ĠEurohp a
ĠSÃģM EDI
M uit
e Ê¹
j uohke
Ġv allj
me l
eh iid
ej umiid
ĠG irjj
ĠN ic
ĠV er
ahtt e
Ġgeavah eaddjiid
add in
Ã¦ nn
Ġjuollud uvvojit
ihtt al
ĠhÃ¡lddahus sii
Ġmer ke
ĠÃ¡lg en
duo ÄĳaÅ¡t
ĠMÃ¡nÃ¡idgÃ¡r di
Ġpositii vvalaÄįÄįat
Ġgirjer Ã¡jus
Ġpsy hkalaÅ¡
Ġjoatk aÅ¡uvvÃ¡
kommi Å¡uvdna
kkan en
Organis aÅ¡uvdna
Ġgollomer oÅ¡t
d uide
Ġg Ã¡ttis
Ã¡g alaÅ¡
ĠG iel
ĠG ra
ĠO y
Ġk ar
Ġoahpp iide
ĠT el
Ġserv e
ri p
ovdd ideamis
Ġbiebm odepartemeantta
Ġfil mmaid
ĠmÃ¡rkan is
Ġdoal vu
Mar it
ING IRJI
Ġdakka viÄĳe
j un
l obi
r eivve
Ġg Ã¡dj
ah l
Ġf iinna
ĠA vvila
mean ttat
uol i
mus Ã¡j
Ġadd ot
Ġveah k
Ġrievdad eami
Ġguorah allamis
kur ssa
dÃ¡s si
Ġvi Å¡Å¡
evttoh usat
Ġnie idda
Ġtear pmaid
strateg iijaid
Ġkaleand ara
N isson
ah uvvui
Ġb ag
ĠA ust
ĠfÃ¡g aide
ĠgÃ¡vdn ot
ĠbÃ¡lvalus ain
Ġoroh again
ĠbÃ¡ kkolaÅ¡
ĠStuor a
Ġall odat
Ġvuoig Åĭ
ĠgÃ¡rvvist uvvon
- ...
> <
v allji
Ġ assi
Ã¡r b
Ġ2 12
Ġsuo dja
Ġsuohkan iiguin
ib id
amÃ¡n nu
Ġbie vla
Ġ24 9
ttu ur
Ġmear a
Ġno men
ovttas barggus
iil laid
ĠÄįÃ¡z i
Ġotn Ã¡Å¡
ĠÃ¡vv udit
Ġmet oda
mÃ¡ll iid
Ġgild ojuvvon
Ġsorjjas meahttun
ma a
el og
ej ohka
ean tan
ĠO rru
Ġdie d
barg un
ĠSt r
Ġoahpah eapmi
ĠvÃ¡l ggain
Ġ16 00
Ġdoaibm aguovlu
ĠstÃ¡ht arÃ¡ÄĳÄĳi
ĠOhc anvuÄĳot
ĠDuo ji
Ġparla mentar
Ġgeasse oroh
ĠnuppÃ¡st usat
ĠmeroÅ¡t allojuvvon
ervv iid
stta Å¾ettiin
joavkk uide
Ġbovd ejuvvon
uohtu mat
ĠGuovddÃ¡Å¡ bellodaga
ĠÄįÃ¡ppagirjj Ã¡laÅ¡vuoÄĳa
ÄĮuovv ovaÅ¡
g ul
l ii
n eh
Ġ !
Ġb al
el sen
ĠJ Ã¡hk
oahpah eaddjit
Ã¦ j
ĠPr oÅ¡eaktar
ĠollaÅ¡ uhttin
ĠvuoÄĳÄĳo ealÃ¡husain
ĠOhcej ohka
ĠboarrÃ¡s et
ĠHa akon
dilÃ¡laÅ¡ vuoÄĳat
ĠhÃ¡st al
Ġsmi ehtt
Ġoassev Ã¡ldi
Ġsystem Ã¡htalaÅ¡
S IID
f ik
ĠS Ã¡m
Ġf ul
ĠJ ie
Ġduo vdda
Ġi ja
ĠU iT
Ġjag Ã¡Å¡
Ġolgg obeal
ĠbÃ¡l kkÃ¡
iij aide
fer eansa
vrra iguin
Ġnisson olbmuide
gol tÃ¡s
Ġgirje ÄįÃ¡lli
Ġdokumean ttat
Suo mas
ĠThom as
Ohcan Ã¡igemearri
Ġsta aten
rif ts
Ġguovllust iv
B Ã¡l
K ultu
S KA
v ugiin
Ġb Ã¡tned
rr iin
guo ss
mÃ¡n Ã¡ide
ĠvÃ¡ld ot
Ġnam uha
Ġreg istar
Ġdoa la
Ġ198 3
vuoÄĳÄĳ ud
ĠÄįuogg Ã¡i
ĠbÃ¡ikego ttiide
ĠdavvisÃ¡megiela s
Ġrii kii
Ġsuokkar d
ĠjÃ¡p mÃ¡n
Ġmoan at
k iv
s Ã¡r
me d
ĠS ullii
ĠÄį uvvo
ĠD ag
ĠM Ã¡ilmmi
Ã¡laÅ¡ vuoÄĳas
Å¾Å¾ et
kka la
ĠI dja
ĠP h
Ġin fin
ĠvÃ¡st idedje
Ġeanan doalus
Ã¡rvv uid
ĠsÃ¡pmelaÄįÄį a
Ġbuol vva
ĠbearraÅ¡ is
olo kten
ĠMaÅĭÅĭ el
iipp at
Ġblo gga
Ã¡bba ÄįiekÄį
or ia
Ã¡g iid
ĠÃ¡r valit
Ġt ea
ĠdieÄĳ us
ĠvÃ¡ld od
sii va
Ġ15 6
emi iguin
Ġgoa bb
Ġsuor gi
Ġ196 5
Ġdoll ojuvvon
Ġinvestere miidda
ĠÄĮeavet jÃ¡vri
Ġak ade
c el
p ol
Ġ laÅ¡
et Ã¡hta
ĠD ivvun
ĠO an
Ġk i
ĠsÃ¡meg uovllu
guo skevaÅ¡
................................................................ ................................
Ġgu ÄĳÄĳ
ĠoassÃ¡la ste
ĠÄįoa ggan
ĠrÃ¡ÄĳÄĳehus as
Ġgeavahan plÃ¡na
undd ot
ĠON a
ĠdikÅ¡ u
Ġmuital eaddji
Ġkval itehtas
ĠÄįoahkk ebÃ¡i
arjel saemien
Ġrehken astit
ĠProÅ¡eavtt at
d ad
n er
Ġs ij
on or
vuo dat
00 00
eah kis
ĠA L
kka bealde
Ġdea vdde
Ġsiid daid
ĠvÃ¡ld in
ĠgÃ¡ib id
Ġru pmaÅ¡
Ġjoh tet
mer ihk
oaÄĳ eg
Ġvear a
Ġmedi at
vÃ¡r re
ĠÅ¡l Ã¡jaid
Ġkulturvies ut
ĠruoÅ¡Å¡ a
ProÅ¡eavtt at
T V
w Ã©
uo rras
dd aide
oh a
Ġp l
iv er
Ġkultuv rraid
ĠsÃ¡me konvenÅ¡uvdna
eb Ã¡ikk
Ġboazodoall olÃ¡hka
alis erejuvvon
Ġgi itit
ihtt Ã¡
ĠÃ¡lg u
Ġfitn at
ode partementii
dut kama
Ġgaskkust eami
Ruo Å§
198 9
Ġopm odaga
iinna laÅ¡
ĠArt ihkal
Davvis Ã¡megiella
ĠIss Ã¡t
Ġvuon ain
ĠVÃ¡rdo bÃ¡iki
f Ã¡tt
v ari
la stit
Ġg uimmiid
ag Ã¡v
Ġn ord
Ġk B
Ġean ageavah
ĠieÅ¡ vuoÄĳaid
eavtt u
Ġgeah n
ere mon
ĠÃ¡lbmog iin
ĠRuo vtt
ĠSon ja
Ġfil mmat
Ġintern Ã¡htas
atii vva
buvttad eapmi
ĠÃ¡hp ehis
vuoÏĢ a
ĠÃ¡rval uvvon
Ġjoav ko
Ġvurd ojuvvo
Ġobb alaÅ¡
ĠgiellalÃ¡v gun
Ġkilome htera
b ud
s in
Ġb iilla
ar in
Ġf Ã¡mu
Ãģ ID
Ġ3 30
ob er
barg ov
Ġoahpponeavv obuvttad
Ġkonven Å¡uvnnaid
ĠNuor tta
Ġmieh tan
organisaÅ¡uvnn a
Ġvuolggasa ji
lov en
Finn mark
Ġgeldd olaÅ¡
kk iide
Äį oavd
Ġr iggodagaid
Ã¡s ii
vuo Ã±
ĠÃ¡rbev ierr
loh kan
Ġdu ppal
Ġan u
oazodo alus
vik ling
ĠgÃ¡l vvuid
fitn odagaid
ĠinformÃ¡n ttaid
ĠÃ¡igg o
ĠPe oples
mols un
Ġvuodd un
Ġlihtt olÃ¡ig
b met
j ar
Ġb ass
go v
vah kku
Ġ9 50
ĠsÃ¡me skuvlla
Ġgol uide
Ol mmoÅ¡
ĠÃ¡lggah eami
oss odagas
ĠieÅ¡mearr ideapmi
ĠmÃ¡rkan fievrr
Ã© n
jahk Ã¡i
ĠkonferÃ¡n sa
ĠKal eandar
Kap ihtal
ministar iin
D I
S ihke
T I
e vttolaÅ¡
f oss
g uolÃ¡st
id ge
mi elas
Ġb Ã¡tne
on is
Ġp op
ean ddar
ĠR en
Ġdo v
ĠE avtt
om us
Ġbarg amin
ĠH al
Ġal metji
mus at
Ġoahpah eddjiin
Ġkon stru
Ġluondd ud
Ã¢ i
ĠguolÃ¡st eapmÃ¡i
Ã¯ eh
ĠÃ¡lg og
beal Ã¡t
muitt ut
div ÄįÄį
Ġadn ojuvvot
ĠbÃ¡iken ama
ĠÃ¡igumuÅ¡ a
Ġuhc imus
Ġgill Ã¡t
Muh tin
Ġvuoig Åĭa
ÄįoakkÃ¡ld at
ĠÅ¡ib ih
KÃ¡rÃ¡Å¡j ohka
ĠoÄĳÄĳaj agemÃ¡nu
ĠDearvvaÅ¡ vuohta
kego dde
Ġfylk agieldd
Ġvihkk ed
C eal
b ajÃ¡sgeass
d ot
Ġg Ã¡id
Ġg erg
ĠÄį iÅĭ
eah ppi
bb aÅ¡
Ġk g
ĠT KU
Ġ10 9
esur ssaide
oahpah eddjiid
ihk adan
Ġdi ktit
Ġdi fto
ĠlÃ¡hÄį Ã¡
Ġgulahallan dieÄĳuide
ĠbuÅ¡eahtta jagi
gea idnu
ĠfuomÃ¡Å¡ it
ohc ama
Ġrustteg at
Ġkulturmuitos uodjalus
obargg u
ĠMor ten
Ġmajor itehta
ĠMEAR RÃģ
Ġ ir
Å¡ at
Ã¡r ga
Ã¡d jÃ¡
ĠO d
ĠB Ã¡hÄį
ĠK ul
Ġde k
mearr ideapmi
St at
Ġsir dima
ark iija
ĠmÃ¡Åĭgg agielat
Ġfylkkagieldd aide
ĠmeroÅ¡t allojuvvo
jov n
Ġvuoigatvuo daid
ĠminerÃ¡la id
fjell et
Ġviess u
Ġgiel dit
Ġvuog it
ĠdÃ¡hk idit
perspektii vva
ĠsÃ¡i v
ĠÅ¡lÃ¡dd jivuoÄĳa
ovdamear kka
ĠRon ny
D el
h ehtt
o ks
tt ir
Ġm earkkat
dd ain
ta lai
ĠS ten
Ġn y
od al
kultu vrras
pr es
Ġkultur eallima
Ã¡vdego ttiid
add it
eaddj iiguin
of atn
Ġjuohk Ã¡n
ĠrÃ¡dj er
ĠKar l
Ġsi vdn
ĠMeahcc e
ĠSaj Ã¡dat
ĠieÅ¡mearridan vuoigatvuohta
ĠrÃ¡dje gielddat
Ġnjul ges
Ġvii mmat
Ã¡Åĭg u
E M
G ea
m Ã¡dd
r ag
te miin
Ã¡me t
vuoÄĳ ar
ĠR Ã¡hkad
jo ki
ĠÃ ł
Ġrapor teren
dil Ã¡laÅ¡vuoÄĳa
Ġoainn Ã¡n
ĠjurddaÅ¡ eami
Ġvuoigatvuo dal
Ġfatn asiidda
ĠGunn ar
jorg al
guovd asaÅ¡
Ġoall ugat
siskk obealde
b le
as kuvla
Ġb lÃ¡
Ġr omÃ¡n
Ġh earkk
de m
Ãģ lmm
ahus ain
Ġkon sear
Ġhuks ejuvvo
Ġvuost Ã¡last
ĠÄįielggad eamit
Ġlasih an
Ġpolit ihkk
ĠoaÄįÄįui met
Ġbell odaga
Ġoktiig ullevaÅ¡
ĠieÅ¡stiv r
Ġissor as
Ġdeat Ã¡laÅ¡
h Ã¡rrÃ¡i
s at
s er
s iida
Ġs te
Ã¡h nen
Ã¡r ri
oh tt
Ġsis av
ĠSt Ã¡ht
Ġjuollud eamit
Ġdu is
ĠÃģr bbolaÄįÄįat
beal is
Ġjuohk elÃ¡gan
Ġmudd et
mear it
Ġstruktu r
Ġsoj ahan
ĠlÃ¡mis olbmuid
ĠCeal kÃ¡muÅ¡
ĠEv alu
K E
b et
l ihttu
u a
v os
eah ket
pp at
ĠR ig
go va
Ġovtt ain
ĠP ett
ent re
Ġguol Ã¡s
Ġbiddj ui
ĠlÃ¡v ga
th ur
ĠOahpp i
dire kte
ĠÃ¡vÅ¾Å¾ uhus
ĠÄįÃ¡z iid
ĠGa Å¾aldat
Ġjurd aga
atii vvalaÅ¡
ihp a
ĠKle metti
ĠbÃ¡z ahusaid
mols uma
ĠUr ho
Ġund er
L u
L ullis
b ass
f Ã¡m
g ui
Ġr oa
ad iid
kan is
mean ttas
ĠK v
ĠT u
ob iid
pr insihppa
ĠÄįuj uhuvvon
ĠgÃ¡r tan
Ġgalgg alii
Ġgovv adÃ¡id
Ġdiv od
doarj jan
konven Å¡uvnnas
mear Ã¡laÅ¡
Ġfil bm
Ġsierr al
reg ori
ĠTh er
Ġproseass aide
ĠlÃ¡hÄįÄį ojuvvon
ĠdÃ¥ j
Ġoarjel sÃ¡mi
ĠEven Ã¡Å¡Å¡i
ĠfinnmÃ¡rkkul Ã¡ga
. !
E atn
E ami
k Ã¶
m earkkaid
p ear
ga lan
ĠH Ã¡l
Ġ% )
Ġnam uhan
Ã¡j Ã¡id
Ġear alÃ¡gan
Ġgaska vuoÄĳa
ĠgaÅ¾ald again
ĠieÅ¡mearr ideapmÃ¡i
ern sle
ĠFyl kka
Ã¦r ing
Ġsoahp at
ĠcuoÅĭomÃ¡n us
EDIG KIE
ĠmolsaÅ¡ u
Ġgeasuh eaddji
Ġspeal lan
ĠRasmus sen
D ig
m Ã¡htolaÅ¡
id in
uo dji
Ġd er
iid LÃ¡g
oa vttir
vtt at
all ojuvvui
rÃ¡ dio
ĠA c
Ġdil it
Ġmie Äĳ
Ġgeav adis
dÃ¡ fus
ĠOahpahus direktorÃ¡hta
Ġkur ssat
perspektii vvas
ĠgÃ¡dd Ã¡i
Ġriev ssat
Ġgea idnu
ear i
ĠM ikal
ĠO ss
rÃ¡ mma
tii va
kon stru
oahkki ma
Ġrievd at
ĠplÃ¡n emii
Ġjien aid
arÃ¡ Äĳi
lag iid
ĠOr ohat
Ġsuodjal eapmÃ¡i
hÃ¡lddaÅ¡ eamis
ĠÄįÃ¡j Ã¡husa
Ġvistt it
ĠÃ¡Å¡Å¡emeannud eami
Nj Ã¡vd
Ġkommun e
ĠoaivegÃ¡v pot
C I
G L
S O
Ġ âĪĴ
as aset
Ġgo ÄĳÄĳ
ĠÃ¡Å¡Å¡ Ã¡ig
ĠÄįuo vo
Ġovddid uvvui
ĠdÃ¡id de
Ġ18 7
ĠmÃ¡htt ui
Ġ14 9
ÄįÃ¡ll osa
ĠvÃ¡ldo mihtt
jÃ¡v rÃ¡i
ĠsÃ¡tn ejoÄĳiheaddji
obi rras
Ohc anvuÄĳot
ĠgÃ¡iddus oahpahusa
id us
Ġl ehpet
at laÅ¡
Ġb l
ĠJ org
ist ara
ĠNor ut
ĠÄįÃ¡ll osiid
Ġnamma dii
ĠmÃ¡il bmi
ĠÃ¡ss at
ĠÃ¡ss iin
Ġseaill uheapmi
teddj iiguin
ĠSaj os
Ġluondduv u
Ã§Ã§ at
form ul
Preass aguovddÃ¡Å¡
b ier
n aga
s ter
y d
Ġg regori
Ġja l
al menn
Ġr ukses
Ġn Ã¡v
es k
il o
Ġgea innuid
Ġguo ttuid
ean ttaide
iela id
ast allan
Ġmiel lahttu
ĠK Ã¡tjÃ¡
ahtt u
Ġohc amis
ĠDavv es
aÅ¡uvnn as
oaÄĳ is
ola r
mear kka
vuogÃ¡d agaid
ĠvÃ¡rre lahtu
ulbmil iid
ĠbÃ¡r dni
Ã¡mm an
Ġovdamearkk as
Ġturis ta
ĠOh ppiid
ĠgelbbolaÅ¡vuoÄĳ alo
Ġgregori Ã¡nalaÅ¡
M Ã¡ks
w eg
Äį ohkk
ĠS hop
aÅ¡ uvvan
vuo djin
or o
ĠSÃ¡medi kke
pp ar
Ġal koh
ĠÄįuovv ola
eahtt as
arÃ¡ ji
Ã° a
Ġsk eaÅĭ
ĠmÃ¡Åĭgg ain
vuor kk
ĠmeroÅ¡t allon
reg i
ĠnuortalaÅ¡ giela
iehk ast
Ġoaivi lat
perspektii va
ĠKal stad
ĠVuoigat vuoÄĳat
Ġrohk ad
Ġsorja vaÅ¡
Ãģlmm uk
c us
tt s
it ies
Äį u
vdd at
oj oh
eah ÄįÄįa
ĠB Ã¡tneduo
vll Ã¡
ĠJ uohk
arj agiid
Ġmearr as
Ġmin ister
Ġbur iin
Ġdoarjja ortnet
Ġbiddj ojuvvui
ĠÄįielggad uvvot
Ġrapor ttaid
Ġsird ojuvvojit
ĠvÃ¡id it
Ġoaiv ilis
ĠhÃ¡bme mii
Ġoss odagas
ĠGir je
ĠTrom ssas
bid jo
ĠfÃ¡ bmudahka
ĠSir i
dieÄĳÃ¡hus as
Ġby jjesfaamoe
Ġhedjon an
Ç§ Ç§
ĠdÃ¡rki lat
evel op
Ġnog ai
J uvvÃ¡
M iella
] :
k ing
Ġl ev
at vuloÅ¡
al in
ĠS ar
Ġ2 20
Ġvuo lle
Ġgo ik
Ġol jo
Å¾Å¾ a
ĠrÃ¡ mmas
sih kar
Ġheiveh uvvo
Ã° as
oavkk uid
Ġsiv at
ĠhÃ¡bme ma
ĠgiellaguovddÃ¡Å¾ iidda
Ġgidd agas
Nuor aid
gÃ¡rg Ã¡dus
L uosto
U R
i it
as iiguin
Ġb Ã¡rr
vd et
oh Ã¡hkan
un g
ĠdÃ¡l kas
eren oamÃ¡Å¡
Ġsu pmi
Ġgil iin
Ġoainn Ã¡t
ĠÃ¡rvalus at
ĠEr ohus
amus ea
Ġaren ain
Ġdivv un
Ġskov i
ĠÃģrvv oÅ¡tallan
boaÄĳ us
Ġjohto lagaid
B a
S Ã¡httÃ¡
m mes
s Ã¡gast
mi ll
ii sa
vd nj
ol oÅ¡
ĠE x
ĠL ohkan
ĠÃģ ill
ĠSt or
Ġmearrid uvvojit
ĠfÃ¡g ag
Ġmeannud uvvojit
Ġdu bme
Ġvuoll egis
ĠsÃ¡ht Ã¡n
tes ne
ĠjurddaÅ¡ a
ĠdÃ¡rkk uhuvvon
Ġjuogad eapmi
ÄĲ A
Ġmeh c
Ġboazos Ã¡pmelaÄįÄįaid
ĠseminÃ¡r as
ĠjÃ¡hk Ã¡n
Ġratifis eren
ĠolÃ¡mu ttus
Ġliig eg
×Ĳ ×
? âĢĿ
D ieÄĳut
d uÅ¡Å¡e
e me
t ra
ag oahtÃ¡n
ih tÃ¡
Ġf o
ĠB s
ĠI var
ÄĮ ilgehus
Ġoa ff
Ġbuor id
Ġovddid eamen
ĠbÃ¡ikk iide
ĠhÃ¡liid edje
Ġko mitea
Ġsk Ã¡hpp
ĠvuoÄĳÄĳo oahpahusas
IS BN
dih tii
Ġmatemat ihkka
ĠJuollud us
Ġrehketdoall odÃ¡rkkist
, ÂŃ
U iT
b oazodoalu
r eapp
ĠS osi
oh aga
st ruktuvrra
Ġoa ÄĳÄĳ
Ġar ti
ren om
ĠovdÃ¡n ahttimis
ĠÃ¡lbmog at
Ġluonddu turis
Ġre ere
kal ott
Ġdovdd astit
Ġfitn odagain
keh it
muitt uid
bÃ¡ikk iide
alÃ¡g iin
Ġhut kÃ¡i
alÃ¡n dda
Ġdiibm oj
Rievdad uvvon
Ġsohpp ojuvvon
IB MA
c l
h Ã¡mit
ad ni
Ġvuo rr
il Ã¤
ga las
Ġ4 17
Ã¡Å¡Å¡ iide
ĠF Ã¡ksa
Ġferte Å¡ii
vuoigat vuoÄĳain
olog ical
aÅ¡uvnn alaÅ¡
Ġresur san
Ġvir gÃ¡ib
Ġdoaimma i
ĠGu lahallan
yn dig
ova ÄįÄįat
ĠfÃ¡pmud us
Ġseks u
Ġgaskamear Ã¡laÄįÄįat
Ġkv ean
Ġboaitt obeal
y t
Ġd am
Ġv Ã¤
os ki
ĠD es
oai vvil
oai mmaide
ĠB Ã¥dÃ¥
Ġk ir
ĠÃ¡i cc
ĠH olm
kon se
Ã¸ m
ddj iide
ealÃ¡hus san
Ġdi Åĭ
ĠSa emiedigk
ĠhÃ¡stalus ain
Ġovddidan foanda
ĠDuo gÃ¡Å¡
Sa k
ĠOr tnet
ĠbearrÃ¡ig eahÄįu
SÃ¡medigger Ã¡
Ġstruktu vrra
mÃ¡nn Ã¡
Ġdes ign
tekn ologiija
ĠFinnmÃ¡rkkul Ã¡ga
Ġbargag oahtit
ĠjÃ¡h kkimis
rastt ideaddji
O a
i lan
l Ã¡vdegottis
p lan
v Ã¡rr
Å¡ ill
Ġj err
Ã¡r dni
os ne
Ġf ear
Ġgo vah
ss ah
ĠSÃ¡medi kkit
ĠO dne
ĠV Ã¡rr
Ġpr oble
cc e
Ġduo pmÃ¡r
ĠvÃ¡ld ojuvvui
jes ne
olog a
eiv eh
Ġbivd ui
emi ej
Ġ197 3
Ġvear u
Ġjorg alus
ĠKultur departemeanta
eavz ilis
ĠOvdd idan
ĠfÃ¡rr et
joavkk uin
Ġgielas et
ĠÄįÃ¡hc e
Ã°Ã° a
esen ter
ĠvÃ¡nhe miid
Ġlahk osiin
ĠsiskkÃ¡ld asat
F Ã¡ga
O V
R uvdnapr
f Ã¡
× ¢×
Ġ Ã¸
at r
at et
Ġo ad
kk uid
ĠN annet
ĠE at
pr op
gas kka
av ea
Ġdain n
ÄįÄįa iguin
ĠÃģr ja
ago ttis
duo g
vuor us
................................................ ...
Ġdoll ojuvvojit
ĠlÃ¡hkaÃ¡sahus at
ĠgÃ¡vp oga
ĠPe kka
Ġdutk iid
Ġnjuo vah
ĠOhcan Ã¡igemearri
Ġsmieh ttat
jeste bok
b Ã¡Åĭ
g jestebok
ĠS ubmi
Ġ2 14
ĠD ii
ĠA ss
Ġ5 19
ĠI eÅ¾as
Ġnj uor
ill ing
kat egor
bea vdeg
for d
Ġvir ggis
bÃ¡l ggis
Ġeahp ed
bÃ¡ikk Ã¡laÅ¡
ĠNj uol
Ġsuomag ielat
ĠSeamm Ã¡
oÅ¾ at
Duo ttar
ĠÃ¡rga beaivvis
Ovttas bargu
Guovdagea idnu
O ss
n ed
an en
Ġea Åĭgals
ih eami
eh ii
st on
Ġbo rra
ien as
Ġfylkk aid
ĠTr Ã¸nd
Ġbiss ehit
ĠUnivers itet
uopm an
---------------- ----------------
ĠmuÄĳ uid
O D
d ahkat
Ġj oga
Ġl es
ĠS up
Ã¡n ttat
Ġh il
Ġda Äĳe
mÃ¡r ku
iehta ga
ko e
Ġ11 4
Ġ11 5
Ġ14 5
Ġloahp par
Ġdihto mielalaÄįÄįat
Ġrahp at
.Â· .Â·
K ur
g Ã¡htt
t z
Ġ ivnn
Ġg ai
Ġl la
Ġl ista
Ġm assi
ag irji
Å¾ at
Ġh um
og nit
il da
Ġp ara
ÄĮ E
Ġgas k
kon en
ĠieÅ¡ vuoÄĳat
Ġjoh ka
Ġ12 8
ohp ui
dÃ¡r kk
Ġfievrr ed
ĠrÃ¡ÄĳÄĳÃ¡d allamat
aguovll ut
ĠPed er
ĠDas go
Ãģr ktalaÅ¡
ĠÄįuoÅ¾Å¾ ilit
ĠrÃ¡vis olbmot
Ġpen Å¡un
ĠdÃ¡lkkÃ¡datrievd amiid
ĠskeÅĭ ke
kalott folket
Ġb Ã¡v
Ã¡s aheami
Ġleat na
eap me
na mm
da la
ĠL ag
Ġa kkusat
ĠÃģ j
amuÅ¡ a
mer ihkÃ¡
Ġeaktu duvvon
Ġrievtt is
Ġmielddis buktet
fÃ¡g ain
Ġprinsihp alaÄįÄįat
ĠÅ¡iehtadus as
ĠriegÃ¡d ii
ĠKrist i
ĠorgÃ¡n aide
nuor at
Ġrev i
Ġservv iid
Ġinn ov
ĠdÃ¡ht ona
ĠEana vuovdin
I J
V est
d on
al uid
ear u
ĠM ann
ej eaddjin
ĠÃ¡l gi
kan din
Ġie âĦ¦
ĠH Ã¡liid
sa mi
uon as
Ġsu laid
Ġjahk er
kono mii
undd olaÅ¡
Ġadn ojuvvon
sÃ¡megiela s
astt ideaddji
Ġdeattuh uvvot
uoÅĭomÃ¡n u
ĠrÃ¡hkkan an
Ġbust Ã¡va
ĠÄįuovvul it
ĠMuhtu mat
E ira
g ru
j uohku
n al
Ġo ar
Ġv aÅ¡
ta gaid
ji j
Ġk e
ĠmÃ¡ tt
ab oaÄĳ
ĠlÃ¡g alaÅ¡
Ġreg ion
Ġbivd et
ĠmÃ¡ks Ã¡n
Ġovdamearkka dihte
Oahpp oneavv
Ãģr bev
Ġrekrutt eret
Ġgidd et
mar ks
ĠNjÃ¡vd Ã¡n
ĠgirjjÃ¡laÅ¡ vuhtii
Ãģlmmuk vÃ¡lljidum
N ett
U nn
g uohtun
j ui
k Ã¡ntu
r ev
ĠS tudean
ĠD uohta
ĠO vttast
ed uo
ĠK jell
Ġa j
ĠrÃ¡hkad ii
ĠvÃ¡rr es
Ġjuohk ehaÅ¡
birras ii
ĠdearvvaÅ¡ vuoÄĳ
ym n
ĠvuordÃ¡ muÅ¡aid
ĠrÃ¡vis olbmuide
ĠmaÅĭimus at
Ġgur ut
prinsihp a
Joh n
ĠMyr nes
gÃ¡rged eapmi
H US
g ain
l Ã¡jaid
ah ta
as k
ĠS kuvlla
ĠB ern
rÃ¡ jes
st Ã¸
Ġdoaibma plÃ¡nas
uks a
ĠC ommi
Ġruo ktu
ĠhÃ¡lddaÅ¡an orgÃ¡na
Ġan e
ĠÅ¡at tuid
ohk os
ĠhÃ¡stalus aide
Ġbuoh cci
Ġriikka viidosaÅ¡
gu ÏĢ
bÃ¡l kkaÅ¡upmi
irjer Ã¡j
ĠÃ¡rvvoÅ¡tall ojuvvon
~~ ~
ealÃ¡husa iguin
ĠbÃ¡hc et
Ġlakt Ã¡sit
anvejolaÅ¡ vuoÄĳat
ĠborramuÅ¡ a
ĠgÃ¡ld ut
ĠBo ine
ĠBir et
EDIG GI
ĠÃģn te
beall Ã¡saÅ¡
ĠOlmm Ã¡ivÃ¡
B A
B oah
ea kt
es ter
do vddu
ĠsÃ¡megiela giid
Ġ. /
jo dih
Ġ18 0
ihk us
olbm uiguin
ĠÃ¡lg aga
Ġet ihkalaÅ¡
meahtt umin
Ġ36 3
Ġvealah an
ĠÄįav ga
ĠvÃ¡ f
ĠmÃ¡ttas Ã¡megiela
Gu lahallan
br idge
ĠvuostÃ¡ivÃ¡ld in
mun en
ĠHelss egis
ĠÃ¡lgoÃ¡l ggus
ĠSihkkar astit
) ;
D alle
O M
R aporta
b Ã¡z
i mu
l oan
r iikka
w n
Ġ ten
Ġl isttu
Ã¡v nn
ĠL oh
go ar
Ġmat rikul
ĠT lf
Ġsuo idne
ĠrÃ¡hkad us
ĠC am
Ġfor um
ĠPr o
ĠbÃ¡l val
Ġruhta da
Ã¡pm Ã¡saÅ¡
ĠvÃ¡ldo Ã¡Å¡Å¡is
Ġdor ske
ĠDoarjja ortnega
ĠDoarjja oaÅ¾Å¾u
Ġad minist
Ġmot iv
ĠgÃ¡rÅ¾Å¾ idit
ĠBirasgÃ¡htten departemeantta
gaÅ¾ald agaid
ĠÄįoahkkan an
Ã¡iras at
F erte
id at
as p
ĠS und
rr Ã¡
ol dat
oÅ¡ is
Ãģ NA
st ohpu
ist Ã¡i
ĠP RO
Ġkultur suodjaleapmi
ivv odat
Ġvuor uhuvvo
Ġjuollud eami
Ġseamm alÃ¡dje
Ġdoaimma iguin
ĠbÃ¡lvalus aide
Ġeah ked
Ġeatn at
ĠsÃ¡v an
oll es
ango ddi
Die vasÄįoahkkin
Ã¡rtn it
ĠmÃ¡tkkoÅ¡t an
jur ddaÅ¡
Ġrefle kte
suomag illii
ÃģÅłÅł I
ĠSÃ¡ltoduo ddara
M ielddus
S tipeanda
b mii
j Ã¸r
Ġs udn
kk uin
Ã¡l is
ag uovllu
ma Åĭ
Ġh earv
il dit
alla skuvlla
ĠO m
ĠA ud
Ġdah kamuÅ¡
st ar
Ġal fab
Ġgiella mÃ¡htu
Ġ9 78
ehus at
Ã¡pme laÄįÄįaide
vuoigat vuhtii
laÄįÄį as
ug nes
mmi iguin
guovddÃ¡Å¾ iid
ĠMar tin
Ġeatna mii
ĠAr kiiva
Ġoidn ojit
Ġdoal uide
ĠÄįuoÄįÄį uhit
ĠÄįuoÄįÄį uha
Ġgozih a
EG IELLA
dÃ¡rbb uid
ĠNjÃ¡vd Ã¡ma
ĠBoar es
N org
g ej
Ġ Ã¡hkku
Ġj uohkima
Ġp a
ĠG elbbolaÅ¡
Ġst Ã¡da
ĠL Ã¤nsman
ĠJ ahke
Ġdie inna
Ġman a
ĠÃ¡rb e
Ġdavv ir
ĠvÃ¡st Ã¡dusat
ĠÄįÃ¡l ihit
Ġuh k
Ġveahkeh an
Ma gga
vuoÄĳal Ã¡hka
Ġunnimus tÃ¡
ĠbearraÅ¡ ii
edh ugnes
MÃ¡n Ã¡t
ĠgirjÃ¡i vuoÄĳa
dÃ¡rog illii
osaj iid
ĠRig mor
k valitehta
rr ii
Ã¡s iin
uh munen
pr o
Ã¡tt uid
Ġguh ki
proÅ¡eavtt ain
Ġeahp itkeahttÃ¡
ĠOvdd idit
dilÃ¡laÅ¡ vuohta
ĠEami Ã¡lbmogiid
ÄįoakkÃ¡ld aga
ĠNatur a
ĠSynn Ã¸ve
ĠDuojÃ¡r iid
ĠTher ese
G R
Ġo ver
in dustriija
Ġm Ã¡htus
ii pa
en es
Ġh us
ĠL iikkÃ¡
Ã¡p min
ĠÃ¡Å¡Å¡ eg
ĠÃ¡lbmot beaivvi
ib ehtet
Ġbivd in
Ã¦ re
Ġsird ojuvvui
ĠÄįÃ¡llin vuogi
ĠLuondd uhÃ¡lddaÅ¡an
ĠdieÄĳih eapmi
vejolaÅ¡ vuohta
Ġolgor iika
Ġguoskk ahit
H a
N o
j vv
uo kkanen
ar Ã¡hkad
Ġr utiinn
Ġgea va
am uÅ¡Å¡ii
ĠO Äĳas
Ġk od
Ġpr eass
Ġbo rrat
ann es
ĠovdÃ¡n ahttima
bea lle
Ã¡hp Ã¡husa
Ġdoaibm ar
ĠdÃ¡b Ã¡leamos
Ġresur ssaiguin
Ġbohcc uiguin
Ġboar ras
Ġunivers it
Ġluoh ti
ĠÄįÃ¡llin goddi
ĠÃ¡vÅ¾Å¾ uhan
ĠoÄĳ astus
gaÅ¾ald agat
ĠgÃ¡ld uid
ĠRii kas
DOA LLU
Ġboazodoll iid
ernsle tten
I pmil
N I
f eren
Ġs uh
Ġs uinna
as eamos
rÃ¡ Äĳ
guo ttut
min ologiija
Ġkultur birrasa
ĠÄĮ oahkkingirjji
le kt
and ling
Ġriikk at
Ġjuollud eapmi
ĠSa ami
Ġstuora digg
Ġnor me
Ġdoll et
ĠmÃ¡rkan a
Ġkapihtt alii
ĠboarrÃ¡s eamos
Ġmuitt uhit
ĠrÃ¡hkkan it
Ġvul ggii
anvejolaÅ¡ vuoÄĳa
Ġhe ter
ĠBerg en
ĠformÃ¡la laÄįÄįat
Ġradi o
Ġidentifis eret
Ġhehttehus san
vuoÄİ a
ĠkonvenÂª uvdn
geaÅ¾ il
fylkk agieldd
ĠNT B
M is
V VA
d et
d aide
p sy
ĠS oaÄĳeg
el o
rÃ¡ Äĳiin
Ġovdd ab
ĠJ ohkam
ĠH an
Ġ8 39
Ġin ten
Ġokt asaÄįÄįat
log i
Ġ17 51
oÅ¡ea ktan
ealla i
si Ã¡la
Ġgovv Ã¡dus
SÃ¡me politihka
Ġjuohk Ã¡sit
Ġnor ga
ĠnuppÃ¡st usaid
ĠnuppÃ¡st uhttit
ĠJo atkka
Ġgie vrras
fuo lahusa
astiv rii
anvejolaÅ¡ vuohta
ĠduojÃ¡r iid
Ġloss at
Ġs en
Ġr iska
mm o
ed in
ĠR Ã¸r
Ġbi bliote
st Ã¡n
ĠH eahttÃ¡
uÄĳ ain
ĠÄįuo z
stt aid
Ġbaj idit
adit ional
ĠlÃ¡v lla
SA M
Ġkom men
ĠsÃ¡medigge presideanta
Ġoahppog irjjiid
jien astus
olmm Ã¡i
Ġvuodj it
Ġj Ã¡hku
on te
vtt Ã¡laÅ¡
Ġde partemeanttaid
ĠlÃ¡g aide
ĠbÃ¡l gÃ¡
Ġkr isttalaÅ¡
Ġkr Ã¥v
Ġdii bmÃ¡
ment s
ĠOl gg
vear bbat
kultur guovddÃ¡Å¡
ihp u
ĠgÃ¡rÅ¾Å¾ es
ĠoÄĳÄĳajagi mÃ¡nus
Ġvies us
ĠguoÄĳ ohan
ĠÂª add
ĠÄįoahkkan it
Ġsystem Ã¡htalaÄįÄįat
boht osiid
ĠRiikkas earvvi
ĠLas Ã¡hus
Ġton na
ĠlaktÃ¡s eaddji
ĠMikal sen
V E
uo ahp
Ġv an
is illa
Ã¡me n
Ã¡s san
ĠD en
Ġguo li
ahus fuolahus
Ġkultu rÃ¡dd
guo vtt
ann juolggadusaid
ĠrÃ¡hkad eamis
Ġ15 4
Ġsihkkar is
Ġte rrit
Ġbie pm
Ġse il
Ġdig it
Ġpolit iija
eavstt at
Ġsuodjal usa
suor ggit
gÃ¡ib Ã¡dusaid
ĠAs lak
Ġvuog Ã¡id
Ovttas barg
ĠÄĮuovv olit
Mus ea
ĠHÃ¡lddahus laÅ¡
Ġnegatii vvalaÅ¡
Ġprente juvvon
tt arg
ar ne
Ġn atur
ĠÄį Ã¡hppes
Ġguo ddit
Ã¡Å¡ edje
Ġk op
ĠI r
ĠP sy
pr og
ĠÄįuo Äĳi
Ġdil iide
Ã¢ d
SÃ¡medikki in
ĠvÃ¡ttis vuohtan
Ġguorah alan
ies kat
ĠmÃ¡htu id
edieÄĳ ut
ĠrÃ¡vv en
Ġbagad usa
Ġjoht alus
jul ev
Ġordn et
Ã¡rtn i
Ġnuortas Ã¡mit
Ġsubj eakta
Ġluonddumeahc is
Ġleg iti
goltÃ¡s Ã¡mit
D aid
i kka
ea rra
Ã¡l us
Ġr uohttas
di vv
ss ii
ĠM A
ĠG un
inn jÃ¡
Ġjuo gal
Ġsis kkabealde
Ġkon ferean
ĠrÃ¡ÄĳÄĳ Ã¡i
ĠsÃ¡me s
Ġhea itit
Ġbiebm u
Ġgaskk amu
ĠOr tnega
Ġseaill uhan
Ġjor gg
Ġsoai tte
ĠSA EMI
ĠbÃ¡gg olon
Ġkrit ihkalaÅ¡
vÃ¡ttis vuoÄĳat
Ġnieidd at
Ġsyn t
ĠUnn it
Ġvih tan
Ġdir ektii
Mer oÅ¡tallannjuolggadusat
ident itehta
otok olla
weg ian
O P
S kriv
Ġ _________________
us o
Å¾ iid
Ġvuo htt
arg Åĭ
pr onomen
ĠmÃ¡nÃ¡id suodjalusa
Ġkultur lÃ¡vdegoddi
log uid
ĠRuo Âº
ĠPr of
iij an
kes kus
Ġvir gÃ¡d
ĠÃ¡dd ejit
Ġvah Ã¡ga
Ġdoarjj astivrra
ĠsÃ¡tn ev
ĠEalÃ¡hus gÃ¡rgedeapmi
konferÃ¡n sii
Ġdoaimmah uvvo
Ġriid duid
Ġgulaskudda mis
ĠrÃ¡ves olbmuid
Ġgaskaoa pmin
ÄĮOAHKK INGIRJI
J ien
N D
v un
Ġl Ã¡hkan
il ingu
ĠE ria
ĠL ill
ĠJ Ã¡v
Ġde partementii
Ã¡hk is
Ġc eahki
ĠÃ¡ig eguovd
ĠealÃ¡hus eallin
................................................................ ................................................
ap e
ĠgÃ¡ib ideaddji
ĠdÃ¡rbbaÅ¡ laÄįÄįat
Ġboazodoall of
Ġopp an
Ġeanan gottis
Oahp ah
Barg at
Ġlo atnas
Ġjulev sÃ¡megiella
Ġno aid
buÅ¡eah tas
bidj an
Ġguohtun eatnamiid
Ġsor jÃ¡
ovttad at
ĠÄįÃ¡jÃ¡hus aide
Ã¡jeh it
ĠÃ¡rga beaivvi
lleg iella
ben h
B uÅ¡
G Äį
S U
S SA
c y
t he
Ġv ierr
ĠS Ã¡htÃ¡t
Ġvuo ÏĢ
Ã¡v l
ĠL EA
Ġol gol
Ã¡vd a
Ã¡dd ejupmi
Ã¡lbmog iin
log ut
Ã¢ tt
uhtt Ã¡n
Ġ13 5
Ġservodat eallimis
ĠsÃ¡medigg Ã¡i
Ġbis uhuvvo
muit alus
ĠvÃ¡ikkuhan fÃ¡pmu
juolggadus ain
Ġstud eren
ĠdilÃ¡laÅ¡ vuoÄĳas
ĠvÃ¡rre lahttun
birras iin
ĠsÃ¡v aldat
ogrÃ¡f alaÄįÄįat
ĠSaj osis
ĠUnjÃ¡r ga
ĠHÃ¡stalus san
ĠKultu vrralaÅ¡
ĠbÃ¡lddala stin
ĠSO F
Ġokti laÅ¡
Ġbih tÃ¡n
B aj
L U
mi st
Ġo ÏĢÏĢa
is i
ĠS earv
ej uo
am me
ed oaimma
Ġgiella beass
Ġbargg olaÅ¡vuoÄĳa
Ã¡b a
St rategiija
ĠgieÄĳah allama
Ġ196 9
ĠrÃ¡dd jeh
ĠlÃ¡gid uvvojit
eth od
Ġbovd et
gÃ¡ib Ã¡dus
ĠSo cial
âĢĵâĢĵ âĢĵâĢĵ
Ġjoavd an
ĠnÃ¡kk os
Ġoarjja bealde
A ili
G e
d Ã¡t
v ad
Ġ z
ii ga
Ã¡h it
ĠS val
di kkis
ul oÅ¡
ĠG Äį
ĠrÃ¡ jÃ¡
Ġa aj
Ã¥ an
Ġbuor iduvvo
ĠvÃ¡l ggaid
eass an
mmi t
Ġfor uma
Ġmeahcc Ã¡i
Ġga av
Ġvir ggit
ĠgÃ¡vnn ahii
ĠdilÃ¡laÅ¡ vuohta
ĠDean ul
ĠVuoÄĳÄĳ un
ĠlÃ¡hk arievdad
ĠÄįÃ¡hc i
Ġlagab uidda
fil bma
ĠgelbbolaÅ¡vuoÄĳ aguovddÃ¡Å¡
ĠAlimus riekti
atta i
Ã¸nn esen
mehc iid
Ġmohtorf ievrr
C D
L o
b yr
j uohk
Å¡ ttir
la tnja
Ġo o
di Å¡g
Å¾ is
je d
bm Ã¡j
ĠG onagasa
Åĭ kkat
ĠH ig
Ġokta vuoÄĳat
ggad usa
ĠvÃ¡ld ojit
Ġdoaibma bidjo
stt at
Ã¡ig odahkii
ihk aid
alis erema
oavkk ut
Ġmuital edje
sÃ¡megiela t
gr id
ĠeaiggÃ¡d uÅ¡Å¡at
ĠhÃ¡ll Ã¡
ĠBal s
Ġbargov ea
Ġruv ke
divÅ¡Å¡ u
Oass emihttomearri
Ġovdam un
ĠSoa bb
VuollÃ¡i ÄįÃ¡la
Ġoktiig eassu
Ġdirektor Ã¡hta
kapihtt alis
Ġsuddj et
Ġrab ai
B is
P ost
S Ã¡m
v Ã¡il
y Ã¶
Ġg is
gg aide
Ġr ih
ĠG ie
Ġ19 45
uvnn at
ab ilit
Ġar vat
Ġunn on
ĠJus tiis
bÃ¡i ke
Ġsoa pm
UO H
Ġ196 8
Ġsierr an
ĠÃħ s
Ġ46 0
ĠealÃ¡sk ahttit
ĠBr ans
iÅ¡g oahtÃ¡n
Ġmed is
ĠeksÃ¡me na
ĠGuh kes
oguovddÃ¡Å¾ a
He lander
Ġsuodja la
d Ã¡b
j ain
n v
Ġs Ã¡hta
ie m
od ettiin
ĠM iel
ain n
ĠE rik
ĠE ambbo
ke m
ĠV edhugnes
Ġpr onomen
ĠÄįÃ¡ll iid
Ġ/ _________________
ado arjja
Ġboazodoall oÅ¡iehtad
Ġ16 5
jj iid
ĠMa y
Ãµ r
ĠmÃ¡t kki
viid osaÄįÄįat
vÃ¡ll jen
acebo okas
Ġbust Ã¡vva
ĠÄįuov ui
Ġakte vrraiguin
Ġunnitlog ug
Gu laskuddan
Ġalcces is
ĠÃ¡n ss
ĠOAH P
B oar
c ia
tt olaÅ¡
vv es
ĠS aba
ag uolÃ¡st
ih kat
ad oaibma
ol Ã¡hkii
og Ã¡l
ĠB re
ki ma
ĠÄįÃ¡ll ima
iss ui
ĠEan emus
ĠmÃ¡il mme
geavah eapmÃ¡i
ĠAr thur
ĠgieÄĳah alai
dah kk
ĠÄįohkk e
ĠÄįakÄį a
ĠÃ¡ssan guovlluid
Ġ196 4
ĠoassÃ¡last i
ĠGir ku
Ġjearr an
Ġhilg ut
ĠÃģlgg os
ĠÃ¡Å¡Å¡emeannud an
aren at
ĠÄįuovvova ÄįÄįa
ĠSuodj alusa
isu us
Ġnuortta bealde
N Ã¡
P ers
] ,
u u
Â į
iv Å¡Å¡
Ġ3 10
ĠJ ustis
ahtt o
Ġgeavah uvvui
Ġgiella mÃ¡httu
uvd no
Ġduo d
Ġsiid dut
Ġadd ojuvvui
ĠÃ¡ ggan
istor jjÃ¡s
Ġopp alohkÃ¡i
esid er
ĠOl u
Pr ogrÃ¡mma
kn ing
ĠÄįalmmust ahttÃ¡
kru tt
Ġordn en
jag Ã¡Å¡
ĠMihtt omearrin
ĠoahpponeavvorÃ¡hkad eami
f ea
m miin
¥ {
Ġ ehtalaÅ¡
ii s
Ġf ea
uor gg
ĠB ur
ĠB ealit
Ġpr ov
mma in
Ġoahpp od
ÄĮ ÄĮ
Ġeanet logus
ĠIn ter
Ġgeain na
ĠoÄĳasm ahttima
okta vuoÄĳa
ĠÅł iehtad
ĠfÃ¡tt Ã¡s
Ġvej olaÂª
198 6
ĠgÃ¡nnÃ¡h a
Ġbah Ã¡but
Ġlas Ã¡husa
ĠgoappaÅ¡ at
Gu lah
enn ie
Ġhu pman
ĠvuostÃ¡ivÃ¡ld it
Ġnjul get
}Â ¥{
V TT
b ur
e ktuvra
g Ã¡vdn
h ui
j uvvot
is ch
Ã¡h is
ĠS ie
ĠG Ã¡l
rÃ¡ f
ĠrÃ¡ pma
ĠF ol
ĠI d
Ã¤ v
ob a
Ġkultur birrasiid
Ġboah t
bea llÃ¡i
Ġ15 5
kÄį at
Ġhistor jÃ¡i
Ġpolit ihkkii
ĠoÄĳasm ahttojuvvon
Ġeahp en
ĠmÃ¡vss e
ĠfuomÃ¡Å¡ upmi
vear bba
eaiggÃ¡d iidda
ĠGÃ¡i vuotna
Ġheaittih uvvui
dÃ¡rbb u
ĠÃ¡igeguovdil in
ĠBrans fjell
H Ã¥
s urggiid
ar o
ĠS nÃ¥
os ter
ig iella
uÅ¡ lÃ¡dd
uot na
ĠoÄĳÄĳ ah
Ġbargg at
Ġmer ket
kr it
SÃ¡me lÃ¡ga
Ġoroh ahkii
ĠvÃ¡id alus
Ġsuomag iella
Ġlob ihis
Ġsturr osaÅ¡
ĠlÃ¡ig ohit
ĠsÃ¡tneg irjjis
ĠdÃ¡hk Ã¡dus
ĠPar lamentÃ¡ralaÅ¡
onag assii
ĠFinnmÃ¡rkkul Ã¡hka
Ġmohtorgiel kÃ¡
movttiid ahttin
Ġjekkiid suodjalan
M Ã¡t
d uovd
k ologalaÅ¡
us to
on s
di c
ss k
ĠG ar
uor gin
Ġoahp istan
ĠV il
oahp uin
ob it
ĠsÃ¡me politihkka
ĠjoÄĳih eaddjit
Ġboar is
ĠMat ti
ĠsÃ¡medikki in
ĠStÃ¡hta laÅ¡
Ġproseass at
Ġeasta dan
Ġruhtad eapmÃ¡i
riikk aidgaskasaÅ¡
Ġbajit dÃ¡si
ĠEanan doall
Ġluondduv allj
ĠnÃ¡k c
Ã¡vkkÃ¡st allama
L E
v Ã¡i
oh Ã¡stalus
Ġp ublik
Ã¡la n
am ols
ĠA f
ĠV ol
Ã¥ ang
erv odagas
Ġjo ÏĢ
ĠÄįÃ¡ll ojuvvo
Ġsiid das
mat iiva
Ġ15 00
Ġstiv rejit
Ġ14 7
ess urs
Ã° aid
ĠÃ¥ ll
ĠAl la
ĠnuppÃ¡st us
NA G
Ġinstit uhtta
Ġmass in
Ġdorvv asteapmi
ĠdavvisÃ¡megiela t
ihp uid
Ġbah Ã¡id
ĠSir pm
Ġob je
Sis doallu
ĠRuvdnapr inseassa
ĠnÃ¡k ce
ĠOahpah eaddjit
Ġbikt asiid
s l
Ġ ustit
Ġg illi
er al
ad jes
oj oavkkus
ss iid
ĠP lass
ĠT ab
ĠÃģ L
Ã¸ benh
Ġmin uhta
ĠLea go
ĠMa jestehta
ĠKÃ¡rÃ¡Å¡j ohkii
okta vuohta
ĠdÃ¡rkk istan
Ġmaidda i
ĠdieÄĳih eami
vdn jes
Ġguoll ebiebman
Ġborge mÃ¡nus
mÃ¡ll et
Nj uol
ĠÃ¡vÅ¾Å¾uh usaid
Ã¡vvir at
ĠOarjel sÃ¡mit
ĠRoms dal
ĠmaÅĭÅĭon an
D US
S u
k vÃ¡r
Ġ ..........
Ġs uol
is erema
gg Ã¡t
je ddjiid
eap par
ĠNor ges
Ġgiella lÃ¡vdegotti
ĠÂ ´
ab il
ĠSt Ã¡htat
ĠvÃ¡ikkuh eamen
ĠÃ¡rb em
ĠAn al
uhtt ii
uorr an
oahpah eaddjin
Ġmus ihkk
15 4
guovddÃ¡Å¾ iin
juo llu
ĠÄįielgas eappot
ĠOvttas kas
ĠVÃ¡r ren
Ġjahke Äįoahkkin
boah tte
Ġlii ko
Ġmiht idit
ĠsoahpamuÅ¡ aid
Ġvur k
Ġoadjebas vuoÄĳa
Ġlahkon an
ĠsÃ¡i va
Ã¡lg osaÅ¡
ĠhÃ¡vd Ã¡d
ĠdÃ¡ssed is
ĠdivÅ¡Å¡oh asa
F A
T eaksta
h old
s el
la ma
Ġj ogo
Ġm ean
kk ai
am eannud
ĠT Ã¸r
Ġgiella rÃ¡ÄĳÄĳi
bu m
ultu re
ĠdÃ¡rbbaÅ¡ an
ala dettiin
Ġjien at
ij n
ÅĭÅĭ a
Ġoidn ot
ĠÃ¡rvvoÅ¡tall ojuvvojit
Duo dji
ĠÄįuol mmaid
Gonagas bearaÅ¡
mearrÃ¡dus ain
Ġbii bb
ohÄįÄį un
ĠlÃ¡vd ed
Ġgoapp Ã¡ge
ĠsÃ¡ga joÄĳiheaddji
hÃ¡ldd aheapmi
ĠÃ¥vd Ã¥s
L e
Å¡ goÄĳii
mi h
gg Ã¡Å¡t
Ġh Ã¡pme
un t
ĠB Ã¡hcc
ĠE th
uhta dusa
Ġluonddu guovddÃ¡Å¾is
ode par
Ġoroh agat
ĠMÃ¡htt e
Ġgaskkust eapmi
Ġgaskkust eapmÃ¡i
Ġlakt it
Ġbell odagaid
ĠvÃ¡zz Ã¡n
ĠAk wÃ©
Ġahk ej
ĠMuhtu min
Stuor adi
l on
p mÃ¡n
v Ã¡id
tt Ã¡laÅ¡
Ġja ep
Ġv on
eal jÃ¡t
ĠH istor
guo s
gas it
atn u
Ġdoaimm aheaddji
Ġohc alit
ess i
ieÄĳÃ¡hus as
ĠhÃ¡lddaÅ¡an guovlu
ĠOs ku
Ġis k
ĠGuo lle
ĠDuo pm
ĠmÃ¡nn Ã¡n
ĠÄįoahkkin ortnega
ĠÄįuovvol uvvo
ĠÄįatn Ã¡
Ġdol v
ĠÃ¡ige mearri
Ġatt Ã¡ld
Ġeinnost ahtti
Ġfuola keahttÃ¡
ĠÄĮa Äĳ
ĠÃ¡hÄį i
Ġarke ologalaÅ¡
P ub
b ru
d uohta
g asa
| âĢĿ
Ġs prÃ¥k
ah oavda
at te
vv amÃ¡nu
er ti
uvv amis
ĠR olf
Ġovd ago
Ġla sta
ivv odaga
ĠÄĮ SV
Ġovdan boahtÃ¡
ĠDavv ig
ovnn as
vrr aide
Ġoktii heiveh
Ġpers ovdna
Ġboraspir ehÃ¡lddaÅ¡
oass Ã¡last
Ġstudean tan
fitn odaga
Ġlon uh
Ġaid dost
ÃģI KK
Ġsys te
ĠNy voll
evi Å¡uvnna
ĠrÃ¡ddj en
ĠRiikkas earvi
Äįuogg Ã¡id
iri am
ĠSver re
S ihkkar
j h
s v
Ġl oga
Ġb on
Ã¡r bbi
ih ahtti
bb in
ahus sii
ĠH ol
ob Ã¡lvalus
Ã¡hk Ã¡dus
Ġ12 7
Ġhuks emis
Ġdoaibm aguovllus
Ġ17 75
Ġjuollud uvvot
Ġjuollud usaid
Ġgoh c
div ada
Ġfievrr iduvvon
proseass at
Ġfatn asiin
evi Å¡uvdna
ĠieÅ¡hean alaÅ¡
Ġgovd a
iidLÃ¡g Ã¡dus
ĠTÃ¸r foss
D ii
G as
J agis
O d
r ing
Ġg ymn
ah aga
vuo mi
vuo sttaÅ¡
Ġ2 19
os k
ja la
ĠP iera
Ġoa âĦ¦âĦ¦
ĠmearkkaÅ¡ an
bell odagas
ten t
ĠhÃ¡lddaÅ¡an ovddasvÃ¡stÃ¡dus
Ã¡Åĭ ga
Ġveahkk evear
MI T
Ġduog Ã¡Å¾in
ĠHa u
Ġmuitt us
edo allo
ĠdÃ¡ruid uhttima
ÃģH KA
ĠdÃ¡htt ot
omat eriÃ¡la
Ġlanj aid
olor atiiva
ĠCam bridge
G ii
V ar
s Ã¡pmelaÄįÄįat
iv ir
ĠO mas
ĠL y
ov Ã¡lljen
Ġpr odu
ĠH E
ĠH ui
Ġ9 9870
Ġboah tin
jo at
ĠÃ¡lbmot laÅ¡
alit y
em eahttun
Ġbeal uÅ¡tit
Ġvuoll Ã¡saÅ¾Å¾an
Ġvir g
Ġbis te
Ġgaska vuoÄĳaid
ĠNord kalottfolket
Ġpolit ihkkar
ĠÃ¥ vdd
Ġnanne min
Ġjorgal uvvojit
ĠdÃ¡ss Ã¡saÅ¡
dut kamuÅ¡
ĠmÃ¡vss u
ĠAnÃ¡r jÃ¡vrri
Ġvuolgg ahit
edo allu
Ġlakt Ã¡sa
Ġskuv las
Ġvul obealde
ĠgirjjÃ¡laÅ¡ vuoÄĳas
Ġfuol la
ĠSuoloÄįiel ggi
TrÃ¸nde lag
Ġnew s
R E
g t
m b
r uÄĳa
t allan
v iess
Ġj r
or Ã¡
uid uhttin
ggi ma
ĠÃ¡i bm
ĠJ or
Ã¡ld iid
ĠSt rategiija
Ġman na
uhta deami
istt is
ost it
Ġjoh tÃ¡
Ġbeal uÅ¡t
Ġ17 5
Ġvea juid
ierpm Ã¡dat
suor gi
ĠgokÄį et
ĠbÃ¡ikego ttit
Ġmass et
MA T
ĠÄįuoh te
Ġsisab ahkk
Ġstipean ddaid
ĠmieÄĳih an
ĠVÃ¡l gal
Ġlob iid
gir je
ĠollaÅ¡uhtt ojuvvon
MaÅĭ imuÅ¡
ĠÃ¡vd ins
Ġju vdd
vis tti
ĠRii kar
ubli c
Ġmearridanv Ã¡ldi
L ill
d eaivv
r om
Ã¡ bi
Ġs urggiide
vuo stÃ¡i
ĠD ire
ĠM ed
ĠR iddo
Ġla pp
Ġnj ea
Ġdie vva
Ġin s
Ġvuoigat vuoÄĳas
Ġvuoigat vuhtii
Ġlass ig
est it
Ġoaivvil d
Ġseamm alÃ¡hkai
ĠSÃ¡me nuoraid
Ġunnit logus
ĠGuo vl
mo ttak
Ġloahpah a
ĠDoaibma bidju
astiv ren
mols aÅ¡
ĠJahk Ã¡saÅ¡
abargg u
Ġvahkk ui
ĠmÃ¡ht Ã¡n
Ġhearkk es
B Ã¡ikkÃ¡laÅ¡
L Ãģ
S e
h Ã¡mis
l ullis
Ġm al
ad ut
eg uovlluid
ed iehto
ast ii
ra ft
cc it
ĠT al
Ġovttas doaibman
Ġboah ti
Ã¡ib Ã¡dusaid
le men
Ġgu m
ĠrÃ¡hkad uvvui
ĠSuo djalan
alis m
Nor ge
Ġdahkk ui
Ġmusea in
Ġovddast eaddjin
Ġmedi as
ĠMÃ¡htt odepartemeanttain
birras iiguin
ĠbearraÅ¡ iin
Ġmuitt uha
Ġguohtu ma
ĠgohÄįÄį uma
Ġleah kki
ĠMeahcc er
ĠAreÃ¡la hÃ¡lddaheapmi
Ġmilli j
Ġmoan aid
goh Äįod
gÃ¡rgÃ¡dus jagi
B uorre
m eatt
Ġ ter
Ġm uohtas
Ġv ilges
vd u
ĠD eh
Ġh av
ol eamos
ear bma
Ġde mean
ga ard
Ġgu di
ĠVuo i
Ġmihtt omer
joÄĳih eaddjin
Ġalmmuh uvvojit
ĠÃ¡id nal
Ġguohtu mat
ĠÃ¡vÅ¾Å¾uh usa
Ġrefer Ã¡nsa
ĠBÃ¡ kte
Ġnjulges taga
ĠPett ersen
B ir
h at
ah eapmÃ¡i
Ġl Ã¡htten
an eavttut
earr i
ĠR ea
ĠR ehketdoallu
ev is
Ġmearr aluossa
Ġmuh timat
Ã¡hka i
istt aide
uorr i
rie ktÃ¡i
Ġ16 2
olbm ofitn
Ġluonddu bÃ¡lvalusat
Ġgar as
easet guin
organisaÅ¡uvnn ain
Ġfievrr idan
ĠDa Äĳistaga
ĠvÃ¡ldi ma
ĠfÃ¡gas urggiin
ĠÄįilgehus aid
Ġguoss it
ĠViid Ã¡set
ĠdÃ¡htt on
Ġkategor iija
ĠÄįeahp es
ĠNuortt anas
c ran
r Ã¡igge
s n
Ġ adje
Å¡ a
Ã¡n dda
Ġgiella proÅ¡eavttaide
Ġdeh Ã¡l
Ġ13 2
Ġ17 0
ovnn aid
Ġjuollud usat
Ġstuorra digge
edi kÅ¡
kal eanddar
ĠdÃ¡hpÃ¡h uvvet
Ġjear ai
th er
Ġparla meanta
Ġbiss eh
Ġdoll ojuvvot
Ġovttast ahttin
tion s
Ġbell odagat
cealkÃ¡muÅ¡ a
Ġovttasbargo orgÃ¡na
Ġduodj ereg
geatnegas vuohta
ĠBearrÃ¡igeahÄįÄį anlÃ¡vdegoddi
Ã¡di in
ĠvÃ¡cc ii
abu kt
ĠieÂª guÏĢ
mper atuv
d aga
Ġo ban
Ġea llu
vtt is
ul iid
ĠN OR
ĠF acebookas
Ġmuhto min
ien t
Ġte kst
ĠsÃ¡megiel oahpahussii
Ġsp Ã¡bbaÄįiekÄį
Ġdoarjj alohp
Ġvear bba
ĠÃ¥ v
ĠÃ¡rvalus sii
ĠÃ¡ÅĭgiruÅ¡Å¡ amiid
Ġalmmuh eapmi
Ġboraspir evah
Ġdoal uin
Ġvie Å¾Å¾an
vÃ¡ikkuh it
agiela s
ĠVal Ã¡Å¡tallan
Ġbiehtt alit
Davvis Ã¡megiela
Ġkolle ktiiva
ĠRoavven jÃ¡rggas
dust ri
1 50
x x
ķ ×
Ġv isti
vuo ht
Ġh erv
es sa
ĠG eas
ĠG eahÄįÄį
ĠN arv
eal b
Ġ3 20
Ġmiel d
ĠT ap
ill Ã¡
Ġt Ã¡
Ġjoh tu
Ġ13 7
Ġ20 2
Ġfuolah an
Ġluo ttaid
ĠÃģr jja
bivd it
Ġlasih uvvon
Ġ197 1
duo gÃ¡Å¡
ĠOahpp oplÃ¡n
Ġalmmuh uvvot
Ġcealk agiin
Ġjuogad an
Ġdokumean ta
Ġproseass ain
Ġbovd en
Ġpost posi
Ġbeakt ilit
Ġkont eavsttas
Ġguov log
badje l
ĠLap in
S ve
i at
n ge
r Ã¡hkkan
Ġs ko
Ġs ohpe
Ġl ub
Ã¡st an
ĠJ al
ihka la
min en
Ã¸ g
Ġoahpah eaddj
Ġbuor ideapmi
ĠmÃ¡htt e
ys tema
Do arjj
Ġgoh Äį
ĠmÃ¡Åĭgg ah
Ġsird Ã¡s
Ġsird ojuvvot
ĠÄįuovvol eamis
Ġeaigg Ã¡dat
ĠnuppÃ¡st uvvan
Ġjuogad eami
ĠbearraÅ¡ iidda
ĠprogrÃ¡ mm
Ġaren an
ĠSaj osa
Ġrii kas
Ġmon arkiija
Ġgr unn
Bar n
ĠSU F
epm osit
Ġgoabb Ã¡ge
ĠSAEMI EDIGKIE
? Â»
G al
e il
id t
it s
di in
je m
Ã¡id i
ĠL oahpas
ev Ã¡ldi
par la
st ruktu
ĠH o
ĠI T
Ġin digenous
ovdd idemiin
Ġain juo
ĠMar ja
In tern
Ġkonsulta Å¡uvnnain
ĠdilÃ¡laÅ¡ vuoÄĳaide
ĠgohÄįod a
ĠSk Ã¡niid
Kon sulta
IE ÄĲ
kultur muit
Ġuhc a
ĠinformÃ¡n ta
ĠvÃ¡ikkuhus ain
ĠgÃ¡vpog iidda
Ġpositii vva
Ġkan did
ĠÃ¡it atvuloÅ¡
ĠGeav at
SÃ¡medigge presideanta
Ġveard Ã¡d
ĠÃģrb ediehtu
Ġkonkl ud
Ġdoahtt al
ager cran
ĠHir vonen
ĠdÃ¡vjji but
6 00
a je
g l
l Ã¡i
p ace
u te
Ġ yl
vuo ll
Ġgo almm
ĠM Ã¡httu
ĠE ahp
re ive
Ġoahpah eaddjiid
ĠlÃ¡g Ã¡dusaid
Ġar e
ĠÄĮ oahkking
istt us
eb a
oahpah eapmi
Ġnupp iin
Ġbeaivv is
agea Äĳ
ĠDo arjaga
Ġbukt ojuvvon
Ġbiebm an
rievtt is
ĠÃ¥ rr
ĠÄįÃ¡l ihuvvon
DÃ¡s seÃ¡rv
Ġeroh usa
ĠfuomÃ¡Å¡ an
joavku n
Ġteaksta oasi
Ġviess o
Ġdoall o
Ġmolssa evttolaÅ¡
Ã¡rbev irolaÅ¡
iskkad eapmi
Sea mmÃ¡s
Ġruovttug iellan
Ġfuolast uvvan
G eav
o las
s yn
s ign
id ie
Å¡ t
oa vdda
alla s
ĠN i
un cil
ĠB Ã¡z
st ara
miid e
ĠH ilde
Ġgiella lÃ¡vdegoddi
ĠU nna
ĠPr inseassa
ievrr aÅ¡
ard aga
Ġsuor ggit
eavstt ain
Davv iriikkalaÅ¡
Ġguovl un
Ġdefin erejuvvon
Ġjoavku n
Ġgonagas laÅ¡
ĠMiella guottut
Ġqu e
Ġdov ne
? ?
B MO
d ehÃ¡laÅ¡
g osa
k iid
Ġ Ã¤
vuo vddi
ĠM Ã¡tt
ed ie
ĠR t
ov Ã¡ikkuh
ĠK ur
Ġpr edi
ĠP av
Ġbea ssa
Ġgiela laÄįÄįat
um uÅ¡Å¡an
Ġ14 8
alis ta
ĠalmmolaÅ¡ vuoÄĳas
Ġgulah allamis
ÄįÃ¡ll osat
ĠÄįoa ggit
beaivv Ã¡laÅ¡
Ġvuoruh eapmi
DA T
oass e
ĠMÃ¡nÃ¡idgÃ¡r ddi
Nu ppi
ĠÅ¡l oahtta
ĠmaÅĭimus tÃ¡
Ġku n
ĠÃ¡vvud eapmi
Ġsiskkil dit
Ro y
h ter
r eivves
Ġd le
Ġj nv
Ġl eÅ¡
Ġm ent
Ġn ii
ĠD iht
Ġvuo ÏĢÏĢ
Ġgea f
ean ssa
ed oaibma
Ġrie kt
Ġc u
Ġserv ic
Ġoahpah eamis
htt u
Ġ12 6
Ġguor os
ang en
ĠÄįoa kkÃ¡n
Ġdoarjj ui
Ġkonsul teret
Ġfitn odagaide
Ġvea djÃ¡
Ġ37 5
njÃ¡r ga
Ã¡sm uvvan
Ġro ggan
muh tun
ĠSand vik
ĠMaÅĭ imus
Ġrehkenast ojuvvo
Ġdulko ma
Bea vdeg
ĠBul jo
Ġjierpm Ã¡laÅ¡
evelop ment
E a
O m
kk od
gg Ã¡id
ta in
ll iid
ol uohkkÃ¡
ut r
ĠM Ã¡nnÃ¡
ĠG uorah
Ġgal lis
ed a
st atist
ĠK UL
Ġmearr e
inn odat
lah tti
kat ii
oas Ã¡laÄįÄįat
uj mie
St iv
Ġ13 3
Ġ13 4
Ġmeannud eamis
Ġluo dda
ĠjoÄĳih eami
Ã¤r ing
ĠollaÅ¡ uvvan
ĠAl f
fÃ¡g at
Ġalmmuh eami
Ġsisttis doallat
ĠinformÃ¡n tta
Ġvuoh kkas
Ġlih ku
ĠguoÏĢ ohit
ĠSN PL
ĠCommi ttee
y rat
Ã¡ Âª
Ġm earkkaid
Ġb et
Ġr asis
Ġf idnu
Ġh el
Ġvuo t
ĠG alle
ĠN uss
ed jen
ĠB ear
ĠL i
bb is
kan i
ĠJ Ã¸n
ĠV uoh
ki kartta
Ġgiella oahpahus
Ġdie hta
Ġt his
unn je
Ġovddas teddjiid
Ġskuvla vÃ¡zz
ĠgÃ¡r ggiid
Do kument
Ġgeass eg
kr ehta
kur ssaid
Ġeall ing
ĠMÃ¡ ks
Ġres earch
ĠSÃ¡mediggerÃ¡ di
Ġakte m
Ġboazos Ã¡pmelaÄįÄįat
Ann e
ĠFin land
Ãģlbmot meahc
Ġoast imii
olgg obealde
adÃ¡r bu
Univers ity
Ġkulturgaskkust an
onte ki
G T
P ors
c ie
i bmi
ah eamis
Ġb Ã¡j
ĠS Ã¡hka
Ã¡n oÅ¡
Ġoahp uin
................................ ...........
ĠI l
Ġoa pmaha
Ġc ie
ann u
ĠdÃ¡l kkas
ok rat
Ġ12 9
Ġ13 9
Ã¡vv u
Ġriekte sub
Ġgeav ada
juo gu
ĠgelbbolaÅ¡vuoÄĳa mihtt
Ġ196 7
Ġregi ovdna
Ġvar ra
ome na
str Ã¶m
ĠGÃ¡r egas
fÃ¡r re
ĠgulaskuddancealkÃ¡muÅ¡ a
Ġpo ten
ipmÃ¡r dusa
Ġritt us
ĠEaren oamÃ¡Å¡
Jahk Ã¡i
defin ihtta
' d
j Ã¡l
ah edje
an k
it ed
Ġb allÃ¡
Ġr is
ĠÄį ehpp
Ġf all
ĠG uovllus
ĠN ÄĮE
ĠB eahc
re di
ĠvuoÄĳÄĳ odo
ĠSuo mag
ĠVuo sttaÅ¾ettiin
apor tta
tr op
Ġval jis
oluo tt
ĠkÃ¡r ttat
ĠÅ¡iehtad allat
Ġvu ÄĳÄĳosa
ff e
Ġipmir da
ĠlÃ¡gid uvvot
Ġbah Ã¡
Ġunnitlog uid
ĠhÃ¡st aleaddji
ĠdÃ¡htt ut
sihkkar astit
Ġstoah kan
VÃ¡rjj agis
ĠbÃ¡hÄį in
Mat his
ĠSÃ¡mediggevÃ¡l ga
Ġnjuolggad usa
ah allat
Ġl etne
kk el
gg aÅ¡ii
on o
ĠÄį hib
Ġvuo it
ĠG oas
eal i
all ot
ĠE K
ĠmÃ¡n us
ĠÃ¡s se
ĠNor lÃ¡nddas
Ġkon stit
Ġmo vtta
ahtti min
apor ttas
Ġpros essii
ĠerenoamÃ¡Å¡ pedagogalaÅ¡
ĠollaÅ¡ uhttimis
ĠGu lah
ves tere
uodjal usa
ĠÄįoahkk Ã¡igeassu
GA SKA
ĠRÃ¡ mma
ĠminerÃ¡la lÃ¡ga
ĠeamiÃ¡lbmog iin
Ġme ta
Åĭgg ir
dag assii
ohÃ¡lddaÅ¡ eapmi
ĠstÃ¡htarÃ¡ Äĳi
ĠVÃ¡rren eavttut
ĠÃ¡idnal unddot
O ktasaÅ¡
P or
d iehto
h istorjjÃ¡laÅ¡
l Ã¡dje
s m
Ġ .........
Ġs ur
vv Ã¡t
oa ju
oh kka
ad usa
ĠD illi
uÅ¡ uvdn
ĠÃ¡l kes
ĠV alle
arj u
Ġa u
ti um
ĠIn grid
Ġvuor u
Ġ18 4
Ġte sta
Ġgalgg Ã¡
dÃ¡r u
mer oÅ¡t
ĠÄįielggad eamis
Ġpar t
ĠOl jo
ĠstÃ¡ht ar
Ġsihkkarast ojuvvojit
ĠNord lÃ¡nda
Ġceavz inn
Ġteaksta oasis
Ġjoht alit
Ġdem on
Art ihkkal
ĠGieldd at
Ġovttaid logu
ĠDieÄĳÃ¡hus as
ĠjiekÅĭ a
ĠHeah tÃ¡s
Ġgaskar iikkalaÅ¡
ĠBÃ¡hÄį avea
ĠSup mii
ĠJÃ¸n sson
. /
M ob
S ierra
te oriija
Ġh ealth
ul eren
Ġk iel
ke la
om Ã¡ks
Ġ19 17
Ġ19 02
Ġ5 40
Ġnuor amus
âĢĿ -
Ġ14 3
Ġdutkan materiÃ¡la
Ġgi it
Nor sk
dil iin
Ġkonven Å¡uvnnas
bii la
Ġoahpaheaddji oahpu
ĠmÃ¡vss olaÄįÄįat
stiv rii
ĠgÃ¡rvv es
ÄįÃ¡j Ã¡husa
Ġpost mottak
ĠeaiggÃ¡duÅ¡Å¡an vuoigatvuoÄĳa
ĠvuollÃ¡iÄįÃ¡ll Ã¡n
VÃ¡ikkuh angaskaoamit
Ġobb alaÄįÄįat
ĠRÃ¡ÄĳÄĳ Ã¡dallamat
Ġnamuh uvvojit
ĠmuÄĳ uige
A re
H el
V Ã¡ldde
b al
b il
e isevÃ¡ldi
m ot
o astin
Ġd agat
Ġb ud
kk ut
dd jÃ¡
Ġh eahp
es o
ĠO rr
ĠJ oavku
ĠK u
Ġpr eassa
guo kte
Ġdie ÏĢ
Ã¡tt iin
he ten
Ġvuor dÃ¡n
ĠieÅ¡g uh
ĠÄįÃ¡jeh uvvon
ent ral
Ġ20 6
ĠÅ¡at t
ohk iid
ĠÃ¡rv obuvttad
ĠvÃ¡rr ehus
ĠsÃ¡gast allamiid
Ġlullis Ã¡megiella
Ġolgor ii
Ġgozih uvvo
Ġguhkk osaÅ¡
Ġetn ihkalaÅ¡
Ġdoalah a
td ann
ĠGol bma
ĠvÃ¡dd Ã¡s
ĠjÃ¡p min
Ġbargom Ã¡rkan
ĠjÃ¡vk adit
Ġmatrikul erekeahtes
% )
M S
Ã ĩ
Ġ ahke
Ġl Ã¯
Ġb istit
ĠS Ã¡rtnit
iv es
ĠR uonÃ¡
uv g
st Ã¡dus
st uorra
kon ferean
ann en
mearr iduvvon
ĠsÃ¡gast allamis
ĠdikÅ¡ umii
Ġident itehtii
ĠÅł l
vear a
iÅ¡g oahtit
Ġih tet
ĠseminÃ¡r ii
ĠbÃ¡lg osa
ĠOlgor iik
ĠÃ¡n dagassii
Ro ald
ĠviÄĳ Ã¡t
ĠbieggafÃ¡pm orustteg
Äįilg ehusa
Ġrud aid
N ils
Å¡ iehtad
Ġl uÄĳ
it ge
Ġm Ã¡htii
tu vai
eh p
ahk Ã¡saÅ¡
met sa
Ġ15 1
Ġ15 3
ess osa
ĠÄįilg ejuvvot
ys tem
Ġan ii
Ã¡sahus as
ĠNu uks
Ġeah ket
aha lan
Ġ197 4
ĠdearvvaÅ¡ vuhtii
Ġri vdet
Ovd amear
Ġbar ta
ĠoÄįÄį oÅ¡ii
Guo vtteg
ĠbuÅ¡eahta in
Ġdass Ã¡
Ġbier go
SÃģM EGIELLA
ĠVÃ¡ldo mihttomearri
ĠÃ¡ÅĭgiruÅ¡Å¡ans urggiid
Ġduddjo mis
ÄĮuj uhus
ĠbieÄĳ gguid
prosed yraid
Arkiiva Ã¡Å¡Å¡enr
ĠSÃģMEDI KKI
v ed
Ġd arv
Ġb eana
is taga
ĠS tu
Ã¡n at
Ġgea idno
eami Ã¡lbmot
ev ra
Ġpr e
Ã¤ ll
mus ihka
eavtt uide
Ġovdan buvtt
ihkk Ã¡
ĠovddasvÃ¡stÃ¡dus san
Ġeanan dollui
Ġvuovd imis
tes aÅ¡
Ġluoh teh
ĠmÃ¡nÃ¡idgÃ¡rde oahpaheaddji
Ġkur ssa
Ġgill Ã¡n
ĠvuostÃ¡i vÃ¡ldi
ĠkonferÃ¡n ssas
kos ki
Ġstuorr u
Ġguohton eatnamiid
Ġipmird eami
ĠhÃ¡ld ui
ĠÄįoakk Ã¡mis
ruovtt oluotta
ĠRet kikartta
ĠÃ¡Å¡Å¡Ã¡ig ullevaÅ¡
Ġadminist ratiiva
F Ã¡
j Ã¤s
Ġs uoh
Ġl Ã¡hpp
is guin
Ã¡l mmÃ¡laÅ¡
on as
ol Ã¡hk
Ġgo t
og n
ear it
st ii
ieÄĳ alaÅ¡
Ġla tnja
ĠK op
ud en
ĠP ri
mus eas
Ġjuo be
Ġt ill
ĠdÃ¡l ves
Ġfyl kkar
li j
sk y
oht or
Ġid i
ĠÄįoa ggin
Ġko rre
EA DD
Juo vla
ĠdÃ¡iddÃ¡r Å¡iehtadus
ĠÄįÃ¡j Ã¡husas
ulbmil in
ĠmÃ¡tke ealÃ¡husaid
ĠDoaibma plÃ¡na
bid ja
Ġdefin eret
Ġiskkad eapmi
Ġsoahp ameahttun
rapor tta
ĠÃģlgo Ã¡lbmogiid
Ġluohkk Ã¡i
ĠsajÃ¡id uvvan
Ġnjoa mm
Ġoppan assiige
B ures
O dne
P e
S Ã¸r
b ohtet
d Ã¡bÃ¡laÅ¡
dd Ã¡n
ĠS av
ĠÄį oahkkingirji
ad eapmÃ¡i
Ã¡htt ii
all ojit
Ã¡v Ã¡ldi
ĠJ ea
ĠV Ã¡id
ĠdieÄĳ uide
Ġsiid ii
ĠvÃ¡ikkuh ii
op le
Ġgu ktie
Ġ14 2
ĠÃ¡sahus as
Ġet ym
uovv an
iika laÅ¡
Ġdiehtoj uohki
~~ ~~
Ġnag oda
Ġakte vrrat
Ġanalys eren
Ã¡vva la
ĠparagrÃ¡ f
idar itehta
Sp iehkast
ĠRiddog uolÃ¡stuslÃ¡vdegotti
GÃ¡i vuona
ĠMag ne
ĠvuoÏĢ ul
F re
b us
s land
Ġ Ã¶Ã¶r
Ġl ingvisttalaÅ¡
tt aÅ¡
Ã¡mi in
ad Ã¡idda
Ġmi Å¡Å¡
ĠM eav
eal mm
Ġk Ã¡ntu
tta i
ĠT Ã¸nnesen
men ta
Ġkultur ealÃ¡hus
Ġoh ppe
ĠvÃ¡r ru
pm ah
Ġnuor a
esur ssaiguin
Ġ14 4
Ġohpp iiguin
ĠW est
eam bbo
ĠGiella tekno
ĠoÄĳasm uvvi
ĠDÃ¡ kko
ĠÃ¡lgoÃ¡lbmog iiguin
Ġnjeal je
Ġle ks
ĠbÃ¡ikego tti
An Ã¡r
ĠÄįuohc at
ani la
ĠeaÅĭ galas
beroÅ¡tu mit
Ġvieruid uvvan
ĠjÃ¡pmi ma
d ing
g irjerÃ¡dj
uo ji
gg alÃ¡gan
Ã¡r j
Ġr it
ĠÄį oav
Ġh ot
ej umiin
ĠE va
ĠL ahttu
aga iguin
ĠV Ã¡hÄį
oahp ist
Ġbo rran
Ġgiella barggu
tti la
ell odat
ko mit
Ġjahk Ã¡sa
Ġjoh ttis
Ġ12 2
Ġvir ggiid
ĠmÃ¡t keg
Â³ Â³
ĠgieÄĳah allet
ĠguovddÃ¡Å¾ at
ĠÃ¡ss Ã¡
mp i
Ġkonsulta Å¡uvnnaide
ver k
ĠBoazodoall o
Ġso aldd
ĠieÅ¡mearr ideaddji
Â¤ Â
ĠEr ling
ĠMearr asÃ¡mi
rea iddu
ĠÃ¡igg ut
Ġvul get
instit uhtta
44 1
ĠiehÄį an
ĠÃ¡rval uvvo
ĠolÃ¡mu ttos
jea kki
evies u
Ġmielddisbuvtt ii
Mann an
Ġdoavtt erg
D as
E ana
R a
S P
o ikeus
Å¡ lÃ¡jat
Ġl ov
Ġvuo Å¡Å¡
am ann
un ivers
ĠB ro
ÄĮ Ã¡hc
ĠÄįÃ¡ll osat
Ġdeh alaÅ¡
Ġgu ktu
Ġgu vttiin
uj uha
Ġfuo las
Ã¡lbmog ii
Ġnann ejuvvojit
Ġdoarjja oaÅ¾Å¾ut
for bund
ohk Ã¡laÅ¡
Ġluo b
Ã¡tn ejoÄĳiheaddji
Ġnisson olbmo
nu ppÃ¡st
ĠÃ¡lg oj
Ġdiv aÅ¡t
Ġbuvttad uvvon
Ġthe ir
EA L
Ġrea idu
Ġduodje ealÃ¡husa
Ġad op
vÃ¡ll jejuvvon
Ġboazo eaiggÃ¡dat
95 20
vies u
ĠkulturÃ¡r bi
ĠÃģig umuÅ¡
Ġjoatk aÅ¡
vuol gg
ĠgÃ¡iddus oahpahus
Ġvuvd et
ĠluohttÃ¡muÅ¡ a
Ã¡ÅĭgiruÅ¡Å¡ an
ĠÃ¡m ta
ĠSno asa
Ġpe oples
jovn h
2 50
D F
j Ã¶
j Ã¡ra
Ġg uv
Äĳ uid
kk in
ĠS emin
ĠÄį as
ir c
Ã¡la Ã³
arg u
ĠL ul
Ġ19 05
Ġgeavah ii
men es
bi kt
Ġc h
Ġdoaimm ahan
ru m
ĠmaÅĭÅĭ it
ef orm
Ġhuks ejuvvot
Ġ20 5
Ġheiveh uvvojit
dieÄĳ ihan
ĠTr oll
ĠÃ¡lg os
Ġdovd u
Ġlo kten
ĠGuo vlu
ĠsÃ¡hka vuor
ĠgieÄĳah allamii
dat ter
Ġoktavuo Ã°as
stiv ren
Ġguolle bivdu
IS H
eaiggÃ¡d a
vÃ¡s stÃ¡dus
ĠNy stÃ¸
vuoÏĢ aid
ĠDÃ¡rog iel
Ġboald in
Ġfidne mis
ĠHig her
A P
B eass
G r
m assii
Ã¡ tti
al es
oh agaid
ĠD I
ĠM as
ĠG Ã¡ib
ĠB ajÃ¡sÅ¡addan
ĠR abas
Ġovd abargg
ĠH u
Ġdie Ã°
ers pektii
Ã¡b is
ib liote
almm uh
osiid das
Ġeavtt uhus
plÃ¡n aide
Ġdovdd usin
ĠNuor at
ĠjÃ¡v rri
yr ki
ro up
ĠlÃ¡vdego ttit
ĠoÄįÄį od
ĠRÃ¡ isa
Ġartihkkal ii
ĠrahÄį et
Ġseail uma
NOR SK
ĠFÃ¡lesnuor i
L ei
a men
f Ã¡ddÃ¡n
g oa
h Ã¡liid
i ja
k Å¡uvnna
an de
ĠS uor
ĠM et
add at
ĠdÃ¡id u
Ġviid odagas
ĠstÃ¡hta ÄįÃ¡lli
eahtt asiid
ĠDavv iriikkain
Ġulbmil laÄįÄįat
Ġovttasbarg oguo
ĠguolÃ¡st eaddjit
Ġ22 5
Ġse vdnjes
Ġeallin vuohki
Ġsoa ba
Ġbagad allama
Ġuhc imusat
ĠdÃ¡idd uid
rustteg at
Ġoal ge
Ġsihkar vuoÄĳa
ĠFÃ¡g alaÅ¡
Ġjahked oaimma
Ġluonddumeahc i
Ġovttaoaivil vuohta
Ġmovtt id
ĠNO K
Ġolgol ihkadan
B argg
N amma
T h
j ogas
m uorra
n annet
Ġl uh
Ġm aÅ¡
dd el
ĠM iriam
âĢ ļ
ĠG Ã¡ll
Ġst ip
Ġdo llui
ĠL ind
ĠL ivÄįÄįii
ĠL ene
ĠV ie
ra dio
Ġduo jit
Ġloh k
Ġjien asta
for skning
dieÄĳ alaÅ¡
Ġrapor tere
pros eanta
Ġ00 00
Ġmudd ejuvvon
ĠvÃ¡hne miiguin
Ġrea idun
Ġseaill uheami
Ġbar ko
Ġbuo ll
ID E
Ġsisttis dollet
dÃ¡id da
doaimmah aga
VUO HTA
sÃ¡n i
ĠMuit alus
nisson iid
Ġakt o
ĠMÃ¡t ke
Ġguovllust ivra
ĠnÃ¡vdd aÅ¡it
ĠkrÃ¥v n
Spiehkast anskovvi
S Ã¡meguovllu
c ase
id na
Ġj itn
Ġb ord
vv Ã¡i
gg ui
ĠM uos
eah ked
ĠG IR
ĠN av
ĠÃ¡l mmu
ĠE t
ĠJ ac
ĠK Ã¸benh
om Ã¡htalaÅ¡
Ġoahpp amis
min ie
Ġdoaimm ahus
Ol gg
ĠdearvvaÅ¡vuoÄĳa bÃ¡lvalusaid
Ġlo ktan
Ã¡ss as
ĠMÃ¡nÃ¡id suodjalus
ĠrÃ¡vv et
ĠlÃ¡vdego ttiin
ullas aÅ¡
Ġgeavat laÄįÄįat
ĠHe idi
Ġjuolludan eavttuid
ĠÄįuov ga
ĠStat sby
Ġusti b
dÃ¡l Ã¡
ĠduojÃ¡r iidda
ĠdÃ¡vvir at
doa ba
ĠdÃ¡iddad Ã¡hpÃ¡hus
Ãģig i
DieÄĳ it
ĠriikkarÃ¡j Ã¡id
Ġgudnej ahttit
Ġluonddurigg odat
Ġdadja muÅ¡
vern mo
Ġjienaste dje
Ġkvalitehtas ihkkar
B agad
H Ã¡nn
N RK
s Ã¡pmelaÄįÄįaid
Ġb uhtt
gg en
gg es
oh ter
Ġvuo ÄİÄİ
bm al
ain en
Ã¡id u
ĠB e
Ġdo ares
Ãģ S
tn er
Ġbo at
Ã¡ht an
eavtt uin
ĠstÃ¡hta ministtar
Ġ16 7
ch a
ĠolmmoÅ¡ logu
ĠRom sii
Ġgul la
Ġlasih uvvot
ĠgieÄĳah allojuvvo
ber re
ĠUn es
ĠAnd r
ĠÃħ ge
oÄĳih eaddji
ade partemeanttain
Ġkonkr ehtalaÅ¡
ĠgÃ¡ vtti
ĠvÃ¡ kÅ¡un
Ġgonagas reabbÃ¡
Ġevalu erema
Ġdevd ojuvvon
ĠanÃ¡raÅ¡ giela
Ġjoav koj
ĠjulevsÃ¡megiela s
ĠKan adas
Ġsudd je
can pix
Ġbuohcciv ies
ĠsÃ¤mi kielÃ¢
ĠSval bÃ¡r
D eaddel
G S
g irjjiid
h y
n Ã¡
s ne
Ġo arjj
Äį al
ĠD ur
ss Ã¡
ĠO n
ĠB ritt
ĠB iibb
ud et
ĠF Ã¡pm
Ġgiella oahpahusa
Ġt ran
Ġgos se
Ġdu ÂªÂª
Åł U
ĠduoÄĳ alaÄįÄįat
uitt ii
Ġeahp el
Ġlihk ostu
ĠBoazodoall ohÃ¡lddahus
Ġanal y
Ã¡ige meari
Ġohcc ojuvvon
Ġ195 6
Ġheaittih uvvo
Dan in
ĠrahÄį at
Ġmatemat ihkas
ĠHed mÃ¡rkku
ĠMihtt omearri
ĠDiv tas
mearkkaÅ¡ a
mÃ¡Åĭ gga
Ġgud ni
ĠTroan ddi
Ãģh ÄįÄįi
GL ISH
Ġluondduvu ÄĳÄĳosa
ĠOÄĳas vuorkÃ¡
! !
, ,
C C
S ara
l ihtu
in formÃ¡n
Ġm ul
Ġb org
Ġlea hki
te sa
eap po
pp en
Ġovdd eÅ¾
ĠJ ernsletten
ĠF rii
Ġin definihtta
uhta deapmi
Ġoahpah uvvo
ĠmÃ¡Åĭ ggad
ĠrÃ¡d ja
Ã¡htu t
anv Ã¡ldi
Ġbis Ã¡nan
ĠrÃ¡ÄĳÄĳehus ain
Pr esideanta
Lea Åĭkkat
ĠjahkedieÄĳÃ¡hus as
earrÃ¡ig eahÄįu
pers ovdna
ĠÃ¡lki bun
Ġka mpÃ¡n
str id
Ġolmm o
Ġstuorradigg edieÄĳÃ¡husa
iskkad eami
ĠSve er
ĠStud ies
ĠvuoÄĳÄĳoj urd
B ajÃ¡sÅ¡addan
F itn
d na
i rr
k ir
Ã ł
Ġ ...........
in tern
ĠS D
ĠS m
ĠD O
ĠD un
eg iellan
Ã¡Å¡ mm
ĠE lisabeth
st ruktuvra
ĠÃ¡Å¡Å¡ esur
Ġoll Ã¡Å¡
Ġkultur gelbbolaÅ¡vuohta
ĠieÅ¾as ka
ĠÃ¡ Åĭggir
ĠÄįÃ¡ bb
uhtt ojuvvon
Ġbuorr Ã¡nan
rii ka
ĠduoÄĳaÅ¡t usa
eall it
vu ÄĳÄĳui
ĠdikÅ¡ umis
dut ki
Ġbir ast
ĠMÃ¡htt odepartemeantta
ind rift
ind rifts
ĠMus ihkka
EN GLISH
ÄĲ ÄĲ
VÃ¡ld ovÃ¡lljen
Ġiskkad emiid
Ġill ud
Neahtta bÃ¡ike
van tit
ĠfÃ¡pmud usa
su f
ĠBea vdeg
Ġjorga lahtt
Ġbirg ejumi
Ãģig eguovdilis
ĠSuoloÄįiel gi
Ġdievdd uid
Ġaktiv itehta
miht idan
ĠHeandar at
vuoh kin
Barn esider
ĠKUL TU
NeahttabÃ¡ike kÃ¡rta
H O
R Ã¡dd
a Ã³
b oas
f ar
m olssa
m unni
o miin
s ohka
vv ui
ta lan
ĠS Ã¤
iid das
og uovllu
ĠO x
mean ttaid
ĠNor wegian
kon son
Ã¡vdego ttit
ĠvuoÄĳÄĳ olÃ¡hka
ĠvÃ¡l ggas
Ġnam ahus
ĠÄįuovv un
sk il
Ġbivd ofatn
Å¾ald agaid
ĠvÃ¡il lah
lÃ¡hka Ã¡sahusa
Ġluoh kkÃ¡
ĠorganisaÅ¡uvnn as
ovttas barg
ĠmÃ¡nÃ¡idgÃ¡rde fÃ¡laldat
ĠDoaibma doarjja
ogra ph
ĠPors Ã¡Åĭgu
Ġnjiedj Ã¡
Ġed u
Ġgeahpp Ã¡nan
Ġgeig ii
ĠmÃ¡hcc at
ĠÄĮÃ¡j Ã¡hus
ĠRav na
F F
G en
G elbbolaÅ¡vuoÄĳa
f li
o ktii
o vttast
p Ã¡r
p osit
t ot
x t
id eames
uo mari
Ġd Ã¡iguin
Ã¡i go
ĠS I
Ã¡n tta
Ġn asjon
ih ii
ĠM ear
ĠB agad
bb vuÃµ
Ġie Âº
ĠSÃ¡mi rÃ¡Äĳi
ĠÅ¡ al
ĠÃ¡lgg ahus
Ġbid je
Ġfuo bmÃ¡
ĠC D
Ġgil vvu
Ġsuor gÃ¡i
Ġfr iddj
omÃ¡n u
Ġgie dde
Giella tekno
muh tin
ĠgoappaÅ¡ agat
Ġjietn adat
ĠLei f
ĠBj arne
ĠPlÃ¡n as
Ġveahkkeneavv uid
ĠbÃ¡lkk Ã¡in
Ġvearbagenet iiva
agear dÃ¡n
. ;
H en
N y
O an
t ar
Ġs katte
Ġj ier
al eapmÃ¡i
ĠS n
os mahttit
ĠD eatt
Ġvuo Ã°Ã°
Ġvuo limus
Ġgea fi
ĠM allÃ¡
rÃ¡ kta
Ãģ LL
to bu
kuv lan
ov iid
ĠdÃ¡r o
Ġgas kkus
ter s
Ġkultur lÃ¡vdegotti
Ġguh kki
Ġgol uin
eb el
Ġnupp is
elbbolaÅ¡ vuohta
Ġbeaivv Ã¡Å¡
Äįoahkki miidda
ĠÃģr valus
ĠollaÅ¡ uvvama
ĠÄįÃ¡l us
Ġevttohus ain
ĠNj ukÄį
eatn an
Ġle Å¾Å¾et
astiv rras
Ġguoskk aha
Ġsoab ad
Ġlul Ã¡bealde
opolit ihkas
Ġdievdd ut
Ġdovdom earkkat
Ġkomp le
dann ing
Ġbiodivers it
Ġdoaibmahehtt ejuvvon
MÃ¡ tta
ÃģIKK UH
c al
s adji
Ġl oa
Ġl ik
at or
Ġv ugiiguin
Ã¡h iid
ĠS kuvllas
ĠO G
ĠB ud
ĠL ohku
Ġla ht
re f
Ġin stru
ĠealÃ¡hus doall
Ġloh ke
Ġmas Ã¡
Ã¡b men
ĠIn formÃ¡n
rat ion
Ġluo sa
up li
Ġko mm
ĠAr ne
konven Å¡uvnnain
okta vuoÄĳain
Ġeahp Ã¡dus
meahtt umit
ohpp iide
stiv rras
Ġbargoj oavkkus
IE LA
ĠSuohkan at
Ġell er
Ġstruktu vrralaÅ¡
ĠgeahÄįÄįal eami
ovttad ahkii
Ġmiella dearvvaÅ¡vuoÄĳa
jor galan
Ġmatemat ihka
ĠieÅ¡al ddes
anti kvÃ¡r
ĠvÃ¡nddard eamis
MÃ¡nÃ¡idgÃ¡r di
Ġsubstantii va
Ġbisuh uvvot
DÃ¡ kkÃ¡r
sfor laget
ĠdÃ¯ ed
sor tium
lekt r
ĠBÃ¡hcc a
B y
K r
M ÃģN
d Ã¡hpÃ¡hus
f Ã¡gan
j uh
o ktan
s ko
s ullii
Ġguo rrasa
ig het
ig heter
ĠB l
ĠL A
ĠV Ã¡i
Ġpr ent
kte mii
Ġ19 30
cc a
ĠÅ¡ il
Ġin dustr
ri vttiid
vva ma
ĠsÃ¡me Ã¡lbmot
Ġdohkkeh uvvojit
Ġmus ihkkas
ovnn ain
Ġolgg uÅ¡t
Äįuo ÄįÄį
Ġmear kan
adi g
SÃ¡medigger Ã¡Äĳis
Ġnjie dja
ĠbearrÃ¡igeahÄįÄį anlÃ¡vdegoddi
Ġgozih uvvojit
ageavah eapmi
aren an
ST N
ĠCon sortium
Ġavii sa
Ġrigg odat
Ġindiv idu
stipean dda
KÃ¡rÃ¡Å¡j oga
ĠIv gu
Ġsuopm ana
Ġmilit eara
Jes us
' t
A in
N E
p Ã¤Ã¤
ï ģ
Ġ eg
kk alaÅ¡
iid ii
Ġr s
Ġr uvdno
uvv amii
Ġn ov
Ġf an
Ġguo lli
ss i
ĠE A
ĠL is
ĠJ Ã¸r
ĠdieÄĳ Ã¡n
ĠÃ¡lbmot reg
Ġgi ÄĳÄĳa
ĠMuh timat
Ġoas Ã¡laÄįÄįat
Ġpros ed
Ġluonddu ealÃ¡husaid
Ġgeatneg ahttit
Ġgaska vahku
Ġnjuol gut
ĠoahppoplÃ¡n aide
Ġdol oÅ¾
ĠJo Äĳih
ĠDÃ¡r bbaÅ¡
ĠmieÄĳih uvvon
ĠEl in
Ġpasi eanta
ĠduojÃ¡r at
Ġrievdd ada
sea ill
ĠsÃ¡l laÅ¡
Ġimp lemen
Ġoassev Ã¡ldit
ĠFuo lahus
inde x
Ġjeavdd alaÅ¡
ĠÃ¡Åĭgir it
Ġï ¬ģ
ĠRapor ttas
Ê¹r bbvuÃµ
HÃ¥ log
E E
d ora
g ur
l ev
u tu
u iga
uo sk
Ġs Ã¡hkk
vd a
uh ter
ih tit
ad eaddji
uin n
ast ima
Ã¡ll et
ĠrÃ¡ Äĳiid
ks u
ov aid
ĠV a
Ġ0 40
sa k
lan jat
jo atkka
Ã¡il evaÅ¡
ĠdÃ¡rbbaÅ¡ at
Ġmeannud uvvui
ĠSuoma la
Ġgulah allamii
ĠmÃ¡t kkis
organis eren
ĠmÃ¡ilmmi viidosaÅ¡
Ġfievrr iduvvo
joh to
Ġvuoigatvuo da
bid jat
Ġhehtt ejit
DD Ãģ
uov us
Ġill Ã¡
ĠOll ugat
rÃ¡hkad it
ĠFor um
ĠgÃ¡nnÃ¡hahtti vuoÄĳa
ĠrÃ¡ÅĭggÃ¡Å¡t us
Ġth at
ĠFran kr
ĠrehketdoallodÃ¡rkkist eaddji
Ġoban assiige
B u
J S
S VL
h istorjjÃ¡
l dd
v alaÅ¡
Ġo Ã°Ã°a
oa pmin
ih ta
ad in
ĠD ul
Ġgo arr
nn Ã¥
ul i
ĠB uvttad
ĠR R
Ġst uorras
uv ra
mat ion
Ã¸ ys
Ġnuor ttas
Ġloh kamis
ĠSuo men
ktii vvalaÄįÄįat
em o
Ġoas uss
ĠÃ¡sahus san
Ġgil valit
Ġkonsul teren
Ġvear bbaid
Ġnor pmaid
Ma kkÃ¡r
last Ã¡
njÃ¡r ggas
ĠAnÃ¡r ii
mielalaÅ¡ vuohta
Ġ97 2
Ġguoll er
ĠbuÅ¡eahtt amearr
ĠsÃ¡medigge presid
Ġoskk old
Ġgaskabodd asaÅ¡
ĠalmmÃ¡i olbmuid
ĠgeaÄĳ ge
ĠStiv rras
ĠÄįujuhus as
ĠgÃ¡htt ema
ĠovttamielalaÅ¡ vuoÄĳa
ĠÅ¡lÃ¡dd jii
ĠOahpponeavv ut
Ġdoahtt alit
Ġbes sen
von ni
Ġmiehta ma
Ġkuvla Äįuokkis
1 10
S ign
T ER
f unn
iid daid
ol er
el Ã¤
oj uvvoÅ¡ii
Ã¡htt it
Ġdo ar
Ġbi vddus
Ġk as
Å¾Å¾ at
Ġbarg ojuvvo
lan ja
Ġovddid eaddji
Ġmearrid eami
ĠÄĮ oahkkÃ¡igeassu
Ġmin guin
eav cc
ĠdakkÃ¡r in
Ġbivd obÃ¡i
Ol bmot
Âª uvdna
ĠMar th
Ġgil val
ĠSÃ¡megiela s
dii mm
ĠÅ¡iehtad allamiidda
Ġ37 0
ĠDa Äĳi
Ġsisa fÃ¡rr
Ġdeattuh uvvui
Ġ195 1
Ġvie ll
ĠrÃ¡hkkan ahttit
ĠohcamuÅ¡ at
ĠvuogÃ¡d agas
ĠÃģh ÄįÄįi
meannud eami
ĠnÃ¡it alan
ulbmi la
Ġmiellaguo ttuid
ĠÃ¡itt an
pres ent
ĠDes ign
HÃ¡nn oluohkkÃ¡
B OA
N G
N am
d eh
g ullevaÅ¡
n ot
r esurssat
z erk
Ġd adje
la gas
Ġg Ã¯eh
Ġs c
Ġl Ã¡s
Ġl Ã¡dj
al bum
vtt it
Ġ2 30
ear en
Ġp ear
ĠG os
arg o
ĠB ievrraÅ¡
ĠJ earah
ĠK ai
ĠP etter
ĠT eaksta
Ġgiella oahpp
gas kal
ĠÃ¡ig on
Ġi m
ado arjaga
nj as
loh kat
Ġnamma duvvo
Ġsiskk it
Ġdovdd ahii
Ġsihkkarast imis
ĠÄįÃ¡l e
anl obi
Ġkulturmuitt uide
ĠÄįuogg Ã¡id
Ġeall Ã¡n
Ġinstit uhta
ĠvÃ¡i mm
Ġdutk ojuvvon
ĠSÃ¡meÃ¡lbmot foandda
ĠInstit uhta
dain na
ĠGeass emÃ¡nu
Ã¡iras iid
ĠbajÃ¡sgeass in
Ġfilosof iija
Ġruovttusiid duin
ĠFjell heim
A g
N a
b uo
f est
k iel
l ine
v ugiide
y tt
Ġd arj
Ġg ieskat
Ġs at
ah kke
mi htu
Ġm eass
Ġlea na
Ġv ideo
ĠS Ã¡llev
Ġr est
ĠÄį iv
od Ã¡si
ast Ã¡n
Ġst Ã¡vval
Ġk nowledge
Ġnu mmar
ud ui
Ġgeavah eaddjiide
Ġnj uos
Ġkon s
ĠÃ¡ Ã³Ã³
av ii
le gg
Ġoahpahus rÃ¡ÄĳÄĳi
ĠmearrÃ¡dus Ã¡rvalus
Ġ29 0
Ġhuksen lÃ¡hka
Ġbeaiv eg
ĠhÃ¡r ven
ĠvalÃ¡Å¡t allama
Ruo Å¡Å¡a
95 2
Ġgill Ã¡
ĠCh ar
Ġsihkk ut
Ġoadje b
ĠÄįo gg
vÃ¡ttis vuoÄĳaid
Ġdemon st
F aks
U t
p eal
Ġs canpix
in sen
ĠS Ã¸
Ã¡id di
Ã¡v rris
ĠrÃ¡ pp
Ġgiella stivra
pr en
Ġbea kkÃ¡n
barg iin
oam as
ĠealÃ¡hus doaimma
Ġ15 2
Ġboazodoall os
Ġvuoll eb
ĠdÃ¡v iste
ĠruÄĳ aiguin
eri a
ĠvuoÄĳÄĳud uvvot
jÃ¡r gii
Ġstud y
Ġ36 0
ĠbearraÅ¡ iid
ĠmeahcÃ¡st eami
Ġgonagas reapp
Ġbii re
mÃ¡il mmis
ĠÂª at
boaÄĳ ut
ĠdÃ¡ruiduhttin politihka
Ġvigg Ã¡
Ġger ddiid
anal ys
ĠProte ct
ĠGÃ¡ldd oaivvi
Boah tte
F ax
l ean
l und
id eaddjit
us te
in er
Ġb adjes
is ere
ka i
ĠG ull
ĠO vtt
da v
bb e
Ġnu ba
ĠH Ã¡lddaÅ¡
Ġgeavah eames
Ġber ret
10 3
Ġoahpahus giellan
ef atn
Ġfor skning
ib me
20 6
ans uohkan
Ġ14 1
oan dda
Ġguovllu guovdasaÅ¡
Ġid ja
ĠrÃ¡ÄĳÄĳehus sii
lÃ¡g aid
In terreg
Ġeahp eform
meahtt umat
ĠVuoÄĳÄĳ oskuvla
Ġjoht il
Äįoa kkÃ¡ma
ĠMus eat
pers ovnna
ĠdÃ¡idd amusea
orgÃ¡n ain
vÃ¡ikkuh usaid
Ġordn ejuvvon
hp ehtimmi
Ġbiegga mill
ĠÃ¡kkast allat
Ġkonse Å¡uvdn
MÃ¡Åĭ gga
Ãģrvv oÅ¡tallan
ĠrÃ¡n nj
|âĢĿ }
ĠDiht or
M E
P h
S kovvi
l en
n os
t id
Å Ĭ
Ġ up
Ġb eahc
vv Ã¡r
ll em
Ġr uonÃ¡
or Ã¡Åĭ
ku mp
ÄįÄį et
de p
ĠG Ã¡vdnojit
oÅ¡ keahttÃ¡
ĠJ y
oahp ut
ist Ã¶
mus eum
Ġkultur Ã¡sahusaid
Ġt ra
Ġnamma deapmi
Ã¯ ev
Ġhistor jjÃ¡laÄįÄįat
plÃ¡n en
Ġfitn an
ac k
ĠgieÄĳah allojuvvojit
ĠvuoÄĳÄĳo oahpahussii
FinnmÃ¡r kkul
iht us
Ġ196 3
anl Ã¡vdegoddÃ¡i
Ġ................ ....
Ġoam astit
ĠÃ¡lki but
Ġgirjer Ã¡j
Art ihkkalat
ĠIeÅ¡ mearrideapmi
Doaibma bijut
ĠMaÅĭ emus
ĠRo ald
Ġatt Ã¡Å¡ii
Ġnjuovv at
Ġinvestere mat
Ġgidde juvvon
rÃ¡vv agiid
ĠsÃ¡hkavuo rru
Ġï ģ
anal ysa
Ġassi mil
S H
b Ã¡hp
c ts
e konomiija
s osiÃ¡la
Ġb istt
ĠS elle
Ġn oaÄĳÄĳ
ih tÃ¡n
Ġgea vvÃ¡
ĠR Ã¡vis
da lan
do i
ĠvÃ¡r as
add et
Ġoahpah eapmÃ¡i
Ġar ena
Ġeanet loh
ĠsÃ¡me nuoraid
Ġul bm
ddj on
Ġ15 8
Ġovttasbarg os
Ġorganis eremii
Ġgaska omiid
ĠoaÅ¾Å¾u mis
Ġbiss ot
ceal kka
IN N
ff a
ĠberoÅ¡t usat
ĠbearraÅ¡ at
tem ber
Ãģr valus
ĠmÃ¡Åĭggabealat vuoÄĳa
IR RA
Ġpsy k
Ġluossa bivddu
Ġdeavd Ã¡n
Ġoainnus mahttit
Ġinvestere miid
Ġjotk ojuvvot
ĠmÃ¡ll et
dr ag
ĠbÃ¡lvalan bÃ¡iki
Ġmohtorgiel kk
Ġfuon es
ĠVearr o
Ġoagg un
Erenoam Ã¡Å¡
M Ã¡hte
d eamit
d eaÅ§alaÅ¡
h ko
k ere
o ÄįÄį
ii ge
Ã¡s asj
Ġf igg
Ġh eah
vdd ut
ĠSÃ¡medi kkiid
ed uopm
ĠB od
ĠK ommi
Ġal bman
Ġgiella lÃ¡hka
ĠdÃ¡rbb aÂª
Ġvuoll Ã¡ib
Ġdovd omearka
tes te
ĠMÃ¡nÃ¡id Ã¡ittardeaddji
ĠÃ¡iras iin
vÃ¡ll je
uopm Ã¡Å¡
ĠÃ¡rbevier uide
ĠlÃ¡vdego ttiid
ĠEn ger
Ġdoaibmag uvlui
eahp ed
TT I
ÃµÃµ rt
Ã¥v ro
Ġguoskk ai
esen ta
ĠhÃ¡st alusa
emihtt omearit
ĠEanan doallu
vut nii
Ġritt u
odu ction
ĠdiÅĭg ot
Luonddu guovddÃ¡Å¡
ĠgÃ¡vpp Ã¡laÅ¡
vuoig ad
Ġfen omen
A k
R ep
d idh
s kovvi
t il
la us
Ġl Ã¡h
vv o
ĠS al
or sk
ĠM oai
ĠG uorahallan
ĠN uorra
eal is
Ġdo la
ov is
Ġ19 2
ĠÃ¡ig Ã¡
Ġfuo bm
ĠÃ µ
Ġse ktor
oavkk uin
Ġluoh p
lis e
Ġintern Ã¡htta
ĠberoÅ¡t an
Ġresurs ahÃ¡lddaÅ¡
Ġskuvlah istorjjÃ¡
Ġrihkk un
ĠLullis Ã¡mi
Ġjog ain
ĠjÃ¡n dor
Ġpetrole um
ĠNuss ir
G Ã¡
N BR
V al
Ġ Ð
Ġmi kr
eah taid
ĠN I
ĠE ks
ĠL eh
ĠsÃ¡meg uovllus
ĠV I
Ġ19 0
ob u
Ġduo n
Ġduo jÃ¡ra
ehus aid
Ã¡ig u
Ġgu ktii
ĠC oll
iras at
oahpah eami
eas tad
Ġre indeer
Ġgovv iduvvo
Ġdovdd u
ĠÄįÃ¡llin vuohki
ves teren
ĠÅ¡iehtadus at
ĠdieÄĳih a
Ġmass e
Ġohcc iide
Ġ195 9
ĠLa w
Ġmea tt
Ġbeas at
ĠArt ihkkal
ĠinstituÅ¡uvnn at
ĠFil ip
Ġgoapp Ã¡t
Julev sÃ¡megiella
ĠBier gasat
d eaddji
vv it
ar it
ag oahtit
ma i
ĠÄį or
od uk
Ġvuo itu
Ġgo vas
ot jeakki
ĠR ai
ĠE atna
ĠJ Ã¡noÅ¡
ud eami
ra v
ing ea
ĠÃģ kÅĭ
ĠÃ¡Å¡Å¡ elistu
Ã¥ nd
Ġkon fir
ĠsÃ¡me politihkas
eb e
eas kka
Ġboazodoall opolitihka
ĠÃ¡lgoÃ¡lbmot julggaÅ¡tusa
dah ka
ĠSÃ¡megiela id
ovttas bargui
vuogÃ¡d agat
ĠfÃ¡l lan
ejumi t
im mis
Ġjoatkka oahpu
RA T
IR U
Ġservv odat
ĠÃģv Å¾Å¾
Trom ssa
Ġbill ist
ĠlÃ¡vv ardaga
Ġkl Ã¡ssa
ehk iide
ĠGov us
Ġbeavtt Ã¡lm
inguist ic
ĠÃ¥vdÃ¥s vÃ¡sstÃ¡dus
E K
J O
j Ã¤r
k ob
l uohk
Ġo per
Ã¡l lat
ĠS R
Ã¡n da
ol ingvisttalaÅ¡
ÄįÄį Ã¡
Ã¡id du
ĠO Äĳ
ra pp
Ġt ja
ĠÃ¡rvv o
op e
ĠealÃ¡hus doaimmaid
ĠÃ¡ but
Ġmearrid edje
19 10
vuoigat vuo
Ġge ogrÃ¡falaÄįÄįat
olog i
Ã¢ jj
ida kt
Ġeami t
ĠplÃ¡n ejuvvo
Ġdu iska
ĠÄįilg ejuvvojit
Ġvuost Ã¡la
ĠJoh annes
ĠjoÄĳih ii
ĠNu pp
ĠKÃ¡r en
pros essii
Ġeaktu dit
Ġrievtt it
Ġident itehtas
Ġguhkes Ã¡igÃ¡saÅ¡
Ġrahp asa
ksa men
ovddasvÃ¡st ideaddji
ĠOvdd asvÃ¡stÃ¡dus
ttp ÃµÃµrt
oar eÃ¡la
oguo vlu
joÄĳihango ddÃ¡i
enn Ã¤ring
heiv ehit
Ġbier ggu
ĠjÃ¡hkk Ã¡
bmag olut
ĠmÃ¡Åĭggaid logu
ĠinstituÅ¡uvnn aid
ÄįÃ¡z Ã¡daga
Ġdiimm uid
ĠhÃ¡bmej uvvot
vok Ã¡hta
ĠChrist ian
As lak
Ãģrbev irolaÅ¡
Ê¹rbbvuÃµ ttpÃµÃµrt
I nn
I PO
L uo
S Ã¡l
S um
S tud
c ar
h Ã¡rjeh
i mm
Ġs el
Ġs og
it us
al ta
te or
Ġn ohka
ut ka
il ii
Ġgea iguin
Ġp as
ul la
ul dal
Ġk rimin
Ġdah kki
ĠÃģ vd
Ġfuo tn
ĠlÃ¡hka Ã¡sah
Ġvuostt amuÅ¡
ĠgÃ¡r ttat
Ġstiv rema
ovnn alaÄįÄįat
ĠDuo ÄĳaÅ¡t
ĠÃ¥ ad
Ġeaktu duvvo
ode partementa
ĠvÃ¡rre lahtut
ĠKar en
ĠÃ¡igumuÅ¡ at
Ġuniversitehta in
ĠbearrÃ¡igeahÄįÄį anlÃ¡vdegotti
Ġpsy ki
ĠÃ¡rbevir ola
ty po
iipp aid
ĠvuoÄĳÄĳog Ã¡l
ĠÃĦ Ê¹rbbvuÃµttpÃµÃµrt
Ġbukta gat
ĠrÃ¡ÄĳÄĳeadd in
SF S
ĠdÃ¡Å¾ aid
Ġkruvdn ui
vuoj Ã¡h
bass ad
Ã¡Åĭga v
L Ã¡ga
c ep
j earah
p hp
u me
Ġo aid
ĠS Ã¡mm
Ġvuo vddi
eh aga
ĠM ihkkal
tn jii
Ġ0 21
Ġean Ã¡Å¡
ĠÄįuo djÃ¡
Ã¡j is
ddar is
Ġ17 9
Ġvuoll eg
ĠÃ¡dd ejumis
Ġdahkk ojit
Ġer iid
âĢ¦ ]
ĠOvd Ã¡n
Ġoainn at
ĠlÃ¡hÄį et
ĠgohÄįod an
ĠfÃ¡rr ii
Ġjienast eaddji
Ġfoan ddas
Ġlohkk ojuvvojit
Ġtear pma
Ġce gge
ĠollaÅ¡uhtt Ã¡
ĠlÃ¡hÄįÄį ojuvvo
mÃ¤ ki
Ġkolon i
ĠMinerÃ¡la lÃ¡hka
ebÃ¡hpir at
Ġglob Ã¡la
ĠSaemiedigk ien
ĠovddeÅ¾ is
A d
K al
L ohkan
M iessemÃ¡nu
S II
p s
ah uksen
as uohkan
Ġo alg
Ġm om
Ġb uss
dd Ã¡
ii lo
te juvvon
ĠS ierr
iv at
iv itehta
ĠB eal
ĠL uoh
ĠV II
mma i
no Org
ĠÄĮ OAHKK
Ġviid Ã¡but
Ġevttoh uvvojit
ovd nii
Ġgieldd us
est ohpu
Ġboazodoall olÃ¡gas
Ġjag iide
Ġguovtt is
ĠfÃ¡g ar
Ġseamm as
Ġeavtt uiguin
Ġluo ikan
lass i
Ġeatn an
uovv ova
ĠSk j
Ã¡sahusa iguin
Ġstob us
Ġtear pmat
ĠjÃ¡ mma
Ġboazog uohton
Ġmiellahtu id
ĠStiv rra
ĠvuoÄĳust uvvon
Ġkonkl uÅ¡uvnn
Ġgilvv oh
ĠKautokeino Norga
ĠMÃ¡z e
Par tner
kandin Ã¡v
ĠsÃ¡tnev Ã¡dj
byr Ã¥
agercran tz
J E
v isti
Ġ Ã¤Ã¤
Ġd Ã¡Å¾at
mi tehta
Ġf Ã¡la
oj umi
ĠL Ã¡hp
Ã¡st us
gi f
Ġkultur guovddÃ¡Å¡
ĠÄĮ ie
olog ala
ĠÃ¡sah emiin
rie gÃ¡dan
ĠhÃ¡lddaÅ¡an lÃ¡ga
ĠhÃ¡lddaÅ¡an plÃ¡na
Ġdi gge
ĠolmmoÅ¡ vuoigatvuohta
Ġdag u
Ġnisson olbmuin
oht alusa
ĠvuoÄĳÄĳud eapmi
Ġbuvttad eamis
Ġ00 9
Ġlundd olaÂª
Ġel fÃ¡pm
Ġregistr ere
Ġrahp ama
Ġfylkkasuohkan iin
ĠvahÃ¡g in
ade partemeanttas
Ġmovttiid ahttÃ¡
uw ot
Ġmolssa eaktu
SÃģM EDIGGI
ĠdiÄĳ olaÅ¡vuoÄĳa
Ġkulturr Ã¡ÄĳÄĳi
ĠmolsaÅ¡ udd
ĠFuo mÃ¡Å¡
ĠgeahÄįÄįan guovllus
Ġdoaiv u
Ġag Ã¡la
ĠGuolÃ¡st an
ĠsÃ¡tner igg
Ġsol idaritehta
ohtt age
ĠUniversitet sforlaget
. _
S te
S ervodat
a kk
h Ã¡bme
ĠS il
ad eamis
ĠB ieht
ev uhtii
oahp agat
ud eaddji
om Ã¡t
re m
Ġgiella ealÃ¡sk
ahk Ã¡i
oav k
Ġbuor ideami
stt e
ĠmaÅĭÅĭ Ã¡go
Ġ18 5
Ġjoh ti
Ġruhta duvvon
ohk is
ic e
ĠvuoÄĳÄĳud eami
Barg it
ĠfÃ¡ga olbmuid
Ġ196 2
gr unn
ĠÃ¡lgoÃ¡lbmog a
Ġ195 8
jahk Ã¡saÄįÄįat
Ġtj Ã¯el
Ġspesi Ã¡la
istar is
ĠgÃ¡ld uin
Ġolmm Ã¡i
Ġarkii vva
rÃ¥d et
ĠdassÃ¡Å¾ii go
ĠBuor it
Vuor uheamit
Ġokti laÄįÄįat
ĠeaiggÃ¡duÅ¡Å¡ Ã¡
ĠveahkavÃ¡ldd Ã¡laÅ¡vuoÄĳa
B erg
K ir
g it
w o
x ic
Ġ ub
Ġs al
aÅ¡ iid
Ġf ir
Ġh Ã¡sta
eg h
ĠM agn
ĠG uohtun
ĠO vttad
pp o
par adig
ĠK ieh
Ġde partemeanttat
barg ob
Ġbuor ida
ĠvÃ¡ikkuh usa
ĠmaÅĭ os
Ġbargg olaÅ¡
ĠvuoÄĳ uÅ¡t
Ġjoh tt
eavah eapmÃ¡i
ĠplÃ¡n e
Ġet h
kur ssat
In ger
Ġceavz it
Ġro gga
ĠStuoradi ggÃ¡i
VA L
Ġpsy kalaÅ¡
ĠMedi a
opp alaÅ¡
Ġduoddar is
mÃ¡ks u
Ġgahp ir
Ġbark edh
ĠFitn odat
ĠKekk onen
ĠKulturmuitos uodjalus
Å¡ill ju
Ruvdnapr insa
ĠNuorttanas te
ĠOx ford
B al
M anne
S Y
l ige
ea la
Ġl Ã¡ss
Ġr ibahis
ag eav
Ġn eahta
Ġh Ã¡pmÃ¡i
ahp ir
Ġgo ahte
Ã¡d agaide
ĠG ur
alla miiguin
ĠO arj
ĠB en
ĠÃ¡l ot
ĠÃ¡r t
Ġpr aks
lah ti
mus ihkka
ĠT odal
ĠÃ¡Å¡Å¡ Ã¡sk
Ã¡tt ut
vuoigat vuoÄĳal
Ġgol mm
Ġoaivvil dedje
Ġoahpponeavv op
ĠmÃ¡Åĭgga bealÃ¡t
Ġmihtt u
ĠvÃ¡ldd ahit
ĠY llÃ¤s
uodjal eami
reg istr
ĠÄįie gus
ĠKrist iina
Ruo vtt
vuoÃ° as
Ġavii ssaid
Ġoahppog irjjit
ĠlullisÃ¡megiela s
ĠKan ada
geahÄįÄį al
Ġluohkk Ã¡la
ĠpolitihkkÃ¡r at
ĠKonferÃ¡n sa
Ġkommi Å¡uvnna
ĠStock hol
ĠEurop ean
m und
Ã ĸ
ea Äĳ
Ã¡n as
oa dde
ol ii
og iela
alla skuvla
uÅ¡ ta
ĠV u
asa vv
sa metinget
Ġkultur eallin
met oda
Ġbargg uhis
ĠsÃ¡me vuoÄĳa
ven tion
ĠC ultural
Ġ15 7
ĠdÃ¡rbbaÅ¡ meahttun
li a
mearr ideami
ĠvÃ¡s tesaÅ¡
ĠfÃ¡g al
Ġof f
ys pace
Ġgeatneg ahttet
Ġviidd ideami
Ġloahp ahit
Ġdul kka
ikÅ¡ un
ĠjÃ¡v kÃ¡
ĠareÃ¡la t
Ġjorgal emiid
edieÄĳ uid
Ġvuoruh emiide
Ġdiehtoj uohk
Ġintern Ã¡hta
var t
Ġvuolgg ahan
ĠvuhtiivÃ¡ld Ã¡
Ġjearah allon
ĠEl gÃ¥
ĠTe kn
ĠDoai mmat
Ġguodd evaÅ¡
ĠVÃ¡ld odoaimmaheaddji
Ġduovd agiid
Ġnanus m
ĠruoÅ§ Å§
Da kkÃ¡r
ĠÄįatnas an
ĠStatist ihkalaÅ¡
'' ''
Ġalmenn et
ĠdÃ¡lve oroh
ĠGuovtteg ielat
Ã¡k ca
Ear ret
ĠNuuks io
" "
B uol
b men
c ip
e muÅ¡
g od
k ieli
s osi
u ta
y ll
Ġj ug
Ġl Ã¡j
Ġr uonas
Ġn aÅ¡
ut val
ĠG ran
st al
vah Ã¡g
ĠV el
Ġoahpp iin
Ġdoarj agiidda
ko artta
sk ole
Ġ13 1
ihtt alis
Ã° i
18 1
Ġbiras politihkka
Ġ23 2
Ġriekte dilli
ĠÃ¡vkk Ã¡laÄįÄįat
Ġet nalaÅ¡
ĠÄįoahkkin joÄĳihangotti
Ġgaskk aid
Ġovddast usa
ĠjurddaÅ¡ eapmi
ild osat
ovdÃ¡n ahttima
ĠfÃ¡ll ojuvvo
Ġgill Ã¡jit
Ġartihkkal iin
Ġhut kÃ¡s
Ġsuomagiela s
Ġjearald aga
ĠOlgor iikk
Ġmuos eh
ĠRiika antikvÃ¡ra
Fylkk amÃ¡nni
ĠPal tto
guovtt os
ĠBÃ¡z ahusfuolahus
Ġjitn osit
D ain
M yspace
O arje
S eminÃ¡ra
n ar
o Å¾a
Ġb uÄĳ
oh pot
ĠD uor
Ġvuo llin
Ã¡d in
Ġoahp uide
ĠO M
ĠA N
ĠA strid
ĠK vernmo
Ã¤ Ê¹
sa me
Ã¸ k
ĠlÃ¡g ideami
ĠealÃ¡hus doaimmah
laÄįÄį amus
Ġ18 9
oahpp ofÃ¡lald
ĠsÃ¡megiel mÃ¡htu
ĠlÃ¡v ii
ĠgieÄĳ aid
ogas ka
duo dji
suor gÃ¡i
asta gas
ĠprogrÃ¡ mmii
ĠmeahcÃ¡st eapmi
ĠSo lli
ĠsÃ¡tneg irjji
Ã°Ã° i
Al it
ĠhÃ¡st alit
ĠOass emihttomearri
Ġlinn jÃ¡
ĠkonsultaÅ¡uvdn aÅ¡iehtadusa
Ġmetod aid
ĠjÃ¡h ke
vistt iid
ĠgÃ¡rren mir
ĠMur mÃ¡n
Ġmehc iin
ĠÃ¡rbem Ã¡htu
8 00
W G
tt j
vv us
Ġv id
vuo rru
ĠV Ã¡ttis
Ġboaz ol
Ġt juo
ĠdÃ¡s sen
Ã¡ht aide
vuoigat vuoda
Ġsierra bibliotehka
ala Ã³
Ġ16 6
Ġorganis eremis
ĠÃ ĸ
Barg ojoavku
Ġsk ole
UO R
Ġoroh agaide
oavd an
ĠRi vtt
Ġsisab eassan
dih to
Ġbovd e
Ġloahpp aj
ĠealÃ¡sk ahttima
art ihkkal
ÃµÃµ Å¾Å¾
Gu ttorm
riikk as
lob iid
obargg us
huks ema
Ġboazodoallog uovllus
Ġsymbo la
Ġkven a
Las Ã¡hus
ĠlÃ¡gÃ¡dus aide
ĠEaren oamÃ¡Å¾it
ĠfÃ¡gagirjj Ã¡laÅ¡
Ġruovd em
ĠoahpÃ¡sn uvvat
Ġakade malaÅ¡
RuoÅ§ as
ohpot iippat
D Ã¡in
S ch
d earvvuoÄĳagat
r iv
v ain
y st
Ġb Ã¡hppa
ag oahtÃ¡
Ġn Ã¦nn
je e
Ġ2 15
ol Ã¡ra
Ġguo ttet
ig iellan
Ġ( =
da j
Ġa al
Ã¤ h
Ġmuh timin
ĠÃ¡Å¡Å¡ es
bi bliote
Ġserv oÅ¡a
atn ui
ĠÃ¡rvvoÅ¡t allamiin
Ġ16 1
Ġsearv Ã¡i
Ġluo iti
Ġdieht oa
Ġpolit ihkkas
ĠStuorradi ggedieÄĳÃ¡hus
ĠvÃ¡id alit
Ġbargo vuohki
Ġgeas us
Ġfievrr edit
miel ddus
Ġintern eahta
hk osne
Ġgirje ÄįÃ¡lliid
ĠOvdd it
ĠvÃ¡sih usat
Ġjienast eami
Ġolgor iikk
ĠHar t
Ġdokumen ta
ĠstÃ¡htabuÅ¡eah tta
ĠMÃ¡n Ã¡
ÃģH US
Ġ88 0
Guovdagea innus
Er ohus
ĠBoah ttevaÅ¡
ĠÄĮuj uhit
ProÅ¡eavtt a
Meahcir Ã¡ÄĳÄĳehusa
Ġrelatii va
G uovv
P a
s Ã¡niid
v n
ea ttu
Å¡ e
la Å¾
Ġj Ã¡hkku
Ġb Ã¡hpp
is it
eg uovlluin
Ġguo tt
Ġp lan
kt isa
ĠA Å¡Å¡i
ĠÃ¡r ab
ĠV ear
Ġpr p
Ġma a
Ġin ven
ĠlÃ¡g Ã¡dusa
le m
Ġsuohkan stivra
ovd a
Ġohc ans
Ġdohkkeh eapmÃ¡i
eas ka
oahpp oplÃ¡n
plÃ¡n ema
Ovdd idit
Ġboraspir el
ĠÅł uo
ĠgÃ¡rvv istit
ĠKrist ine
ĠHe mmo
suohkan at
ĠalmmÃ¡i olbmot
Ġmilli jovnh
ĠBoar rÃ¡s
ĠÄįeahp it
Ġgaskaoa pmi
Ġab st
Ġlistt us
ĠJuh Ã¡n
Ġvuosteh Ã¡g
ĠJohttis Ã¡pmelaÄįÄįaid
pect ive
Ġoaff ar
/ .
F oto
V ah
s ull
u ppel
Ġ Ç©
Ġ este
Ġg itt
vv al
Ġv s
Ġv uittii
ĠS h
ĠS anila
Ġf Ã¡hkka
ka mpÃ¡n
un st
ĠB eass
ĠJ ovnna
bma dit
ĠdÃ¡n in
Ġjuo ba
Ġsiid dat
doai bmi
kat t
ĠÄĮ Ã¡r
Ġbu kte
ĠDat tege
idj an
Ġguorah allamii
Ġsaj Ã¡dahkii
Ã¡dj Ã¡i
aguo lle
ĠOahpp an
Ã¡rvv ut
eaigg Ã¡diin
ovttas kas
ĠvÃ¡llje ma
Ġjuogad uvvojit
ĠGa Å¾aldagat
io divers
ĠDi ggi
ĠhÃ¡ll it
Ġtj Ã¥ang
kor o
art ihkkala
ĠÃ¡vÅ¾Å¾uh uvvojit
ĠgÃ¡rvvist uvvot
ĠfÃ¡m uid
Meahcc e
luondd u
ĠfinÃ¡ns alÃ¡vdegoddi
Ã¡hto laÄįÄįat
Ġten d
ĠSoabb ada
j je
m asa
y er
Ġp an
oÅ¡ it
ĠB IRRA
Ġ19 29
ĠSt ohpotiippat
Ġboah tti
Ġ% :
Ġrievdad a
Ġdutkan departemeanta
Ġ17 4
Ġdu jiin
ĠDo arjagat
ĠviidÃ¡s eabbot
Ġbearr Ã¡i
Ġmihtt un
ĠduoÄĳaÅ¡t eapmi
uovv ovaÅ¡
Ġmieh tat
Ġso cial
viid d
Ġfylkkasuohkan is
ÃģM MA
Ġoam asta
Ġro gg
Ġek ologalaÄįÄįat
Ġkont eaksta
ĠdiÄĳ olaÅ¡
Ġkulturr Ã¡
ĠFil bma
Ġsuokkar dit
ĠQ u
Ġdej tie
ĠOan ehis
Ġsuoidne mÃ¡nus
ĠKieh inen
K or
S tobut
T uri
g ust
m ÃµÃµÅ¾Å¾
n an
n anne
Ġ ilg
id di
Ġs elv
ah kki
Ġb os
vuo stÃ¡ivÃ¡ldi
ĠÄį uor
ĠO uti
ĠL uon
ĠâĢ Ĳ
ĠV ÃģIKKUH
ĠK nowledge
ĠT om
Ġnj eall
Ġduo ttarg
ĠÄįÃ¡ll ot
ĠÃ¡rvv uide
ik Åĭ
ana ar
Ġ16 3
ĠPr ogrÃ¡
Ġlog uin
ĠhÃ¡lddaÅ¡an ovddasvÃ¡stÃ¡dusa
Ġboahtte vuoÄĳas
Ġunnit loh
Ġeatn asat
ac t
lÃ¡g Ã¡dusa
Sa mmallahti
Ġduohta vuohta
Ġmeahcceg eavaheami
Ġbuhta d
Ġbuhta dit
gr Ã¡d
Ġdearvvas vuo
Ġregi uvnnas
ĠprogrÃ¡ mmat
bodd osaÅ¡
Ġturis mma
ĠSe it
Ġbuh tes
Ġvurd ojuvvon
ĠBargg u
Ġlanj as
Ġpriorit eret
ĠBadje l
Buor it
ĠÅ¡iehta dan
valtn ing
ĠMuitt Ã¡n
ĠLeav nn
Ġalkoh ola
p ens
r Ã¤tt
v ss
v earr
mi eh
Ġv ud
laÅ¡ il
uh uvvui
ĠD al
eg at
Ã¡d is
Ġp ass
alla m
Ġst o
Ġdah ku
ĠV o
ĠSÃ¡mi in
ne tt
guo vtteg
Ġboaz obarg
Ġt s
ĠdÃ¡l on
ĠÄįÃ¡ll imis
va Å¾Å¾an
Ġbuor iduvvot
Ã¡pme la
ĠsÃ¡medi kkiiguin
ĠU pp
ĠhÃ¡l do
Ġvuol gga
Ġbeal jeh
Ġ14 6
arv i
bÃ¡i ken
ĠsÃ¡gast allamii
Ã¡vss alaÅ¡
Ã¡rvv us
ĠvÃ¡id aga
Ġkulturmuit o
Ġbir ass
gea tneg
ĠSk Ã¡nit
ĠhÃ¡bme jit
ĠvalÃ¡Å¡t allamii
Ġil latii
ĠdieÄĳih ii
sÃ¡me politihkalaÅ¡
Ġguovttegielat vuohta
ihkkÃ¡r iid
ihpp agat
Ġprof eÅ¡
Ġpasi eanttaide
Ġrievdd ai
Ġvuolggasa jis
ĠsÃ¡htÃ¡Å¡ e
âĢ¢âĢ¢âĢ¢âĢ¢ âĢ¢âĢ¢âĢ¢âĢ¢
RÃ¡ÄĳÄĳ elahttu
Eanadoall u
bÃ¡hc aga
ĠgÃ¡dj un
ĠÃ¡hpehis vuoÄĳa
ilingu al
7 00
b og
e isev
j ietn
Ġ ?
Ġj Ã¥
Ã¡n he
Ġr Ã¡hka
ĠD il
el in
el en
Ġgo dde
Ã¡g aid
all is
pp es
ĠE al
ĠE tn
ov en
ob ea
Ġsis doallÃ¡
ĠvÃ¡ld osis
Ġoahpah eaddjÃ¡i
Ġbeal Ã¡t
ĠplÃ¡n aide
ĠmÃ¡ks o
up min
Ġovdanbukt ima
Ã¡vcc alaÅ¡
ĠoahppoplÃ¡n as
ĠeaiggÃ¡d a
Ġmeahcce ealÃ¡husaid
ĠminerÃ¡la lÃ¡hka
gÃ¡ib Ã¡dusat
Ġviess olÃ¡ig
Ġolah a
Ġoskk oldat
Ġaut or
ĠÃģh Ã¨Ã¨
Ġjuoh ku
prinsihp aid
ĠDavvisÃ¡megiellaVÃ¡nddardanÄįuozÃ¡hagat Stobut
irjelas Ã¡hus
paragrÃ¡ fa
ĠRÃ¸r os
Ġbistt ii
G Ã¡r
S d
d Ã¡ssÃ¡i
h u
r un
z ation
Ġg Ã¡ss
us is
an ge
Ġr appor
Ġea dn
ĠÄį eav
oh ki
ĠG eahÄį
ĠB oht
ĠB ures
ĠL assi
Ġbi Äĳ
ĠV Ã¡hnemat
Ġ19 10
ĠF ax
ĠT iipa
Ġgiella politihka
Ġduo mu
Ġkultur Ã¡Å¡Å¡iid
Ġkultur foandda
lan jaid
ĠdieÄĳ uin
................................................................ ................................................................
ĠU hc
dan ne
Ã¡j t
Ġbeal istis
ĠgÃ¡r ta
ĠOahp ahusa
Ġain ge
Ġdieht og
ĠÃ¡dd jÃ¡
Ġortneg iin
akt od
ote kn
Ġoaiv e
ĠVÃ¡r i
oll is
Ġ................ .......
boah tu
Ġ98 1
Ġ56 0
Ġsuodjalan guovlluid
ĠEurohp Ã¡s
ĠsÃ¡tneg irji
davv ig
oÄĳastus as
semin en
ĠBuor et
Ã¡rvvoÅ¡t allama
ĠstÃ¡htarÃ¡ Äĳis
rÃ¡vv agat
Ġkvalit atiiva
Nuorta laÄįÄįaid
Å¡l Ã¡jaid
Ġjuogal Ã¡gan
ĠÃ¡lmmu k
ĠSÃ¡llev Ã¡ri
A v
c rimin
f fi
h kes
m te
r op
r esurs
Ã¡ bb
er hte
et aten
Ġh os
od Ã¡sis
iv al
ej o
ĠR Ãģ
Ġdo lle
ĠL ise
uv rra
cc is
Ġdoarj agii
St uorra
bo tt
Ġdi kkis
ĠjoÄĳih eapmi
Ġ27 5
ĠÃ¡lg in
ĠlÃ¡v laga
Ġrapor ttat
Ġsk ohter
ĠvuoÄĳÄĳo ealÃ¡husaide
Ġgeatnegas vuoÄĳaide
ĠOvd a
Ġbargo vuogit
Ãģl ttÃ¡
omear kan
Ġmovttiid ahttin
Ġut n
ĠBirasgÃ¡htten departemeanttain
fÃ¡pm uduvvon
tipean dda
ĠoahpÃ¡sm uvvan
Ġguov Å¾a
Ġgess ojuvvon
Gir ku
Ġnieidd aid
ĠÃģrb ediehto
ĠKonven Å¡uvdna
ĠheaÄĳ uÅ¡t
ĠjÃ¡n dora
Ġfit ne
ĠMarth insen
L GGA
O le
b ures
e ig
i tta
l Ã¡hki
Ġg ut
Ġb allat
Ġr iv
ad eamit
ĠD A
Ġh y
ear na
ĠA ar
Ãģ LAÅł
Ã¡ll it
ĠV Ã¡ll
ĠNor ske
ĠÂ ³
ĠSt rateg
Ġnuor aiguin
anis ttalaÅ¡
jo urnal
lea Äĳ
ren e
ĠlÃ¡hka evttohusa
Ġ17 2
Ġbuorr Ã¡na
Ġservodat eallin
Ġoas Ã¡last
Ġ24 8
17 7
ĠÄįielggad a
ang eli
Ġgeas uhit
ĠmeroÅ¡t allama
Ġbar t
ehket doalus
ĠvahÃ¡g at
ĠfÃ¡rr olaga
ĠÄįilgehus at
ĠgÃ¡vpog ii
Ġme Ã¤n
ĠvÃ¡n hen
aren aid
Telef on
Ġminor itet
prinsihp at
Rabas Ã¡iggit
ĠbustÃ¡v at
Ġalbm Ã¡id
ĠgirjerÃ¡dj u
Ġovddab eallÃ¡i
ĠlÃ¯ hts
H ar
O O
h ets
m earkk
p mis
Ã¡l e
Ã¡r aid
er p
Ġr y
ĠÄį eahppi
ĠN JUO
Ġst Ã¡
go ll
ĠV ah
Ġ19 48
Ġgiella dili
Ġbargg adettiin
ĠU ni
ĠSÃ¡medigger Ã¡ddi
alis mma
ess ion
ĠBarg it
Ġ24 0
ÄįÃ¡ll osiid
ĠvuoÄĳÄĳud us
ĠsÃ¡gast allamiin
ĠguolÃ¡stus sii
duo dje
dut ka
Ġ196 1
ĠÃ¡igumuÅ¡ aide
ĠTh or
ĠdutkamuÅ¡ at
Ġmass it
ĠvÃ¡i bm
ĠFyl kkasuohkan
Ġjearah allama
ĠÃ¡lbmogiid gaskasaÅ¡
ĠÄįuv get
Ġbist Ã¡n
Ġspiehk ast
kun ta
Ġvuodj in
Ġduopmostuol uin
Ġ× Ł
jorg aleami
Äįuogg Ã¡t
Ġboazodoll iide
Ġseailluh eapmÃ¡i
MaÅĭÅĭ Ã¡
Ġluon dot
Ġiskk adan
Ġbargovea ga
M ovt
R ab
R iikka
g ihtii
o tta
s tud
Ê ¼
uo kkis
ĠS w
ir asa
ut nii
Ã¡st allama
eavtt aid
Ġkon stat
ĠealÃ¡hus laÅ¡
uovll ust
12 9
ihk eles
Ġhuks ejuvvui
nu ppi
Ġ25 2
Ġos kkus
gen da
Ġlihk ah
ĠdievasÄįoahkki miid
Ġvis uÃ¡la
Ġjoatkka oahpahus
Ġdearvvas vuoda
Ġjearah allamiin
iinn aid
ĠHel ene
Ġfin ai
ihkkÃ¡r at
ĠmÃ¡tkk oÅ¡
Ġbadjelas aset
Ġguollebivd o
hÃ¡lddaÅ¡an guovllu
ĠBearrÃ¡igeahÄįÄį anlÃ¡vdegotti
ĠStock holm
BÃ¡i ken
Ġsign Ã¡laid
Ġbargog ohÄįÄį
Å§Å§ ii
Ġruossa las
Kar asjok
namm asaÅ¡
eavcc ageaÄĳ
) )
G il
K O
R F
b otn
c tu
u x
Ġd Ã¡dj
vv uin
er uhta
uh uvvojit
Ġvuo ddo
Ġguo kt
ig ohte
ĠR uot
ĠE isevÃ¡lddit
ev ir
Ġol j
Ġbarg oneavv
ĠF uopmÃ¡Å¡
ĠP oh
Ġnj ui
ĠdÃ¡ ÄįÄįat
ĠdÃ¡ kte
Ġc eahkis
Ġ8 98
Ġserv odagaide
ĠdÃ¡id et
Ġloh pe
ĠÃ¡lbmot dearvvaÅ¡vuoÄĳa
Ġruo kt
ĠlÃ¡hka mearrÃ¡dusaid
Ġ16 4
Ġovttasbarg ojoavku
Ã¸r g
Ġeavtt uhusa
ĠmÃ¡ks et
Ġbohcc uide
Ġse p
fÃ¡lald agas
ĠÄįoa vdd
ÅĭgiruÅ¡Å¡ ans
organis erema
ĠÄįoahkkin joÄĳihangoddi
ksta d
ĠJa mes
ĠcealkÃ¡muÅ¡ as
Ġbargo eallimis
ĠmÃ¡nnÃ¡ vuoÄĳa
Ġohcan Ã¡igemearri
ĠmÃ¡tke ealÃ¡husa
dilÃ¡laÅ¡ vuoÄĳas
Ġgozih eami
ĠLÃ¡hka Ã¡sahus
Ġfin ihtta
ĠollaÅ¡uhtt et
die vas
Ġgudn in
ĠgÃ¡dd e
Ġguollebivd ui
ferte jit
ĠgeaÄĳ gej
Ġgeasuh ii
ietn asa
Oll islaÅ¡
Ġdet Ã¡l
vuoÄĳado arjaga
Ġbeall je
Ġlangu ages
ĠST N
Ġsoah ke
Ġklass ifis
ĠHÃ¡liid an
Ovttasbarg oÅ¡iehtadus
ĠÃ¡rab ajÃ¡sgeass
G EA
N annet
d elÃ¡ga
j ah
l valusat
n g
s Ã¡tn
er Ã¡
vd na
Ġn Ã¡ll
ĠD j
Ġp h
ĠA las
ĠK val
ĠÅ¡ ihtt
ĠT o
ĠÃģ R
ĠoÄĳÄĳ asiid
Ġi vd
ĠÃ¡ b
ĠIn di
ĠÃ¡sah eamis
ĠlÃ¡hka evttohus
mearr in
ĠvÃ¡s edin
sk olen
Ġvuost Ã¡lastit
Ġsir di
Ġvuovd i
Ġeallin oaidnu
Ġet Ã¡hta
ĠvuoÄĳÄĳo ealÃ¡husaid
konven Å¡uvdnii
LA S
duo ji
Ġlahtu ide
Ġintern eahtta
Ġfierpm Ã¡dagaid
ĠReg i
Ġiskkad eamis
Ġheaittih uvvon
dis et
Ġku nn
Ġbier gasiid
ĠÃ¡vd in
ĠmÃ¡hc ahit
ĠÃģh kku
Mar cus
Ġvurd et
ĠFÃ¡g agirjj
Ġdimen Å¡uvnna
ĠGuovtteg ielalaÅ¡
Ġsohkabealle unnit
Ġrohkad allat
ĠlÃ¡vded Ã¡id
Ãģlbmotmeahc it
R es
j s
s Ã¡tni
it er
Ġm uoh
Ġn as
Ġea renom
Ġ2 13
Ġh uman
ĠM iess
ĠB AR
ĠB oaÄĳus
Ġe ko
Ġk oloratiiva
Ġdah kamis
st andÃ¡r
ahtt ot
Ġbarg of
ist us
Ġoa pme
Ã¡ga joÄĳiheaddji
ĠoÄĳÄĳ aseamos
oav ko
ĠPr ivÃ¡hta
Ġ20 8
Ġdu pp
Ġnuoraid skuvlla
lag aÅ¡
ĠsÃ¡g astit
ĠÃģr ktis
ĠÄįoa kkÃ¡ma
Ġdig Ã¡Å¡t
Sa me
Sa emien
ĠsÃ¡gast allamat
Ġluoh te
Ġgirk odepartemeantta
ĠsÃ¡tn Ã¡i
Ġsadj Ã¡sa
Ġeanemus tÃ¡
Kon ven
ĠsÃ¡v aldagaid
Ġjuogad a
reg jeringen
Ġ................ .........
jahk Ã¡sa
Ġminor itehtaid
ĠsÃ¡mediggevÃ¡l ggas
ĠKo mitea
alv el
Ġnubbin joÄĳiheaddji
ĠÄĮuj uhuvvo
oÂª t
ĠSno asas
ĠFoan dda
Vuoigat vuohta
ĠÃ¡igeguovd ilat
H Ã¡lddaÅ¡an
b Ã¡ra
d iehtu
g ieÄĳah
j Ã¥h
s tudean
v ie
v ind
Ġd yn
la r
Ġs ab
Ġv Ã¡t
ĠS oahpamuÅ¡
on t
Ġf eb
Ġgo vl
ig an
ĠN appo
Ġgalg aba
................................ .........
sa miska
Ġt i
ib Ã¡l
em an
ĠbÃ¡l kkaÅ¡
Ġdievas laÄįÄįat
Ġre pr
ĠviidÃ¡s at
Ġfitn odagas
Ġeallin eavttuid
mear is
Ean aÅ¡
Ġbargo ortnega
Ġfylkkagieldd as
aÅ¡uvdn an
boah tima
Ġgie v
ĠÄįÃ¡la mÃ¡htu
Ġgearggus vuoÄĳa
Ġlohkk iid
Ã¡rvalus as
Ġoskk olaÅ¡
Ġdeaiv at
Stuorradi ggi
ĠÃ¡mmÃ¡t laÅ¡
ĠSte in
Ġduovd aga
ĠIss Ã¡ha
Ç¥ Ç¥
ĠBuol bmÃ¡t
ĠGirkon jÃ¡rggas
Ġsulast ahttÃ¡
ĠTrÃ¸nd elÃ¡ga
Ġluohteh ahtti
I t
J ahke
a Ê¹
k ven
n ege
r el
v eh
v ui
Ġg Ã¦r
Ġb uv
Ã¡h kko
ĠS vier
aÅ¡ an
oa dj
Å¾ in
ĠE adni
ur gg
Ġoahpp or
Ġoahpp ov
ĠI jahis
ĠI jÃ¤s
Ġean adat
bi vdd
Ġkultur politihkalaÅ¡
ĠvÃ¡ld ov
10 2
Ã¡b eallÃ¡i
ĠDat te
ĠC eavzilis
12 0
ilg et
Ġsosi Ã¡l
Ġstiv rrain
Ġvir ggiin
bivd iid
ĠfÃ¡ga olbmot
ĠÃ¥ dÃ¥
Ġkonven Å¡uvdn
ĠÄįohkk Ã¡t
Ãħ arjelsaemien
Ġeahp idit
Ġtu t
Ġalmmuh emiid
ning er
ĠMin or
iÅĭ ka
ĠvÃ¡lljej uvvot
fuo ÄĳÄĳ
KA N
Ġheaittih uvvot
Ġteor iijaid
Ġred upli
ĠrÃ¡fÃ¡id uhttin
Ġnamm an
ĠGovva album
ĠsÃ¡rdn un
fatn asiid
ĠsisaboaÄĳ uid
ĠBuÅ¡ eahtt
ĠSveer jesne
kump olÃ¡ra
ĠnÃ¦nn o
D Ã¡bÃ¡laÅ¡
S o
S ÃģL
b Ã¸
g on
ea d
Ġb oaÄĳi
ar as
uvv amin
ag it
ag al
Ġn eavtt
ih to
oh kki
ad emiid
ol las
de ddjiid
ĠG onagassii
earr e
Ġk opiija
ĠÃ¡r ran
mean tan
Ġpr en
Ã¡dus san
Ġkultur suorggis
ĠvÃ¡r j
ĠÄįÃ¡ll ojuvvot
ĠSt ohpu
Ġdoaibma ma
ĠealÃ¡hus Å¡iehtadusa
ko mi
tte m
Ġjahk odat
jj us
ĠdÃ¡b iid
tin u
Ã° ii
Ã¡Åĭ ggu
ĠDÃ¡l v
kantu vrras
kantu vrii
Ġduog Ã¡Å¾is
Ġ45 1
ĠDe c
ĠRÃ¡ issa
ĠgÃ¡l ggat
urd agat
Ġrekru teren
Ġjienast at
Ġjuhkk on
edovd i
Ġlotnolas ealÃ¡hus
Ġriid o
rÃ¡hkad uvvon
ostuol u
fil mmaid
Mus eat
Ġdire ktevra
buor i
Ġarkii vvas
ĠguoÄĳÄĳ Ã¡n
Ġlogah allojuvvon
Ġsuopman iid
Ġoahpaheaddje oahpu
Ġvuoh ÄįÄįan
Ġsirr ejuvvon
ĠBuol bm
Ġbivnn uh
ĠHan ssen
E ks
M edi
b dd
g Ã¡s
m Ã¢
Ġg Ã¡ldu
Ġs pe
kk ain
ii vvas
er ejuvvui
tu pmi
je kt
ÄĳÄĳ at
ĠG Ã¡Åĭgav
ĠB oaÄĳ
rÃ¡ di
ĠL ah
ĠA na
Ġgalg a
Å¾Å¾ ut
ĠK emi
re mii
ihka in
Ġdoarj jo
ĠÃ¡ig odagaid
ri gg
Ġmearrid uvvojedje
Ġvai kk
Ã¡ib Ã¡dusa
ĠÃ¡sahus sii
Ġgovv en
Ġgovv iduvvon
EA N
ĠStuorradi gg
Å¡uvdn ad
ĠkÃ¡r tema
tola gas
ĠrÃ¡ÄĳÄĳÃ¡d allamiin
ĠTh ea
Duo ji
cation s
mÃ¡t kki
ĠFylkk agieldd
ĠKal ohttage
ĠBea ivi
ĠdÃ¡lkkÃ¡datrievd amat
PL ÃģNA
baj is
Ã¡rbevier u
Ã¡lgo Ã¡lbmot
Ġbol es
Krist us
kommun e
ĠkrÃ¥vn ah
B U
H ir
J U
b oazodo
d ieht
k olaÅ¡
m Ã¡htalaÅ¡
Ġ ............
id s
is mma
ag irjji
ĠD GT
Ġf estiv
ut us
Ġp Ã¤Ã¤
ig oahtit
uoh tte
ast Ã¡vval
ĠB OA
Ġst r
Ġ3 25
oahp par
Ġa p
Ġ19 1
Ġ19 4
Ġoahpp a
Ġgiella ovddidan
ĠvuoÄĳÄĳ olÃ¡gas
ab r
Ġmearrid eapmi
ĠmearkkaÅ¡ umiin
and er
ĠÃ¡lbmot mehciid
Ġ18 3
Ġrievdad usa
Ġ17 8
Ġoai vvi
Ġkr Ã¥vnÃ¥
Ġvuost Ã¡laga
Ġdutka mu
Ġnisson a
ĠTr ans
Ġvear bbat
Ġeana eaiggÃ¡t
ĠguÄĳ Ã¡t
ovdÃ¡n eamis
Ġvearr edag
ohc amat
Ġkultuvrras et
fitn odagain
ĠmÃ¡tke telef
ĠÄįilgehus as
tic le
ĠEl ine
Ġgen et
ĠbÃ¡ldd alas
Ġkulturvies uide
Ġob serv
VuoÄĳÄĳ o
Ġimp er
julggaÅ¡tus as
Ġfertii met
Ġcelk ojuvvo
ĠraÅ¡ is
âĢ¦âĢ¦âĢ¦âĢ¦âĢ¦âĢ¦âĢ¦âĢ¦ âĢ¦âĢ¦âĢ¦âĢ¦âĢ¦âĢ¦âĢ¦âĢ¦
Ġkulturmuitor Ã¡
ĠlÃ¡vl un
Ġobj eakta
ĠAllas kuvla
ĠÃ¥vdd Ã¥n
B EA
S ohka
n s
Ġ Ã¡djÃ¡
ah Ã¡bme
Ġj Ã¡pm
Ġl oan
in i
Ġm uinna
Ġb aÅ¡
Ġb od
Ġlea vvan
vuo vddit
Ġn eal
Ġmi illa
od Ã¡lu
iel ggadus
ot ge
Ġguo llen
ss t
Ġp lak
ĠB issovaÅ¡
Ġk ognit
Å¾Å¾ u
ĠrÃ¡ ppa
ov it
Ġ4 40
Ġbo ag
Ġjuo ll
Ġkultur Ã¡sahusat
Ġin f
yl den
maÅ¡ uvnna
ĠealÃ¡hus ovddidan
Ġi vdn
Ġdeh ege
ko miÅ¡uvnna
ĠÄįaÄĳah edje
St atist
Ġruhta duvvo
Ġjien as
ĠBarg ob
Ġre Ã¡la
fÃ¡lald ahkii
fÃ¡lald again
oss odahkii
nd er
Ã¡dj ol
kil d
Ġsird Ã¡sa
ĠÄįuovvol uvvot
ĠÄįakÄį ab
ĠOahpahus lÃ¡ga
ĠDÃ¡id d
ĠEar Ã¡t
res e
Ġlagas birrasis
Ġas p
Ġdaddj ojuvvon
Ġdeaiv idit
ĠGi tta
ĠStud eanta
vatn et
ĠVÃ¡rjj aga
oaivvil da
Ãµr tts
B MA
F iillat
G Ã¡ldut
H K
O la
P ren
i op
s kuvlii
Â ¬
Ġlea Å¡
aid d
rr en
oa inn
Ġh oavda
ĠE skil
ĠA meri
ev u
Ġnu mmir
ĠJ er
ĠV urd
ĠF a
Ġoll e
Ġboaz olog
min erÃ¡la
Ġkultur ean
Ġt eal
ĠdÃ¡l us
va ara
ĠSt ohpui
ĠealÃ¡hus eallimis
aÅ¡uvnn ain
li mat
ĠSa ari
Ġdoa b
ĠDo arj
ĠdearvvaÅ¡vuoÄĳa bargiid
Ġpar all
ĠOl go
Ġearenoam Ã¡Å¾iid
lÃ¡g ain
ĠOahpp o
Ġrolla id
Ġvuoruh ans
Ġduog Ã¡bealde
ĠKar tta
gol mma
ĠÄįoahkk ebÃ¡ikk
27 3
ĠdieÄĳih uvvo
ĠOvdd Ã¡dus
Ġfylkka diggi
Ġ195 2
ĠhÃ¡ll i
fuo lah
ĠbearrÃ¡igeahÄįÄį u
Ġovdamearkk ain
Ġ................................ ....
eva Âª
Ġkont eavstta
VD DA
Ġfidno oahppi
Ġvuoste Ã¡
Ġrom Ã¡na
Ġspiehkas ta
ĠOvttasbargoÅ¡iehtadus at
SN PL
Ġdifto Åĭ
aboaÄĳ ut
crimin ation
Ãµrtts Ã¤Ã¤
G alle
G uovllu
H em
J or
N Ãģ
N iillas
g eg
g osiid
p eri
uh tan
or iikk
ĠG eavv
ĠG IELLA
Ġdo i
ĠÃ¡i go
Ġla vdnje
ov Ã¡zz
ĠP P
ĠÅ¡ lÃ¡jat
min g
ĠmaÅĭ idit
ĠdÃ¡id agis
iteh tan
jo ks
19 70
Ġgull on
and ard
mmi ra
Ġ17 1
ang ehÄį
ub lish
ĠGiella guovddÃ¡Å¡
Ġrapor ter
ĠoaÄįÄį uhit
Ġmear k
Ġnor sk
vuoÄĳÄĳ uduvvon
Ġalmmuh eapmÃ¡i
Ġlag amu
amiid na
ĠDÃ¡r kk
elis tui
Ġrehken astin
ĠÄįuol mmat
ĠvuogÃ¡d agaid
ÅĪ d
boht osat
Ġbohciid it
Ã¡rbevier uid
Ġsearve vuoÄĳa
eder lag
Ġluon do
Ġgirjebuss iid
ĠJu uso
uoÄĳaÅ¡t us
ĠDoarjj astivra
ĠOtn Ã¡
Ġort odo
Ġintr o
Ġveahk adat
Ġvuoigatvuodal Ã¡vdegotti
ĠJorg alus
Norg ii
Ġs ohk
Ġs emi
Ġl un
Ġl Ã¡tt
Ġr usttet
en j
il egas
bm Ã¡s
Ġp la
ĠE as
ĠE mi
ĠL edjen
Ġovdd imusat
ĠH Ã¡r
ann juolggadusat
Ã¸ ra
Ġboah tt
ik op
Ġ16 8
ppe kod
ĠsÃ¡medigg elÃ¡ga
ĠdÃ¡v is
Ġhistor j
ĠvuoÄĳÄĳud uvvi
Ġbiebm obuvttad
Ġlohkan badje
ĠÄįuovvol uvvon
ĠproÅ¡eakta joÄĳiheaddji
Ġmieh te
lis tu
gea in
ĠBoazodoall ostivra
ak eahtes
Ġvis tes
Ġ................ ...
vvat vÃ¡ri
Ġsturr on
vÃ¡ikkuh usat
Ġruhtad uvvojit
suohkan iin
ĠjÃ¡hkk et
ĠBÃ¡i Å¡
ĠBie gga
Ġratifis erema
Ġkv eana
jea ktan
Ġinfrast ruktuvrra
ĠÄįuolbma Äįilgehus
ĠgeavahiÅ¡g oahtit
Polit ik
ĠÃģj luo
Ġlegiti mitehta
ĠÃ¥ll est
ylden dal
B Ã¡
B assi
M earkkaÅ¡
N ielsen
j uvvui
Ġg Ã¡pm
Ġs eah
ah allÃ¡
mi esse
Ġl Ã¡httet
Ġm uorr
ta m
Ġn ji
ih uvvo
og u
Ã¡d assii
Ġp eri
Ã¡g ain
ĠN orr
ĠB Ã¡rtni
ĠE alli
kuvl en
ĠieÅ¡ dovddu
gÃ¡r ta
Ġmo rr
ĠsÃ¡me oahpahusa
Ġte mperatuv
sk ol
Ġovtta olbmofitn
Ġoas us
Ã¡hc u
Ġdoa j
Ġmann i
Ġdiv ras
Ġdovdd ahit
Ġis it
Ġeatn aÅ¡at
okta vuoÄĳaid
ĠmÃ¡htu t
FinnmÃ¡r kk
Ġjorgal eaddjiid
Ġ33 5
Ġcealk agat
Ġri Åĭg
Ġoss odagat
ĠJo atkkas
Doarjja oaÅ¾Å¾u
ĠdigaÅ¡t allama
Ġmuitalus ain
ahis st
ĠgÃ¡l ggaid
Ġdavvig uovllu
Ã¸y a
orgÃ¡n ii
ĠStuoradi kkis
VA H
ĠBir gget
Sea mma
Ġluonddurigg odagaide
ĠÃģi ggi
BÃ¡i ki
dÃ¡hp Ã¡h
Ġsemant ihkalaÅ¡
Äįovd osiid
ĠÃģvjov Ã¡ri
giruÅ¡Å¡ ans
Ġjuv ss
ĠlihttolÃ¡ig oh
ĠoktiigullevaÅ¡ vuoÄĳa
ĠSoaÄĳeg ili
ĠTal ent
K TA
N r
S E
S emin
f inn
f eld
g am
g irjjit
s j
t je
mi Å¡uvnnat
tt or
Ã¡r geaidnu
Ã¡n ttaid
er es
Ġn aÅ¡un
og Ã¡r
ĠG irjjis
Ġst Ã¡Äĳis
ĠV ideo
sa jis
ĠÂ ļ
Ġmu ttos
Ġlass id
and ra
Ġluondd uÅ¡lÃ¡dd
ĠlÃ¡hka Ã¡saheami
kko la
ovnn at
Ġ20 9
Ġluo i
ĠGiella guovddÃ¡Å¾at
Ġko mit
doarj agii
Ġparla ment
Ġfievrr ideapmi
ĠsÃ¡mediggej oavkkus
ĠberoÅ¡t ahtti
ĠbÃ¡ikego dde
Ġpoas ttat
Ġservv iin
Ġveahka vÃ¡ldi
Ġsub je
EG IELA
Ġgr ad
ealah eami
Ġfok usa
Ġsohkabea llÃ¡i
sc ape
ĠoasÃ¡la stit
Ã¾ Ã¾
ĠSÃ¡medigge presideanta
ĠLangu ages
ĠKonferÃ¡n ssa
ĠbÃ¡idn on
ĠNic kel
Ġjaep ien
ĠFuolahus as
! Â»
L at
O vtta
T a
b li
k asa
Ġg onagasa
Ġl ivnn
at tuid
us ti
Ġb ig
Ġ2 11
os iide
el uo
iv an
alla me
ĠN juolggadusaid
ev es
to e
Ġdah kama
Ġpr ote
Ġ19 3
Ġ19 46
men tia
ĠvÃ¡r alaÅ¡
ĠdieÄĳ a
ti ce
eavtt at
ust an
atn an
Ġ% ,
ap u
ĠgÃ¡ib idii
mearr idit
ĠÃģl tÃ¡i
ĠVuo kko
Ġlog at
ejuvvo jedje
Go almmÃ¡t
Ã¤Ã¤ u
Ġun ohas
Ġgovv e
Ã¡ss iid
ĠollaÅ¡ uhttimii
Ġsird aÅ¡
asvÃ¡st ideaddji
ĠNSR a
Ġuhc Ã¡n
Ã¡iddus oahpahus
Ġelektr ovnnalaÄįÄįat
Ġovda laÄįÄįas
Ġriid dut
Ġriika viidosaÅ¡
Ġskov it
Ġneahttasiid dus
ĠdÃ¥ arj
Ġeanavuovdin lÃ¡ga
Ġrastt ideaddji
Ġoahppol Ã¡vdegoddi
ĠDiv Å¡Å¡
ĠRu Å§Å§ii
TrÃ¸nde laga
Ġdievdo olbmot
uovtt u
ĠhÃ¡leÅ¡ tit
Ġovttasdoaibma ma
ĠAnton sen
ĠCar l
H ed
J u
J uohk
S osiÃ¡la
b uss
f ag
f Ã¸r
g alaÅ¡
i Å¡goÄĳii
l Ã¡hkÃ¡i
m ut
r Ã¡da
Ġ ahki
Ġl Ã¡Å¡mm
al da
Ġr uhtas
vd e
ol laÅ¡
Ġvuo du
Ġgo lah
eg iela
all iide
ĠB earaÅ¡
to on
ĠJ urdda
Ã¡vd no
Ġbarg ama
ĠH Ã¡lddahusa
Ġgiella rÃ¡Äĳi
Ġkultur ealÃ¡husaid
kon t
Ġoahpah a
Ġgu ktot
ĠsÃ¡me kultuvrii
Ġrievd ama
pe di
osa Å¾Å¾an
anv Ã¡lddi
Ġmer kii
Ġbuvttad a
ĠGuo v
ĠKultur departemeantta
Ġjoatkkas kuvllat
ĠÄįuogg Ã¡in
ĠJohan na
ĠdutkamuÅ¡ aid
ĠorgÃ¡n as
Ġdearvvas vuohta
ĠkonferÃ¡n sii
ĠgohÄįÄį ut
ĠfestivÃ¡la ide
tipean ddat
VÃ¡l gal
ĠÄĮÃ¡ll iidLÃ¡gÃ¡dus
Ġvies uid
ĠKo mmun
ĠÃ¡Å¡Å¡e Äįuol
ĠBea iv
eatnegas vuohta
ĠÃ¡ic an
Ġfuol kkit
Ġnuortas Ã¡mi
Ġrean ttuid
ĠLog ut
Ġvuoj Ã¡h
Ġjietnad agaid
ĠviÅ¡Å¡ alit
ĠsÃ¡hta Å¡ii
Ġpoten siÃ¡la
O tn
V earr
c ke
l ok
o ul
p es
s und
s Ã¡tneg
Ġs kÃ¡
ah allama
an an
an it
vv uide
Ġmi ige
Ġf is
ol t
el esne
bm as
iv ind
ĠG Ã¡ldut
ĠB ull
Ġk lin
Ġk vantit
Ġmiel kki
ke me
Ġde partemean
Ġ19 06
Ġgeavah emiin
Ġin u
ĠstÃ¡hta fÃ¡pmuduvvon
Ġgol mmas
Ġoahpahus ain
Ġvuor dd
Ġdi agn
ĠÅ¡at tu
anv eara
ies u
ĠlÃ¡v lu
ro gga
Ġ................ ..............
Ġboazo ealÃ¡husa
ĠfÃ¡gas urggiid
ĠMearr Ã¡dusa
Ġ195 3
Ġdorvv olaÅ¡
ĠÄįuoÄįÄį uhus
198 1
Ġguhkk odat
Okta vuohta
andÃ¡r bb
ĠvuoÄĳÄĳoskuvlla in
Ġjearald agat
jer sti
ĠCo mmun
Ġmudde mat
ĠÄįoakkÃ¡ld at
iz ation
Ġbark ose
Ġvearrod ieÄĳÃ¡husa
Guh kes
ĠEvalu eren
ĠGun vor
B MI
D ean
E ur
H eai
S Ã¡pmelaÄįÄįaid
T S
T er
g eal
l Ã¤
la b
Ġs Ã¡laÅ¡
Ġst Ã¡vvala
ĠK i
................................ .............
om ppan
Ġpr ep
ĠdÃ¡r j
ĠP ersen
ĠT an
re e
Ġgas ku
Ġkultur foanda
kon gr
ĠÄįÃ¡ll ojit
Ġdoaibma progrÃ¡mma
ien ce
ĠÃ¡lggah eapmi
Ġ22 6
ĠberoÅ¡ ta
ĠJus tiisa
De la
Ġvear dde
ĠAr ild
Ã¡nn ja
Ġbuhta dan
Ġrea idd
ĠÃ¡id diid
ĠvÃ¡llje mis
vear bbaid
Guo kte
ĠMus eum
ĠSuohkan stivra
Ġsuodjalan plÃ¡na
con omi
Ġ................................ ...
ihpp aga
Ġevalu eret
mar ken
LLA N
Ġih tÃ¡
vuoÏĢ at
ĠÄįielggadus as
ĠparagrÃ¡ fas
ĠraÅ¡ Å¡i
ĠNam ahus
yg ve
Las ihuvvon
Geass emÃ¡nu
ĠAkers hus
mea Å¡ttir
ĠjoÄĳÃ¡n eamos
eahttas oahpamuÅ¡a
Ġnorme ren
Ġyl iop
ĠÃģkÅĭ oluo
ĠKÃ¡ren ina
ĠKartta keskus
D ehÃ¡laÅ¡
F a
f anas
l it
v Ã¡hne
ï ¬ģ
Ġg ui
Ġb eh
Ġb allu
ĠS ohka
ku ru
Ġmi r
Ġh al
Ġvuo ss
eh keg
ĠM Ã¡rkan
da laÅ¡
uv at
Ġnu elesne
st ie
ĠâĢ ļ
ĠV eahkk
kte sne
inn odaga
gi tta
Ã¥ g
sa jiin
ĠmÃ¡nÃ¡id easet
ĠÄįÃ¡ll osiin
Ġvuoigat vuoÄĳ
ĠhÃ¡lddaÅ¡ uvvojit
Ã¡b ir
ĠstÃ¡hta doarjaga
Ġear Ã¡h
Ġovttasbarg og
ĠÃģl bmog
Ġruovtt oluott
Ġ20 7
ch ive
ĠdÃ¡v jjit
departemen tta
anv eig
ĠNu ppÃ¡st
Ġsaj Ã¡dagas
Ġbuvttad us
Ġpolit iij
jÃ¡v rre
Ġet ihkka
duo pm
vuoÄĳÄĳ o
Ġkulturmuit og
medi kki
ĠÅ¡iehtadus ain
mann en
kl ud
Ġjurd agiin
ĠeamiÃ¡lbmog a
,- .
iinn at
Ġfriddja vuoÄĳa
Ġfal Ã¡stallan
vuoÃ° aid
Ġbargob ihtÃ¡id
Ġdire kte
ĠvÃ¡lmmaÅ¡t allan
VÃ¡ikkuh angaskaomiid
Doai mmat
Ġasto Ã¡igg
Ġposi Å¡uvnna
Ulbmil olahusa
:::::::::::::::: ::::::::::::::::
Ġnomin atii
Fuo m
ĠovttaveardÃ¡saÅ¡ vuoÄĳa
ĠahtanuÅ¡Å¡ ama
yndig heten
Ġruohttas at
guos kÃ¡
Ġsep tember
h Ã¡lddahusa
p mus
er ra
oa dus
ĠD emant
ĠG EA
Ãģ II
cc Ã¡t
ĠÃ¡Å¡Å¡ ebÃ¡hp
Ġc ahkk
Ġ000 2
Ġ8 75
op Ã¤Ã¤
Ġovddas teddjiiguin
Å¡uvnn alaÅ¡
ĠvÃ¡l gan
ĠhÃ¡l bb
Ġ15 9
ana mm
Ġboazodoall i
ib uÅ¡
Ġluo me
Ġgil vu
plÃ¡n emis
adoall u
Ġkultuvra v
ĠDuo vdd
ĠGu la
ĠLuondd us
ĠoassÃ¡last imii
ĠlÃ¡hk at
DA N
Ġbagad us
ĠorgÃ¡n ii
oaimmah at
198 7
ĠvÃ¡ kÅ¡
ĠÃģÅ¡Å¡ it
Ġduopm ostuollu
Âº Âº
ĠmÃ¡ttas Ã¡megillii
Ġmolssa eavttu
ĠSe ur
ĠdieÄĳÃ¡hus sii
Ġbuh t
ĠGÃ¡r asavv
ĠgelbbolaÅ¡vuoÄĳ aguovddÃ¡Å¾
Ġ186 3
ĠolÃ¡mu ddui
ĠovttadÃ¡ssÃ¡saÅ¡ vuoÄĳa
ĠGeass e
ĠoahppofÃ¡lald agaid
ĠÃ¡j rrasa
Ã¡f ot
ĠboazodoalloÅ¡iehtadus sii
ĠdÃ¡vd a
ĠDOA IBMA
divÄįÄį ii
eahÄįÄįa lan
Miella htt
ĠPsy ch
Boar es
ĠJal vi
Ġoaid ne
M Ãģ
a met
p le
s aid
it al
Ġmi es
el y
Ġgo ike
ean tas
tta la
Ġovtt astus
uÄĳ eg
pr otokolla
Ġorg ana
laÄįÄį aiguin
Ġte Ã¡htera
of on
imus tÃ¡
ĠfÃ¡g ad
Ġhea itÃ¡n
Ġeavtt u
Ġbures birg
muit alusat
Oahp pi
Ġviidd iduvvo
ĠÄįoahkkin plÃ¡na
ĠoÄĳasm ahtti
Ġgoa ppe
Ġnanne miin
ĠeamiÃ¡lbmot vuoigatvuoÄĳaid
meahttun vuohta
Kon ferÃ¡n
ango tti
Ġjoatkka oahpahussii
ihp ut
skuvlla in
gÃ¡ib Ã¡dusa
Ġmuhtu massii
Ġservv iide
Ġlihkost uvvÃ¡
Ġmunn o
Ã¡rbev ierru
ĠBÃ¡i kegodde
guh kes
Ã¡vvir iid
ĠPlÃ¡n en
Ġseail u
ĠOÄĳÄĳ asis
ĠmÃ¡ll iid
Ġrohk osa
ĠÄĮeavet jÃ¡vrris
Ġgrammat ihkalaÄįÄįat
evies us
Ġvuoitt u
stuor Ã¡t
oÅ¡e kte
oahpponeavv uid
Ġreflekte ret
Ġsyste mat
ĠFuopmÃ¡Å¡ umit
B earrÃ¡igeahÄįÄį
E F
d iehtaga
j ohtalus
Ġd Ã¡lle
ah emiid
Äį Ã¡jeh
dd ji
Ġr Ã¤
[...]
