{
  "version": "1.0",
  "truncation": null,
  "padding": null,
  "added_tokens": [
    {
      "id": 25000,
      "content": "<|endoftext|>",
      "single_word": false,
      "lstrip": false,
      "rstrip": false,
      "normalized": false,
      "special": true
    }
  ],
  "normalizer": null,
  "pre_tokenizer": {
    "type": "ByteLevel",
    "add_prefix_space": false,
    "trim_offsets": true,
    "use_regex": true
  },
  "post_processor": {
    "type": "ByteLevel",
    "add_prefix_space": true,
    "trim_offsets": false,
    "use_regex": true
  },
  "decoder": {
    "type": "ByteLevel",
    "add_prefix_space": true,
    "trim_offsets": true,
    "use_regex": true
  },
  "model": {
    "type": "BPE",
    "dropout": null,
    "unk_token": null,
    "continuing_subword_prefix": null,
    "end_of_word_suffix": null,
    "fuse_unk": false,
    "byte_fallback": false,
    "vocab": {
      "!": 0,
      "\"": 1,
      "#": 2,
      "$": 3,
      "%": 4,
      "&": 5,
      "'": 6,
      "(": 7,
      ")": 8,
      "*": 9,
      "+": 10,
      ",": 11,
      "-": 12,
      ".": 13,
      "/": 14,
      "0": 15,
      "1": 16,
      "2": 17,
      "3": 18,
      "4": 19,
      "5": 20,
      "6": 21,
      "7": 22,
      "8": 23,
      "9": 24,
      ":": 25,
      ";": 26,
      "<": 27,
      "=": 28,
      ">": 29,
      "?": 30,
      "@": 31,
      "A": 32,
      "B": 33,
      "C": 34,
      "D": 35,
      "E": 36,
      "F": 37,
      "G": 38,
      "H": 39,
      "I": 40,
      "J": 41,
      "K": 42,
      "L": 43,
      "M": 44,
      "N": 45,
      "O": 46,
      "P": 47,
      "Q": 48,
      "R": 49,
      "S": 50,
      "T": 51,
      "U": 52,
      "V": 53,
      "W": 54,
      "X": 55,
      "Y": 56,
      "Z": 57,
      "[": 58,
      "\\": 59,
      "]": 60,
      "^": 61,
      "_": 62,
      "`": 63,
      "a": 64,
      "b": 65,
      "c": 66,
      "d": 67,
      "e": 68,
      "f": 69,
      "g": 70,
      "h": 71,
      "i": 72,
      "j": 73,
      "k": 74,
      "l": 75,
      "m": 76,
      "n": 77,
      "o": 78,
      "p": 79,
      "q": 80,
      "r": 81,
      "s": 82,
      "t": 83,
      "u": 84,
      "v": 85,
      "w": 86,
      "x": 87,
      "y": 88,
      "z": 89,
      "{": 90,
      "|": 91,
      "}": 92,
      "~": 93,
      "¡": 94,
      "¢": 95,
      "£": 96,
      "¤": 97,
      "¥": 98,
      "¦": 99,
      "§": 100,
      "¨": 101,
      "©": 102,
      "ª": 103,
      "«": 104,
      "¬": 105,
      "®": 106,
      "¯": 107,
      "°": 108,
      "±": 109,
      "²": 110,
      "³": 111,
      "´": 112,
      "µ": 113,
      "¶": 114,
      "·": 115,
      "¸": 116,
      "¹": 117,
      "º": 118,
      "»": 119,
      "¼": 120,
      "½": 121,
      "¾": 122,
      "¿": 123,
      "Â": 124,
      "Ã": 125,
      "Ä": 126,
      "Å": 127,
      "Æ": 128,
      "Ç": 129,
      "È": 130,
      "É": 131,
      "Ê": 132,
      "Ë": 133,
      "Ì": 134,
      "Í": 135,
      "Î": 136,
      "Ï": 137,
      "Ð": 138,
      "Ñ": 139,
      "Ò": 140,
      "Ó": 141,
      "Ô": 142,
      "Ö": 143,
      "×": 144,
      "Ø": 145,
      "Ù": 146,
      "Ú": 147,
      "Û": 148,
      "Ü": 149,
      "à": 150,
      "á": 151,
      "â": 152,
      "ã": 153,
      "ä": 154,
      "å": 155,
      "æ": 156,
      "ç": 157,
      "è": 158,
      "é": 159,
      "ê": 160,
      "ë": 161,
      "ì": 162,
      "í": 163,
      "î": 164,
      "ï": 165,
      "ð": 166,
      "Ĉ": 167,
      "Ċ": 168,
      "Đ": 169,
      "đ": 170,
      "Ē": 171,
      "ē": 172,
      "Ĕ": 173,
      "ĕ": 174,
      "ė": 175,
      "Ę": 176,
      "ę": 177,
      "Ě": 178,
      "Ġ": 179,
      "Ģ": 180,
      "ģ": 181,
      "Ĥ": 182,
      "ĥ": 183,
      "Ħ": 184,
      "ħ": 185,
      "Ĩ": 186,
      "ĩ": 187,
      "Ī": 188,
      "ī": 189,
      "Ĭ": 190,
      "ĭ": 191,
      "Į": 192,
      "į": 193,
      "İ": 194,
      "ı": 195,
      "Ĳ": 196,
      "ĳ": 197,
      "Ĵ": 198,
      "ĵ": 199,
      "Ķ": 200,
      "ķ": 201,
      "ĸ": 202,
      "Ĺ": 203,
      "ĺ": 204,
      "Ļ": 205,
      "ļ": 206,
      "Ľ": 207,
      "ľ": 208,
      "Ŀ": 209,
      "ŀ": 210,
      "Ł": 211,
      "ł": 212,
      "Ń": 213,
      "Ã¡": 214,
      "ea": 215,
      "..": 216,
      "id": 217,
      "uo": 218,
      "Å¡": 219,
      "Ġd": 220,
      "la": 221,
      "Ġg": 222,
      "Ġs": 223,
      "ah": 224,
      "as": 225,
      "mi": 226,
      "Ġj": 227,
      "Ġl": 228,
      "at": 229,
      "Ġo": 230,
      "us": 231,
      "in": 232,
      "tt": 233,
      "an": 234,
      "it": 235,
      "Ġja": 236,
      "Äĳ": 237,
      "Ġm": 238,
      "Ġb": 239,
      "ie": 240,
      "al": 241,
      "....": 242,
      "kk": 243,
      "Äį": 244,
      "Ġlea": 245,
      "dd": 246,
      "vv": 247,
      "Ġv": 248,
      "ii": 249,
      "te": 250,
      "ar": 251,
      "is": 252,
      "Ã¡l": 253,
      "aid": 254,
      "me": 255,
      "gg": 256,
      "Ã¡h": 257,
      "Ã¡i": 258,
      "ta": 259,
      "Ã¡r": 260,
      "ĠS": 261,
      "Ã¡n": 262,
      "on": 263,
      "er": 264,
      "laÅ¡": 265,
      "ll": 266,
      "iid": 267,
      "Ġr": 268,
      "rr": 269,
      "uvv": 270,
      "Ã¡me": 271,
      "........": 272,
      "et": 273,
      "Ã¡s": 274,
      "aÅ¡": 275,
      "ag": 276,
      "oa": 277,
      "vd": 278,
      "vuo": 279,
      "en": 280,
      "Ġn": 281,
      "Ġea": 282,
      "uh": 283,
      "di": 284,
      "Ã¡mi": 285,
      "or": 286,
      "ih": 287,
      "ma": 288,
      "Ġleat": 289,
      "Å¾": 290,
      "ĠÄį": 291,
      "oh": 292,
      "ad": 293,
      "tu": 294,
      "Ġ1": 295,
      "je": 296,
      "ku": 297,
      "00": 298,
      "vtt": 299,
      "Ġ2": 300,
      "Ġmi": 301,
      "os": 302,
      "ĠD": 303,
      "Ġf": 304,
      "Ġh": 305,
      "ahte": 306,
      "od": 307,
      "Ġahte": 308,
      "Ã¡medi": 309,
      "ahp": 310,
      "ol": 311,
      "Ġvuo": 312,
      "ir": 313,
      "eh": 314,
      "ka": 315,
      "iel": 316,
      "el": 317,
      "ut": 318,
      "vuoÄĳ": 319,
      "es": 320,
      "Ġgo": 321,
      "vdd": 322,
      "ot": 323,
      "eg": 324,
      "og": 325,
      "il": 326,
      "Ġgea": 327,
      "bm": 328,
      "mm": 329,
      "ÄĳÄĳ": 330,
      "................": 331,
      "ÄįÄį": 332,
      "ĠsÃ¡mi": 333,
      "Ġguo": 334,
      "ear": 335,
      "Ã¡d": 336,
      "oj": 337,
      "ss": 338,
      "de": 339,
      "Ġp": 340,
      "nn": 341,
      "ig": 342,
      "ĠM": 343,
      "âĢ": 344,
      "Ġ(": 345,
      "ain": 346,
      "iv": 347,
      "rra": 348,
      "ĠSÃ¡medi": 349,
      "uid": 350,
      "Ã¡g": 351,
      "Ã¡Å¡": 352,
      "ui": 353,
      "uvvon": 354,
      "eah": 355,
      "Ã¡la": 356,
      "ej": 357,
      "Ġmaid": 358,
      "ul": 359,
      "ean": 360,
      "Ã¡t": 361,
      "ĠG": 362,
      "ja": 363,
      "kt": 364,
      "Ã¡htt": 365,
      "oai": 366,
      "Åĭ": 367,
      "arg": 368,
      "alla": 369,
      "iela": 370,
      "Ã¡id": 371,
      "uor": 372,
      "kki": 373,
      "Ã¡meg": 374,
      "oÅ¡": 375,
      "Ġoahp": 376,
      "am": 377,
      "ĠN": 378,
      "Ġgal": 379,
      "uoh": 380,
      "eap": 381,
      "eal": 382,
      "uÅ¡": 383,
      "ggi": 384,
      "ĠO": 385,
      "all": 386,
      "ji": 387,
      "usa": 388,
      "ed": 389,
      "uin": 390,
      "Ã¡v": 391,
      "ast": 392,
      "un": 393,
      "oah": 394,
      "eami": 395,
      "ĠB": 396,
      "earr": 397,
      "pp": 398,
      "olaÅ¡": 399,
      "ĠR": 400,
      "na": 401,
      "ĠÃ¡l": 402,
      "Ġst": 403,
      "Ġe": 404,
      "rÃ¡": 405,
      "da": 406,
      "Ġdo": 407,
      "ĠE": 408,
      "ĠL": 409,
      "ur": 410,
      "iella": 411,
      "bb": 412,
      "kan": 413,
      "iin": 414,
      "ĠA": 415,
      "uvvo": 416,
      "alaÅ¡": 417,
      "Ãģ": 418,
      "eadd": 419,
      "ev": 420,
      "Ġdan": 421,
      "Ġbi": 422,
      "kul": 423,
      "01": 424,
      "uv": 425,
      "Ġk": 426,
      "Ã¡ll": 427,
      "Ġgalg": 428,
      "Ġ3": 429,
      "Ġnu": 430,
      "Ġmii": 431,
      "kultu": 432,
      "to": 433,
      "Ġovdd": 434,
      "Ã¡ldd": 435,
      "kta": 436,
      "Ġii": 437,
      "Ġie": 438,
      "hta": 439,
      "Ã¡st": 440,
      "Ã¡laÅ¡": 441,
      "Ġol": 442,
      "par": 443,
      "Ã¡hus": 444,
      "vll": 445,
      "tta": 446,
      "Ġdah": 447,
      "ĠÃ¡i": 448,
      "ĠsÃ¡meg": 449,
      "Ġovd": 450,
      "ge": 451,
      "ĠsÃ¡htt": 452,
      "aga": 453,
      "Ġdoai": 454,
      "vuoÄĳa": 455,
      "ĠJ": 456,
      "ahus": 457,
      "parte": 458,
      "ÄįÄįat": 459,
      "ĠÃ¡r": 460,
      "st": 461,
      "ĠâĢ": 462,
      "ieÄĳ": 463,
      "Ġkultu": 464,
      "mean": 465,
      "Å¾Å¾": 466,
      "Ġmiel": 467,
      "Ġla": 468,
      "go": 469,
      "ĠrÃ¡": 470,
      "vah": 471,
      "ai": 472,
      "eapmi": 473,
      "ei": 474,
      "kuv": 475,
      "ks": 476,
      "kka": 477,
      "ov": 478,
      "ke": 479,
      "ĠV": 480,
      "ass": 481,
      "Ġmat": 482,
      "ĠSÃ¡mi": 483,
      "do": 484,
      "ĠK": 485,
      "arj": 486,
      "................................": 487,
      "tn": 488,
      "Ġ-": 489,
      "gga": 490,
      "alus": 491,
      "ahtt": 492,
      "oahp": 493,
      "Ġovtt": 494,
      "ud": 495,
      "Ġa": 496,
      "om": 497,
      "Ã¡vd": 498,
      "ne": 499,
      "Ġpr": 500,
      "Ġ200": 501,
      "Ġde": 502,
      "Ġbarg": 503,
      "ga": 504,
      "kte": 505,
      "ĠmÃ¡n": 506,
      "Ġ4": 507,
      "partemean": 508,
      "aide": 509,
      "ĠdÃ¡r": 510,
      "Ġdat": 511,
      "uol": 512,
      "Ã¡Å¡Å¡": 513,
      "Ã¡dus": 514,
      "ra": 515,
      "mis": 516,
      "ist": 517,
      "Ġ19": 518,
      "uvnn": 519,
      "bma": 520,
      "miid": 521,
      "ĠH": 522,
      "Ġmielde": 523,
      "mma": 524,
      "ĠF": 525,
      "Ġ5": 526,
      "Ġbirra": 527,
      "Ã¡ld": 528,
      "Ã¡ikk": 529,
      "igat": 530,
      "bmot": 531,
      "asa": 532,
      "Ġoahpp": 533,
      "cc": 534,
      "uÄĳ": 535,
      "ĠI": 536,
      "dÃ¡i": 537,
      "oaz": 538,
      "ĠSÃ¡mediggi": 539,
      "Ġgeavah": 540,
      "Ġmearr": 541,
      "lÃ¡n": 542,
      "inn": 543,
      "Ã¤": 544,
      "ĠgalgÃ¡": 545,
      "ĠSÃ¡medikki": 546,
      "ĠP": 547,
      "lah": 548,
      "Ġdahje": 549,
      "mii": 550,
      "vuohta": 551,
      "ĠearÃ¡": 552,
      "Ġ0": 553,
      "Ġmuh": 554,
      "Ġda": 555,
      "ĠÅ¡": 556,
      "ing": 557,
      "gi": 558,
      "Ġlei": 559,
      "ÄĮ": 560,
      "Ġma": 561,
      "argg": 562,
      "eaddji": 563,
      "ĠsÃ¡megiela": 564,
      "Ġbo": 565,
      "ĠsÃ¡httÃ¡": 566,
      "ĠmaiddÃ¡i": 567,
      "Ġokta": 568,
      "Ġean": 569,
      "las": 570,
      "guo": 571,
      "ĠÃ¡s": 572,
      "Ġal": 573,
      "mus": 574,
      "olit": 575,
      "ĠT": 576,
      "Ġnj": 577,
      "re": 578,
      "ill": 579,
      "ojit": 580,
      "men": 581,
      "ego": 582,
      "ĠÃģ": 583,
      "laÄįÄįat": 584,
      "Ã¡p": 585,
      "ob": 586,
      "ki": 587,
      "ĠNor": 588,
      "kkÃ¡r": 589,
      "tii": 590,
      "Ġ201": 591,
      "ĠÃ¡Å¡Å¡": 592,
      "odat": 593,
      "Ã¡hta": 594,
      "Ġoll": 595,
      "000": 596,
      "Ã¡Å¾": 597,
      "Ġoa": 598,
      "SÃ¡medi": 599,
      "Ġsih": 600,
      "partemeanta": 601,
      "kÃ¡": 602,
      "Ġeai": 603,
      "idit": 604,
      "Ġgiella": 605,
      "uvvot": 606,
      "odo": 607,
      "ull": 608,
      "pr": 609,
      "Ã¥": 610,
      "sa": 611,
      "Ġbea": 612,
      "Ġgas": 613,
      "ĠieÅ¾": 614,
      "Ã¡hka": 615,
      "ĠdÃ¡n": 616,
      "Ġboaz": 617,
      "kuvl": 618,
      "Ã¡ÄĳÄĳ": 619,
      "Ġrie": 620,
      "ĠdÃ¡": 621,
      "ihka": 622,
      "ĠâĢĵ": 623,
      "ktu": 624,
      "Ġguovll": 625,
      "Ġ6": 626,
      "Ã¡ga": 627,
      "ĠhÃ¡ldd": 628,
      "ggad": 629,
      "Ġjuo": 630,
      "bi": 631,
      "Ġdea": 632,
      "irj": 633,
      "Ã¡hk": 634,
      "Ġc": 635,
      "Ġdoarj": 636,
      "ĠÄįuo": 637,
      "ĠmÃ¡": 638,
      "Ġor": 639,
      "Ġdie": 640,
      "iide": 641,
      "Ġovttas": 642,
      "uvd": 643,
      "min": 644,
      "erte": 645,
      "Ġsis": 646,
      "uot": 647,
      "aj": 648,
      "Ġduo": 649,
      "allan": 650,
      "erv": 651,
      "ter": 652,
      "Ġ9": 653,
      "ĠmÃ¡nÃ¡id": 654,
      "Ġkultur": 655,
      "kon": 656,
      "dj": 657,
      "gas": 658,
      "ann": 659,
      "Ġt": 660,
      "mÃ¡n": 661,
      "ahk": 662,
      "Ġ7": 663,
      "Ã¡dd": 664,
      "Ġoh": 665,
      ").": 666,
      "edje": 667,
      "lan": 668,
      "uÅ¡Å¡": 669,
      "ĠÂ": 670,
      "barg": 671,
      "bmog": 672,
      "Ġmu": 673,
      "ejolaÅ¡": 674,
      "iikk": 675,
      "Ġkultuv": 676,
      "uvvojit": 677,
      "Ġferte": 678,
      "ĠdÃ¡l": 679,
      "oahkk": 680,
      "ĠoÄĳÄĳ": 681,
      "bmi": 682,
      "Ġ000": 683,
      "oÅ¡t": 684,
      "dus": 685,
      "oav": 686,
      "vttoh": 687,
      "ĠvÃ¡r": 688,
      "Ġ8": 689,
      "ers": 690,
      "iguin": 691,
      "uon": 692,
      "__": 693,
      "ĠdieÄĳ": 694,
      "ĠieÅ¡": 695,
      "mÃ¡r": 696,
      "eren": 697,
      "Ã¡vdego": 698,
      "ĠvuoÄĳÄĳ": 699,
      "ĠÃ¡ig": 700,
      "Ġjo": 701,
      "ĠdÃ¡s": 702,
      "mÃ¡i": 703,
      "Ã¡ikkuh": 704,
      "odag": 705,
      "Ġeal": 706,
      "tneg": 707,
      "earvv": 708,
      "ĠÄįÃ¡ll": 709,
      "ti": 710,
      "ĠieÅ¾as": 711,
      "Ġmuhto": 712,
      "ivv": 713,
      "uohkan": 714,
      "muÅ¡": 715,
      "Ġsiid": 716,
      "Ã¡ht": 717,
      "...": 718,
      "mat": 719,
      "tet": 720,
      "no": 721,
      "add": 722,
      "Ġin": 723,
      "ab": 724,
      "uvvui": 725,
      "Ġvuoigat": 726,
      "Ġdih": 727,
      "ehus": 728,
      "Å§": 729,
      "valus": 730,
      "vuoÄĳas": 731,
      "kas": 732,
      "unn": 733,
      "ĠvÃ¡ld": 734,
      "eavtt": 735,
      "ĠÄįa": 736,
      "Ã¸": 737,
      "Ġsea": 738,
      "Ġokt": 739,
      "Ġboazodo": 740,
      "earkk": 741,
      "ieldd": 742,
      "va": 743,
      "Ġjagi": 744,
      "eaddj": 745,
      "yl": 746,
      "jÃ¡": 747,
      "ĠSt": 748,
      "oam": 749,
      "eapmÃ¡i": 750,
      "ojuvvon": 751,
      "Ġboah": 752,
      "se": 753,
      "ĠvejolaÅ¡": 754,
      "Ġserv": 755,
      "Ġdoaibma": 756,
      "Ġman": 757,
      "Ġadd": 758,
      "bu": 759,
      "uhta": 760,
      "Ġoass": 761,
      "Ġalmm": 762,
      "tti": 763,
      "kku": 764,
      "Ġdaid": 765,
      "Ġoahpah": 766,
      "ggadus": 767,
      "maÅ¡": 768,
      "Ġdut": 769,
      "Ġbuor": 770,
      "ust": 771,
      "atn": 772,
      "Ġkon": 773,
      "ssa": 774,
      "ojuvvo": 775,
      "iehta": 776,
      "olitihka": 777,
      "uide": 778,
      "miin": 779,
      "stt": 780,
      "ĠvÃ¡ikkuh": 781,
      "ĠmaÅĭ": 782,
      "ĠlÃ¡g": 783,
      "ĠhÃ¡lddaÅ¡": 784,
      "kuvla": 785,
      "innmÃ¡r": 786,
      "ĠÃ¡rvv": 787,
      "ĠoÄĳÄĳa": 788,
      "op": 789,
      "vuoÄĳaid": 790,
      "uondd": 791,
      "Ã¡pme": 792,
      "ohkk": 793,
      "ĠdÃ¡rbb": 794,
      "org": 795,
      "ell": 796,
      "ht": 797,
      "Ġar": 798,
      "kkas": 799,
      "ĠoaÅ¾Å¾": 800,
      "Ġlass": 801,
      "200": 802,
      "Ġovddid": 803,
      "uolggadus": 804,
      "ri": 805,
      "ahit": 806,
      "Ġovddas": 807,
      "ald": 808,
      "ĠealÃ¡hus": 809,
      "allat": 810,
      "Ġgeah": 811,
      "met": 812,
      "Ġgalget": 813,
      "Ã¡ig": 814,
      "Ġi": 815,
      "gÃ¡r": 816,
      "uorra": 817,
      "ier": 818,
      "Ġsihke": 819,
      "pm": 820,
      "ktui": 821,
      "Ġbargg": 822,
      "lli": 823,
      "illii": 824,
      "Ġ.": 825,
      "lat": 826,
      "ddi": 827,
      "Ġbokte": 828,
      "Ġ%": 829,
      "Ġgeat": 830,
      "pmi": 831,
      "ion": 832,
      "Å¡uvnn": 833,
      "ĠÃ¡": 834,
      "ĠvÃ¡l": 835,
      "Ġber": 836,
      "ĠSÃ¡medigg": 837,
      "ealde": 838,
      "agat": 839,
      "rras": 840,
      "Ġnuor": 841,
      "alu": 842,
      "Ã¡hkad": 843,
      "Ġdoaimm": 844,
      "201": 845,
      "ĠÃ¡lgg": 846,
      "ĠdÃ¡id": 847,
      "ĠvuoÄĳ": 848,
      "ĠÄįÃ¡": 849,
      "Ġgiela": 850,
      "Ġunn": 851,
      "doai": 852,
      "Ġloh": 853,
      "Ġnam": 854,
      "sen": 855,
      "Å¡Å¡": 856,
      "ĠÄįuovv": 857,
      "Ġmearrid": 858,
      "kat": 859,
      "oahkki": 860,
      "ĠDÃ¡t": 861,
      "Ã¡tt": 862,
      "Ġbuot": 863,
      "earkkaÅ¡": 864,
      "Ġektui": 865,
      "uks": 866,
      "Ġsie": 867,
      "sii": 868,
      "Ġbid": 869,
      "Ġmas": 870,
      "ĠÄĮ": 871,
      "odaga": 872,
      "iteh": 873,
      "Ġeanet": 874,
      "ĠleamaÅ¡": 875,
      "jeh": 876,
      "Ġvai": 877,
      "oas": 878,
      "ejuvvon": 879,
      "Ã¡ib": 880,
      "anis": 881,
      "lÃ¡na": 882,
      "Ġbu": 883,
      "Ġdeh": 884,
      "osi": 885,
      "Äĳih": 886,
      "jo": 887,
      "10": 888,
      "uvdna": 889,
      "ĠÄįaÄĳ": 890,
      "SÃ¡mi": 891,
      "kkar": 892,
      "epartemeanta": 893,
      "19": 894,
      "................................................................": 895,
      "av": 896,
      "iija": 897,
      "Ġsuo": 898,
      "eamis": 899,
      "Ġgos": 900,
      "Ġmo": 901,
      "Ġolbm": 902,
      "vddÃ¡Å¡": 903,
      "Ġollu": 904,
      "lea": 905,
      "Ġdasa": 906,
      "Ġviid": 907,
      "ÂŃ": 908,
      "ien": 909,
      "bmil": 910,
      "ĠmÃ¡Åĭ": 911,
      "Ġledje": 912,
      "iidda": 913,
      "Ã¡lvalus": 914,
      "ren": 915,
      "kuvlla": 916,
      "Ġfyl": 917,
      "iss": 918,
      "Ġevttoh": 919,
      "âĢĵ": 920,
      "le": 921,
      "Ġguos": 922,
      "ko": 923,
      "ĠNorgga": 924,
      "Ġdas": 925,
      "ĠÄįiel": 926,
      "vva": 927,
      "bargg": 928,
      "Ġgull": 929,
      "Ã¡b": 930,
      "Ġguh": 931,
      "ĠsÃ¡medi": 932,
      "uhit": 933,
      "tÃ¡": 934,
      "ket": 935,
      "departemeanta": 936,
      "ĠmearkkaÅ¡": 937,
      "htt": 938,
      "avv": 939,
      "Ġsuohkan": 940,
      "eahc": 941,
      "ĠoktavuoÄĳas": 942,
      "Ġgu": 943,
      "ĠÃ¡rb": 944,
      "earvvaÅ¡": 945,
      "ggas": 946,
      "ĠFinnmÃ¡r": 947,
      "Ġboh": 948,
      "ĠÅ¡add": 949,
      "ĠovdÃ¡n": 950,
      "Ġmin": 951,
      "vuoigat": 952,
      "uj": 953,
      "ovd": 954,
      "ogrÃ¡": 955,
      "ĠrÃ¡ÄĳÄĳ": 956,
      "alle": 957,
      "Ġohc": 958,
      "Ġkultuvrra": 959,
      "iig": 960,
      "ĠDat": 961,
      "ĠstÃ¡hta": 962,
      "and": 963,
      "Ġluondd": 964,
      "Ġ199": 965,
      "vÃ¡st": 966,
      "Ġstuor": 967,
      "SÃ¡mediggi": 968,
      "Ġorg": 969,
      "jes": 970,
      "guovll": 971,
      "âĢĿ": 972,
      "ĠsÃ¡me": 973,
      "ĠrÃ¡hkad": 974,
      "Äĳi": 975,
      "ĠDan": 976,
      "ihkka": 977,
      "uovd": 978,
      "Ġveah": 979,
      "bea": 980,
      "mÃ¡nu": 981,
      "ĠÃ¡rvvoÅ¡t": 982,
      "ĠU": 983,
      "Ġfuo": 984,
      "uÅ¡Å¡e": 985,
      "tun": 986,
      "ven": 987,
      "mu": 988,
      "Ã¡lbmog": 989,
      "Ġsu": 990,
      "dje": 991,
      "uovll": 992,
      "ĠhÃ¡l": 993,
      "ĠÃ¡lbmot": 994,
      "Ġul": 995,
      "Ġge": 996,
      "ĠSuo": 997,
      "vddÃ¡Å¾": 998,
      "Ã¡hp": 999,
      "tte": 1000,
      "ĠÃ¡v": 1001,
      "he": 1002,
      "Ġovdal": 1003,
      "laÄįÄį": 1004,
      "ik": 1005,
      "ĠC": 1006,
      "eav": 1007,
      "ĠsÃ¡httet": 1008,
      "Ġgieldd": 1009,
      "ĠAn": 1010,
      "kkis": 1011,
      "Ġ10": 1012,
      "Ġeren": 1013,
      "ktii": 1014,
      "ddj": 1015,
      "earv": 1016,
      "Ġmuit": 1017,
      "ĠÃ¡lgo": 1018,
      "Ġgol": 1019,
      "ide": 1020,
      "uohk": 1021,
      "istt": 1022,
      "oÅ¡eavtt": 1023,
      "Ġsa": 1024,
      "olog": 1025,
      "ĠsÃ¡pme": 1026,
      "12": 1027,
      "Ġovdan": 1028,
      "eb": 1029,
      "ld": 1030,
      "),": 1031,
      "ĠvuoÄĳul": 1032,
      "ĠoaÅ¾Å¾ut": 1033,
      "ahtti": 1034,
      "eahtt": 1035,
      "Ġruo": 1036,
      "ilg": 1037,
      "Ġoahpahus": 1038,
      "Ġrievd": 1039,
      "irjj": 1040,
      "Ġsierra": 1041,
      "ug": 1042,
      "evaÅ¡": 1043,
      "ost": 1044,
      "uhtii": 1045,
      "ĠduÅ¡Å¡e": 1046,
      "ĠIn": 1047,
      "log": 1048,
      "ĠÃ¡sah": 1049,
      "dda": 1050,
      "doall": 1051,
      "tna": 1052,
      "eann": 1053,
      "ap": 1054,
      "uÄĳet": 1055,
      "iiguin": 1056,
      "Ġdil": 1057,
      "esur": 1058,
      "Ġriikk": 1059,
      "ĠÂ§": 1060,
      "ĠmÃ¡nÃ¡idgÃ¡r": 1061,
      "Ġvuor": 1062,
      "bij": 1063,
      "Ã¡vdn": 1064,
      "jat": 1065,
      "val": 1066,
      "ba": 1067,
      "aÅ¡t": 1068,
      "Ã¡gan": 1069,
      "Ġson": 1070,
      "Ã¡megiela": 1071,
      "Ã¡lbmot": 1072,
      "Ã¡il": 1073,
      "vl": 1074,
      "Ã¢": 1075,
      "idd": 1076,
      "Ġerenoam": 1077,
      "ĠlÃ¡hka": 1078,
      "astit": 1079,
      "ru": 1080,
      "Ã¡ÄĳÄĳi": 1081,
      "aidn": 1082,
      "bell": 1083,
      "Ġnann": 1084,
      "ten": 1085,
      "ĠgÃ¡ib": 1086,
      "eass": 1087,
      "eiv": 1088,
      "ĠoÅ¾Å¾": 1089,
      "itehta": 1090,
      "oahkkin": 1091,
      "ultu": 1092,
      "ĠieÅ¡g": 1093,
      "Ġsii": 1094,
      "ok": 1095,
      "dan": 1096,
      "vuoÄĳat": 1097,
      "kko": 1098,
      "Ã¡j": 1099,
      "iras": 1100,
      "ĠDavv": 1101,
      "Ġ15": 1102,
      "ĠdÃ¡rbbaÅ¡": 1103,
      "ere": 1104,
      "san": 1105,
      "eahcc": 1106,
      "sih": 1107,
      "uhtt": 1108,
      "ĠdakkÃ¡r": 1109,
      "uorr": 1110,
      "Ġdain": 1111,
      "ĠmaÅĭÅĭ": 1112,
      "olitihkalaÅ¡": 1113,
      "ĠGo": 1114,
      "Ġsihkkar": 1115,
      "ĠvÃ¡rÃ¡s": 1116,
      "aÅ¡uvnn": 1117,
      "ĠÃ¡igu": 1118,
      "Ġdihte": 1119,
      "Ġ18": 1120,
      "ohkkeh": 1121,
      "Ã¡dat": 1122,
      "ĠÃ¡rbev": 1123,
      "odagas": 1124,
      "ĠbÃ¡ikk": 1125,
      "Ġgir": 1126,
      "Ġjahk": 1127,
      "agas": 1128,
      "Ġnjuolggadus": 1129,
      "ĠdÃ¡t": 1130,
      "istor": 1131,
      "adje": 1132,
      "Ġdavv": 1133,
      "11": 1134,
      "uÅ¡eah": 1135,
      "Ġmain": 1136,
      "Ġru": 1137,
      "eannud": 1138,
      "oahpah": 1139,
      "tas": 1140,
      "llud": 1141,
      "gge": 1142,
      "____": 1143,
      "ala": 1144,
      "Ġreg": 1145,
      "ĠÃ¡lbmog": 1146,
      "ĠdeaÅ§": 1147,
      "mmoÅ¡": 1148,
      "ĠvÃ¡ll": 1149,
      "Ġulbmil": 1150,
      "usat": 1151,
      "ef": 1152,
      "Ġ/": 1153,
      "ĠÄįÃ¡jeh": 1154,
      "ama": 1155,
      "earvvaÅ¡vuoÄĳa": 1156,
      "Ġnr": 1157,
      "eret": 1158,
      "Ã¡rv": 1159,
      "ieh": 1160,
      "ahttin": 1161,
      "isev": 1162,
      "Ġlean": 1163,
      "ana": 1164,
      "ĠovddasvÃ¡st": 1165,
      "ovdd": 1166,
      "Ëľ": 1167,
      "rat": 1168,
      "asaÅ¡": 1169,
      "kono": 1170,
      "idn": 1171,
      "Ġdohkkeh": 1172,
      "dit": 1173,
      "eas": 1174,
      "Ġhui": 1175,
      "eavv": 1176,
      "Ġoaidn": 1177,
      "ĠgÃ¡v": 1178,
      "ggis": 1179,
      "alit": 1180,
      "::": 1181,
      "Ġnupp": 1182,
      "Ã¡lald": 1183,
      "Ã¡saÅ¡": 1184,
      "Ġjoh": 1185,
      "ĠrÃ¡jes": 1186,
      "partemen": 1187,
      "li": 1188,
      "ĠmearrÃ¡dus": 1189,
      "ĠieÅ¾aset": 1190,
      "irjji": 1191,
      "Ġte": 1192,
      "mearr": 1193,
      "ihk": 1194,
      "SÃ¡medikki": 1195,
      "Ġgeavahit": 1196,
      "ĠLea": 1197,
      "Ġvuostt": 1198,
      "ado": 1199,
      "Ã¶": 1200,
      "mmi": 1201,
      "est": 1202,
      "ĠDÃ¡n": 1203,
      "ĠvÃ¡s": 1204,
      "vas": 1205,
      "Ã¡dusa": 1206,
      "Ġboazodoall": 1207,
      "elbb": 1208,
      "Ġear": 1209,
      "ĠieÅ¡guÄĳet": 1210,
      "Ġrievdad": 1211,
      "Ġheiv": 1212,
      "Ġmus": 1213,
      "Ġ12": 1214,
      "Ã¡Å¾it": 1215,
      "Ġfor": 1216,
      "Ġhuks": 1217,
      "ib": 1218,
      "uvdn": 1219,
      "Ġsosi": 1220,
      "ent": 1221,
      "Ã¡laÄįÄįat": 1222,
      "Ġjag": 1223,
      "ĠSÃ¡medigger": 1224,
      "rie": 1225,
      "ealÃ¡hus": 1226,
      "elbbolaÅ¡": 1227,
      "sk": 1228,
      "ivÄįÄį": 1229,
      "Ġ16": 1230,
      "Ġceal": 1231,
      "ehusa": 1232,
      "Ġsin": 1233,
      "Ġovddidit": 1234,
      "eavah": 1235,
      "kit": 1236,
      "ww": 1237,
      "agi": 1238,
      "arjja": 1239,
      "ĠdehÃ¡laÅ¡": 1240,
      "Ġovttasbarg": 1241,
      "amÃ¡n": 1242,
      "ĠÄįaÄĳah": 1243,
      "Ġbivd": 1244,
      "Ġdoaibm": 1245,
      "50": 1246,
      "kap": 1247,
      "kasaÅ¡": 1248,
      "uha": 1249,
      "Ġjoat": 1250,
      "pe": 1251,
      "Ol": 1252,
      "Ġbur": 1253,
      "St": 1254,
      "ahttit": 1255,
      "ortneg": 1256,
      "Ġdeatt": 1257,
      "ĠÃ¡lggah": 1258,
      "jj": 1259,
      "em": 1260,
      "Ġjus": 1261,
      "Ġskuvla": 1262,
      "igg": 1263,
      "Ġvuol": 1264,
      "ttat": 1265,
      "Ã¦": 1266,
      "ĠrÃ¡d": 1267,
      "of": 1268,
      "Ã¡vdegoddi": 1269,
      "oahpp": 1270,
      "ĠdÃ¡b": 1271,
      "ĠmÃ¡htt": 1272,
      "usaid": 1273,
      "olbm": 1274,
      "Ã¡rr": 1275,
      "20": 1276,
      "vttad": 1277,
      "iehtad": 1278,
      "kkus": 1279,
      "ĠÄįuj": 1280,
      "Ã¡husa": 1281,
      "Ġdoarjja": 1282,
      "kÄį": 1283,
      "ĠRuo": 1284,
      "umi": 1285,
      "vttas": 1286,
      "odepartemeanta": 1287,
      "--": 1288,
      "und": 1289,
      "Ġbeal": 1290,
      "Ã¡ÄĳÄĳehus": 1291,
      "Ã¡ttis": 1292,
      "ĠÃģl": 1293,
      "Ġvel": 1294,
      "ddar": 1295,
      "Ġatn": 1296,
      "Âª": 1297,
      "Ġguovlluin": 1298,
      "ĠgÃ¡r": 1299,
      "ppe": 1300,
      "gat": 1301,
      "Ġlassin": 1302,
      "Ġstiv": 1303,
      "Ã¡vdegotti": 1304,
      "erg": 1305,
      "imus": 1306,
      "vvil": 1307,
      "ïĤ": 1308,
      "amuÅ¡": 1309,
      "Ġsearv": 1310,
      "itt": 1311,
      "Ġseamma": 1312,
      "ans": 1313,
      "um": 1314,
      "Äĳas": 1315,
      "Ġalla": 1316,
      "isevÃ¡ldd": 1317,
      "ira": 1318,
      "Ġ11": 1319,
      "Ġguol": 1320,
      "Ġorganis": 1321,
      "Ġ14": 1322,
      "sÃ¡mi": 1323,
      "ett": 1324,
      "ttas": 1325,
      "alis": 1326,
      "obealde": 1327,
      "ielda": 1328,
      "ĠÄįÃ¡llit": 1329,
      "ni": 1330,
      "Ġdutkan": 1331,
      "Ġbie": 1332,
      "oavku": 1333,
      "nj": 1334,
      "eaddjit": 1335,
      "Å¡uvdna": 1336,
      "Ġgalgg": 1337,
      "ess": 1338,
      "Ġ13": 1339,
      "ïĤ·": 1340,
      "ĠVuo": 1341,
      "allama": 1342,
      "ĠmakkÃ¡r": 1343,
      "Ġgi": 1344,
      "Ġmie": 1345,
      "ovt": 1346,
      "ihkk": 1347,
      "ĠbÃ¡i": 1348,
      "ĠPr": 1349,
      "Ġguovtt": 1350,
      "Ġ17": 1351,
      "tin": 1352,
      "Ġdoaibmabij": 1353,
      "ĠfÃ¡g": 1354,
      "ida": 1355,
      "irolaÅ¡": 1356,
      "jit": 1357,
      "rret": 1358,
      "âĪ": 1359,
      "ras": 1360,
      "ĠhÃ¡liid": 1361,
      "Ġ\"": 1362,
      "Ġjur": 1363,
      "osa": 1364,
      "ĠdeaÅ§alaÅ¡": 1365,
      "ultur": 1366,
      "agiid": 1367,
      "Ġbeaivv": 1368,
      "Â»": 1369,
      "ieÄĳÃ¡hus": 1370,
      "oÅ¡ea": 1371,
      "Ġruovtt": 1372,
      "adj": 1373,
      "ohka": 1374,
      "Ġnugo": 1375,
      "uohke": 1376,
      "oga": 1377,
      "ĠsÃ¡miid": 1378,
      "Ġoai": 1379,
      "Ġohpp": 1380,
      "idan": 1381,
      "ovnn": 1382,
      "ojuvvot": 1383,
      "Ġjuollud": 1384,
      "Ġstuorra": 1385,
      "Ã¡megiella": 1386,
      "ogrÃ¡mma": 1387,
      "Ġ20": 1388,
      "Ġolgg": 1389,
      "bellodat": 1390,
      "Ġovtta": 1391,
      "Ġbuorr": 1392,
      "ĠbÃ¡ikkÃ¡laÅ¡": 1393,
      "oneavv": 1394,
      "Ġeami": 1395,
      "lle": 1396,
      "ation": 1397,
      "ĠOahp": 1398,
      "oahkking": 1399,
      "itn": 1400,
      "ĠbÃ¡l": 1401,
      "ĠMuh": 1402,
      "Ã¡hte": 1403,
      "Åĭg": 1404,
      "bo": 1405,
      "Ġain": 1406,
      "kuvllas": 1407,
      "iehtadus": 1408,
      "ĠplÃ¡n": 1409,
      "Ġruhta": 1410,
      "Ġlog": 1411,
      "Ã¡stalus": 1412,
      "Ġjien": 1413,
      "14": 1414,
      "ilis": 1415,
      "Å¾ald": 1416,
      "ĠsosiÃ¡la": 1417,
      "iij": 1418,
      "Ġdievas": 1419,
      "lÃ¡ga": 1420,
      "asto": 1421,
      "Ġmeahcc": 1422,
      "ch": 1423,
      "Å¡uvnna": 1424,
      "aidgas": 1425,
      "ĠhÃ¡lddaÅ¡an": 1426,
      "amear": 1427,
      "ken": 1428,
      "vrr": 1429,
      "doaimm": 1430,
      "Ġmeannud": 1431,
      "Ġoaivvil": 1432,
      "upmi": 1433,
      "Ġservodat": 1434,
      "Nor": 1435,
      "laÄįÄįaid": 1436,
      "llin": 1437,
      "fi": 1438,
      "Ġresur": 1439,
      "Ġgus": 1440,
      "Ġbadje": 1441,
      "ĠÃ": 1442,
      "Äįoahkki": 1443,
      "ĠguolÃ¡st": 1444,
      "loh": 1445,
      "ahkii": 1446,
      "15": 1447,
      "bÃ¡lvalus": 1448,
      "isson": 1449,
      "Ġorr": 1450,
      "for": 1451,
      "Ġdu": 1452,
      "Ġoas": 1453,
      "Ġdi": 1454,
      "ovaÅ¡": 1455,
      "ssat": 1456,
      "Ġearret": 1457,
      "ĠolmmoÅ¡": 1458,
      "arÃ¡": 1459,
      "Ġolles": 1460,
      "vra": 1461,
      "ĠvÃ¡st": 1462,
      "ĠSa": 1463,
      "ĠdÃ¡rog": 1464,
      "bbo": 1465,
      "Ġfas": 1466,
      "Ã¡hc": 1467,
      "stit": 1468,
      "ĠalmmolaÅ¡": 1469,
      "Ġbaj": 1470,
      "oan": 1471,
      "agaid": 1472,
      "Ġsiiddus": 1473,
      "barggu": 1474,
      "ĠdÃ¡hp": 1475,
      "ĠÄįilg": 1476,
      "13": 1477,
      "Ġkr": 1478,
      "pot": 1479,
      "Ġof": 1480,
      "uohta": 1481,
      "ojuvvojit": 1482,
      "Ġmovt": 1483,
      "iikka": 1484,
      "ĠoktasaÅ¡": 1485,
      "agea": 1486,
      "ĠÃ¡Å¡Å¡i": 1487,
      "Ġheiveh": 1488,
      "Ġvuost": 1489,
      "ihtt": 1490,
      "ĠgÃ¡vdn": 1491,
      "ys": 1492,
      "Ġart": 1493,
      "gÃ¡d": 1494,
      "apor": 1495,
      "ĠEira": 1496,
      "Ġan": 1497,
      "ĠbuÅ¡eah": 1498,
      "Åł": 1499,
      "ĠguoskÃ¡": 1500,
      "Ġpros": 1501,
      "Ġsiidu": 1502,
      "ĠsÃ¡megillii": 1503,
      "hc": 1504,
      "ĠÅ¡at": 1505,
      "fus": 1506,
      "ealla": 1507,
      "Ġ22": 1508,
      "ĠsÃ¡medigg": 1509,
      "ĠÃ¡rbevirolaÅ¡": 1510,
      "asiid": 1511,
      "ohk": 1512,
      "Ġ|": 1513,
      "Ġga": 1514,
      "Ġekono": 1515,
      "lo": 1516,
      "edi": 1517,
      "ĠguovddÃ¡Å¡": 1518,
      "ĠRom": 1519,
      "Ġbiddj": 1520,
      "ĠhÃ¡lddahus": 1521,
      "idj": 1522,
      "ejit": 1523,
      "ĠSuoma": 1524,
      "Ã¡ra": 1525,
      "htu": 1526,
      "plÃ¡na": 1527,
      "almm": 1528,
      "malaÅ¡": 1529,
      "ivers": 1530,
      "ejuvvo": 1531,
      "Ġguor": 1532,
      "Ġdoa": 1533,
      "ĠJoh": 1534,
      "Å¾Å¾an": 1535,
      "Ġdag": 1536,
      "llen": 1537,
      "osaÅ¡": 1538,
      "rateg": 1539,
      "osiid": 1540,
      "eanta": 1541,
      "uvl": 1542,
      "si": 1543,
      "30": 1544,
      "ĠberoÅ¡": 1545,
      "Ġluonddu": 1546,
      "aidgaskasaÅ¡": 1547,
      "iiva": 1548,
      "Ġbargat": 1549,
      "ĠvÃ¡ttis": 1550,
      "-,": 1551,
      "Ã¸r": 1552,
      "Ġoktii": 1553,
      "mas": 1554,
      "ĠsÃ¡n": 1555,
      "Ġnamma": 1556,
      "ĠdÃ¡rbu": 1557,
      "ĠBarg": 1558,
      "ÄįÄįa": 1559,
      "ĠovddasvÃ¡stÃ¡dus": 1560,
      "ĠdÃ¡fus": 1561,
      "âĢ¢": 1562,
      "ĠW": 1563,
      "Ġ24": 1564,
      "ĠFinnmÃ¡rkku": 1565,
      "ĠgelbbolaÅ¡": 1566,
      "ĠDo": 1567,
      "Ġfuolah": 1568,
      "Do": 1569,
      "ĠMa": 1570,
      "guovddÃ¡Å¾": 1571,
      "uodj": 1572,
      "ara": 1573,
      "dde": 1574,
      "ĠâĢľ": 1575,
      "Ġhea": 1576,
      "Ã¡z": 1577,
      "ĠduoÄĳ": 1578,
      "Ã¡na": 1579,
      "Ġgeatneg": 1580,
      "jen": 1581,
      "Ġvuoll": 1582,
      "ĠeisevÃ¡ldd": 1583,
      "ĠMar": 1584,
      "fer": 1585,
      "Ġ................................................................": 1586,
      "Ġseamm": 1587,
      "Ã°": 1588,
      "Ġeavtt": 1589,
      "Ġdalle": 1590,
      "ĠmÃ¡ks": 1591,
      "oasta": 1592,
      "oÅ¡eakta": 1593,
      "Ġoassi": 1594,
      "Ã¡lbmogiid": 1595,
      "oazodo": 1596,
      "ohp": 1597,
      "Ġallas": 1598,
      "uvlui": 1599,
      "anne": 1600,
      "ĠÂ«": 1601,
      "Ġgaskkas": 1602,
      "Äįuo": 1603,
      "ĠvÃ¡ldit": 1604,
      "kes": 1605,
      "Ġboahtte": 1606,
      "Ġopp": 1607,
      "Ġsiskk": 1608,
      "Ã¡htu": 1609,
      "sul": 1610,
      "Ġdutka": 1611,
      "Ġluo": 1612,
      "ĠlivÄįÄį": 1613,
      "Ã¡nÃ¡id": 1614,
      "Ġvir": 1615,
      "dÃ¡r": 1616,
      "mer": 1617,
      "ĠSÃ¡medikkis": 1618,
      "du": 1619,
      "jedje": 1620,
      "Ãµ": 1621,
      "ivi": 1622,
      "ĠjoÄĳih": 1623,
      "Ġoahpponeavv": 1624,
      "ĠÃ¡sahus": 1625,
      "ĠdÃ¡v": 1626,
      "departemen": 1627,
      "Ã¡sa": 1628,
      "Ġmuhtun": 1629,
      "Ã¡vv": 1630,
      "gÃ¡": 1631,
      "Ġskuvlla": 1632,
      "ĠÄįoahkki": 1633,
      "partemeantta": 1634,
      "Ġdieht": 1635,
      "bukt": 1636,
      "Ã¡sahus": 1637,
      "Ġjuohke": 1638,
      "ĠDavvi": 1639,
      "Ġbukt": 1640,
      "oahpahus": 1641,
      "ĠmÃ¡nÃ¡idgÃ¡rdd": 1642,
      "ĠruÄĳ": 1643,
      "Ġguorah": 1644,
      "jej": 1645,
      "adit": 1646,
      "18": 1647,
      "Ã¡tn": 1648,
      "tud": 1649,
      "anv": 1650,
      "Ã¡lddaÅ¡": 1651,
      "ĠhÃ¡stalus": 1652,
      "emus": 1653,
      "Ġnuoraid": 1654,
      "Ġgulah": 1655,
      "Ġgil": 1656,
      "ies": 1657,
      "Ġfylkk": 1658,
      "tit": 1659,
      "Â´": 1660,
      "renoam": 1661,
      "ĠNu": 1662,
      "ĠsÃ¡megiel": 1663,
      "Ġ30": 1664,
      "oaÄĳ": 1665,
      "ĠsÃ¡dd": 1666,
      "oahkkingirjji": 1667,
      "lmm": 1668,
      "seÃ¡rv": 1669,
      "ĠNorggas": 1670,
      "ĠSÃ¡me": 1671,
      "Ġbarggu": 1672,
      "Ġolbmot": 1673,
      "ĠdieÄĳuid": 1674,
      "ola": 1675,
      "mit": 1676,
      "Ġmer": 1677,
      "ĠproÅ¡eavtt": 1678,
      "Ġgeass": 1679,
      "sta": 1680,
      "ĠvuosttaÅ¡": 1681,
      "Ġvuhtii": 1682,
      "alaÄįÄįat": 1683,
      "Ġ2009": 1684,
      "Go": 1685,
      "polit": 1686,
      "Ã¡nddar": 1687,
      "ĠJus": 1688,
      "ege": 1689,
      "Ġdii": 1690,
      "Ġmil": 1691,
      "Ġbures": 1692,
      "Ã¯": 1693,
      "ÏĢ": 1694,
      "Ġkap": 1695,
      "ĠgeaÅ¾": 1696,
      "Ġeam": 1697,
      "uhan": 1698,
      "arv": 1699,
      "ÄįÃ¡ll": 1700,
      "miidda": 1701,
      "eam": 1702,
      "uovdagea": 1703,
      "Ġgeain": 1704,
      "ĠEan": 1705,
      "Ġguovllu": 1706,
      "ment": 1707,
      "Ã¡hÄį": 1708,
      "uitt": 1709,
      "uhuvvon": 1710,
      "Ġbis": 1711,
      "ĠSon": 1712,
      "ĠÃ¡dd": 1713,
      "Ġgii": 1714,
      "rii": 1715,
      "Ġgoh": 1716,
      "Ġ198": 1717,
      "Ã¡pm": 1718,
      "Ġeanan": 1719,
      "Ġbuorre": 1720,
      "Ġre": 1721,
      "17": 1722,
      "Ġgirjj": 1723,
      "ĠMii": 1724,
      "ÄĮoahkkingirjji": 1725,
      "Ġdoarjaga": 1726,
      "vaÅ¡": 1727,
      "adn": 1728,
      "Ġdad": 1729,
      "ĠKÃ¡r": 1730,
      "ĠÃ¡iggi": 1731,
      "âĪı": 1732,
      "ĠâĢ¢": 1733,
      "ĠsÃ¡megielat": 1734,
      "ĠpolitihkalaÅ¡": 1735,
      "ĠsÃ¡megiella": 1736,
      "vrra": 1737,
      "ina": 1738,
      "Ġbiras": 1739,
      "ĠerenoamÃ¡Å¾it": 1740,
      "ĠdearvvaÅ¡vuoÄĳa": 1741,
      "bbi": 1742,
      "ĠviidÃ¡s": 1743,
      "eamit": 1744,
      "lag": 1745,
      "ĠvuoÄĳÄĳun": 1746,
      "Ġbuoh": 1747,
      "ord": 1748,
      "Ġgaska": 1749,
      "ĠsÃ¡g": 1750,
      "ret": 1751,
      "astus": 1752,
      "ĠsÃ¡hte": 1753,
      "Ġsir": 1754,
      "Ġnisson": 1755,
      "Ġboazodoalu": 1756,
      "nu": 1757,
      "Ġ25": 1758,
      "ĠÄįielggad": 1759,
      "ĠmÃ¡Åĭgga": 1760,
      "uvvan": 1761,
      "llui": 1762,
      "ip": 1763,
      ".)": 1764,
      "amat": 1765,
      "Â·": 1766,
      "ssaid": 1767,
      "lohku": 1768,
      "emi": 1769,
      "Ġjul": 1770,
      "ĠvÃ¡ldo": 1771,
      "ĠvÃ¡ikkuhit": 1772,
      "eivv": 1773,
      "Ġoain": 1774,
      "Ã¤Ã¤": 1775,
      "emiid": 1776,
      "ĠoassÃ¡la": 1777,
      "16": 1778,
      "Ã¡m": 1779,
      "eri": 1780,
      "ang": 1781,
      "ĠboahtÃ¡": 1782,
      "Ġguokte": 1783,
      "ĠmÃ¡nÃ¡t": 1784,
      "agis": 1785,
      "uÄĳui": 1786,
      "oht": 1787,
      "Ġhistor": 1788,
      "asat": 1789,
      "Ġovdamear": 1790,
      "jon": 1791,
      "Ġdoaimma": 1792,
      "ĠOs": 1793,
      "ĠRuoÅ§": 1794,
      "esid": 1795,
      "Ġeatna": 1796,
      "eÅ¡": 1797,
      "ĠnÃ¡": 1798,
      "land": 1799,
      "Ã¡Åĭ": 1800,
      "dieÄĳ": 1801,
      "Äĳasm": 1802,
      "Ġvah": 1803,
      "up": 1804,
      "gaska": 1805,
      "Ġaddit": 1806,
      "Ġom": 1807,
      "Ġnannet": 1808,
      "kal": 1809,
      "ĠgeahÄį": 1810,
      "Äįoahkkin": 1811,
      "vlu": 1812,
      "Ġpar": 1813,
      "app": 1814,
      "ĠmÃ¡il": 1815,
      "ic": 1816,
      "eappot": 1817,
      "ĠOl": 1818,
      "bÃ¡i": 1819,
      "onagas": 1820,
      "Ġ2008": 1821,
      "ĠbÃ¡lvalus": 1822,
      "Ġdahkk": 1823,
      "ima": 1824,
      "Ġeret": 1825,
      "ttaid": 1826,
      "ivra": 1827,
      "vuhtii": 1828,
      "ĠberoÅ¡tu": 1829,
      "Ġbearr": 1830,
      "ihit": 1831,
      "ĠoÅ¾Å¾on": 1832,
      "muit": 1833,
      "Ġ27": 1834,
      "Ġeambbo": 1835,
      "Ġbadjel": 1836,
      "Ġ100": 1837,
      "Ġolbmuid": 1838,
      "Ġbor": 1839,
      "Ã¡rrÃ¡i": 1840,
      "Ġbohcc": 1841,
      "oahpamuÅ¡": 1842,
      "geavah": 1843,
      "ĠSiid": 1844,
      "Äĳis": 1845,
      "eddj": 1846,
      "Ġmielas": 1847,
      "Ã¡hkk": 1848,
      "ĠgeaÅ¾il": 1849,
      "De": 1850,
      "vuoÄĳain": 1851,
      "Ġse": 1852,
      "ĠÃģr": 1853,
      "Ġsp": 1854,
      "ĠSÃ¡mediggÃ¡i": 1855,
      "kumean": 1856,
      "ĠSÃ¡mediggerÃ¡ÄĳÄĳi": 1857,
      "Ġgitta": 1858,
      "Ġberre": 1859,
      "das": 1860,
      "Ã¡ÄĳÄĳehusa": 1861,
      "ĠvuoÄĳÄĳud": 1862,
      "Ġunnit": 1863,
      "Ġgul": 1864,
      "Ġmann": 1865,
      "ievrr": 1866,
      "ttis": 1867,
      "eaddjin": 1868,
      "lass": 1869,
      "oavkku": 1870,
      "Ġmihtt": 1871,
      "ĠvÃ¡ldd": 1872,
      "departementet": 1873,
      "eamos": 1874,
      "ĠerenoamÃ¡Å¡": 1875,
      "Ġeah": 1876,
      "ielat": 1877,
      "ĠdÃ¡bÃ¡laÅ¡": 1878,
      "geÅ¡": 1879,
      "logu": 1880,
      "oavkk": 1881,
      "ĠgeahÄįÄį": 1882,
      "vttohus": 1883,
      "ĠTr": 1884,
      "doallu": 1885,
      "dja": 1886,
      "Ġoahpahusa": 1887,
      "ĠvuoigatvuoÄĳaid": 1888,
      "Ġun": 1889,
      "ub": 1890,
      "ealli": 1891,
      "Â¿": 1892,
      "giella": 1893,
      "Ġos": 1894,
      "Åĭgir": 1895,
      "Ġog": 1896,
      "Ġpers": 1897,
      "Ã¡Äĳi": 1898,
      "Ġid": 1899,
      "kÃ¡muÅ¡": 1900,
      "ĠGiella": 1901,
      "ĠGuovdagea": 1902,
      "ij": 1903,
      "ĠgaÅ¾ald": 1904,
      "plÃ¡n": 1905,
      "Ġ28": 1906,
      "Ã¡iggi": 1907,
      "ige": 1908,
      "Ġ{": 1909,
      "ĠÃ¡lg": 1910,
      "II": 1911,
      "alÃ¡hus": 1912,
      "Ġdainna": 1913,
      "fÃ¡lald": 1914,
      "odagaid": 1915,
      "aha": 1916,
      "tÃ¡n": 1917,
      "Ġguovllus": 1918,
      "Ġgear": 1919,
      "amÃ¡nu": 1920,
      "Ġ2010": 1921,
      "Ġ23": 1922,
      "ÄĳÄĳa": 1923,
      "adoall": 1924,
      "ktor": 1925,
      "Ã¡ldi": 1926,
      "Ġboar": 1927,
      "uvvÃ¡": 1928,
      "Ã¡Å¡j": 1929,
      "ĠÅ¡addÃ¡": 1930,
      "assi": 1931,
      "Ġdovd": 1932,
      "ĠlÃ¡v": 1933,
      "bargu": 1934,
      "ĠvÃ¡ikkuhan": 1935,
      "Ġ<": 1936,
      "ĠhÃ¡rrÃ¡i": 1937,
      "Ġnjuolggadusaid": 1938,
      "za": 1939,
      "uorradi": 1940,
      "ddis": 1941,
      "Ġba": 1942,
      "ĠÄįoa": 1943,
      "iriikk": 1944,
      "Ġer": 1945,
      "ĠmÃ¡t": 1946,
      "Ġ2011": 1947,
      "Ġruvnn": 1948,
      "Ġand": 1949,
      "buot": 1950,
      "ĠriikkaidgaskasaÅ¡": 1951,
      "politihka": 1952,
      "ĠstÃ¡ht": 1953,
      "joÄĳih": 1954,
      "ema": 1955,
      "proÅ¡eavtt": 1956,
      "ojuvvui": 1957,
      "beal": 1958,
      "leat": 1959,
      "tan": 1960,
      "ĠlassÃ¡n": 1961,
      "Oahp": 1962,
      "Ġviidd": 1963,
      "eahcir": 1964,
      "Ġnjuol": 1965,
      "eahÄį": 1966,
      "Ġgullet": 1967,
      "Ġrapor": 1968,
      "Barg": 1969,
      "ihkalaÅ¡": 1970,
      "Ġ90": 1971,
      "ĠsÃ¡ht": 1972,
      "lÃ¡gan": 1973,
      "ĠgieÄĳ": 1974,
      "gil": 1975,
      "Ã¡in": 1976,
      "SÃ¡medigg": 1977,
      "ĠmearkkaÅ¡a": 1978,
      "Ġdanne": 1979,
      "osat": 1980,
      "Ġdoaimmaid": 1981,
      "eguovd": 1982,
      "Ġvuovd": 1983,
      "omearr": 1984,
      "ĠoaÅ¾Å¾u": 1985,
      "insih": 1986,
      "ard": 1987,
      "llu": 1988,
      "guovllu": 1989,
      "Ġdoarjj": 1990,
      "Ġsaj": 1991,
      "ĠDÃ¡l": 1992,
      "Ġdanin": 1993,
      "ĠÃ¡lgoÃ¡lbmot": 1994,
      "ĠoÅ¾Å¾ot": 1995,
      "gal": 1996,
      "ahusa": 1997,
      "Ġgovv": 1998,
      "Ġvuoigatvuohta": 1999,
      "ttu": 2000,
      "Ġolu": 2001,
      "www": 2002,
      "Ġsull": 2003,
      "jÃ¡r": 2004,
      "uhus": 2005,
      "ĠMuhto": 2006,
      "gen": 2007,
      "ĠoaÄįÄį": 2008,
      "kr": 2009,
      "Ġko": 2010,
      "Ġdiv": 2011,
      "Ġsihkkarastit": 2012,
      "ĠÃ¡rv": 2013,
      "ĠgalggaÅ¡": 2014,
      "199": 2015,
      "jai": 2016,
      "Ġbuvttad": 2017,
      "Ġdovdd": 2018,
      "ĠaddÃ¡": 2019,
      "Ġollis": 2020,
      "ĠrÃ¡ÄĳÄĳehus": 2021,
      "________": 2022,
      "kti": 2023,
      "Ġlo": 2024,
      "Ġis": 2025,
      "gor": 2026,
      "bivd": 2027,
      "ĠekonomalaÅ¡": 2028,
      "Ġstuora": 2029,
      "tes": 2030,
      "Ġdahkat": 2031,
      "pros": 2032,
      "Ġ00": 2033,
      "rÃ¡ÄĳÄĳ": 2034,
      "allÃ¡": 2035,
      "Ġgaskka": 2036,
      "Ġfertejit": 2037,
      "Ġsv": 2038,
      "Ġloahp": 2039,
      "Ġ2012": 2040,
      "ĠEllen": 2041,
      "Ġreh": 2042,
      "oazodoall": 2043,
      "Ġvuos": 2044,
      "ahan": 2045,
      "erejuvvon": 2046,
      "guovddÃ¡Å¡": 2047,
      "ĠâĢĿ": 2048,
      "ine": 2049,
      "Ġovddidan": 2050,
      "ĠdÃ¡lÃ¡": 2051,
      "ĠÃ¡Å¡Å¡iid": 2052,
      "ideapmi": 2053,
      "Ã¡ss": 2054,
      "Ġen": 2055,
      "Ġ2013": 2056,
      "Ġsuodj": 2057,
      "Ġgielda": 2058,
      "mmaid": 2059,
      "Ġkonsul": 2060,
      "Ġlasih": 2061,
      "Ġ50": 2062,
      "ĠsÃ¡httit": 2063,
      "uhuvvo": 2064,
      "âĢŀ": 2065,
      "kar": 2066,
      "Ġ197": 2067,
      "Ġriikka": 2068,
      "ĠfÃ¡ga": 2069,
      "Å¡Å¡i": 2070,
      "ve": 2071,
      "ggiid": 2072,
      "dil": 2073,
      "Ġfitn": 2074,
      "ĠGuo": 2075,
      "ttain": 2076,
      "Ġeatn": 2077,
      "Ġ2007": 2078,
      "talaÅ¡": 2079,
      "ĠdÃ¡sseÃ¡rv": 2080,
      "ssas": 2081,
      "Ġ2005": 2082,
      "ĠÃ¡rvvoÅ¡tallat": 2083,
      "oaibma": 2084,
      "ĠÄįÃ¡jeha": 2085,
      "Ġkultuvra": 2086,
      "Â³": 2087,
      "doaibma": 2088,
      "olla": 2089,
      "Ġearenoam": 2090,
      "Pr": 2091,
      "olbmuid": 2092,
      "Âļ": 2093,
      "ÅĭgiruÅ¡Å¡": 2094,
      "âĢ¦": 2095,
      "gad": 2096,
      "Ġeallin": 2097,
      "Ġthe": 2098,
      "eassa": 2099,
      "Ġoahppit": 2100,
      "oss": 2101,
      "nd": 2102,
      "ĠplÃ¡na": 2103,
      "age": 2104,
      "Ġsihkkarast": 2105,
      "ĠhÃ¡b": 2106,
      "ac": 2107,
      "Ġdig": 2108,
      "Ġmusea": 2109,
      "Ġealli": 2110,
      "progrÃ¡mma": 2111,
      "kin": 2112,
      "uolÃ¡st": 2113,
      "Ġdul": 2114,
      "ĠvÃ¡h": 2115,
      "tnet": 2116,
      "mmat": 2117,
      "ĠNord": 2118,
      "meahc": 2119,
      "Ġvear": 2120,
      "Ġbiebm": 2121,
      "Ġgeavahan": 2122,
      "arje": 2123,
      "Ġvea": 2124,
      "Ã¤r": 2125,
      "ĠdÃ¡vjÃ¡": 2126,
      "juolggadus": 2127,
      "Ã¡pmi": 2128,
      "ĠmaÅĭÅĭÃ¡": 2129,
      "ari": 2130,
      "mes": 2131,
      "Ġriekte": 2132,
      "ĠdÃ¡hpÃ¡h": 2133,
      "kke": 2134,
      "Ġgeavaheami": 2135,
      "âĢĻ": 2136,
      "ĠMeahcir": 2137,
      "Ġjagis": 2138,
      "doalu": 2139,
      "Ovdd": 2140,
      "EA": 2141,
      "doarj": 2142,
      "Ã³": 2143,
      "Ġbeaivvi": 2144,
      "vi": 2145,
      "ĠAr": 2146,
      "ferÃ¡n": 2147,
      "Ġjear": 2148,
      "Ġpolit": 2149,
      "osis": 2150,
      "Ġ26": 2151,
      "Ġnuppi": 2152,
      "organis": 2153,
      "Ġbargu": 2154,
      "ĠDanne": 2155,
      "ideaddji": 2156,
      "eahÄįÄį": 2157,
      "Vuo": 2158,
      "iehtadusa": 2159,
      "gu": 2160,
      "Ġoahppop": 2161,
      "ĠollaÅ¡": 2162,
      "Ġfylkkas": 2163,
      "ĠKÃ¡rÃ¡Å¡j": 2164,
      "Ġsk": 2165,
      "Kultur": 2166,
      "ĠlivÄįÄįii": 2167,
      "OlgeÅ¡": 2168,
      "anas": 2169,
      "ĠOhc": 2170,
      "ĠÃ¡vkk": 2171,
      "alÃ¡gan": 2172,
      "lÃ¡g": 2173,
      "lasku": 2174,
      "Ġmearridit": 2175,
      "Ġnjuolggadusat": 2176,
      "ĠsÃ¡hka": 2177,
      "ĠÃ¡igge": 2178,
      "beaivv": 2179,
      "Ġjos": 2180,
      "tern": 2181,
      "jÃ¡v": 2182,
      "Ġolggobealde": 2183,
      "Ġgar": 2184,
      "Ġnav": 2185,
      "ago": 2186,
      "ĠvÃ¡rr": 2187,
      "ettiin": 2188,
      "Ã¡Å¡t": 2189,
      "ddaÅ¡": 2190,
      "ĠDuo": 2191,
      "olaÄįÄįat": 2192,
      "Ġjorg": 2193,
      "utkan": 2194,
      "ĠÄįuovvovaÅ¡": 2195,
      "ĠdÃ¡sis": 2196,
      "Ġbidjat": 2197,
      "Ġet": 2198,
      "Ġdihtii": 2199,
      "Ġstud": 2200,
      "Ġjulev": 2201,
      "Ã¡dusaid": 2202,
      "ĠdÃ¡kkÃ¡r": 2203,
      "uma": 2204,
      "ĠmÃ¡nn": 2205,
      "Sa": 2206,
      "SÃ¡me": 2207,
      "Ġdon": 2208,
      "Ġmear": 2209,
      "undd": 2210,
      "idjiide": 2211,
      "ĠvÃ¡il": 2212,
      "Ġ2006": 2213,
      "adepartemeanta": 2214,
      "Ġjuohk": 2215,
      "Ġdihto": 2216,
      "ĠFinnmÃ¡rkkus": 2217,
      "ÅĭÅĭ": 2218,
      "ĠgieÄĳah": 2219,
      "Ġ31": 2220,
      "rievtt": 2221,
      "eÃ¡la": 2222,
      "ĠrÃ¡hkadit": 2223,
      "Ġoaivvilda": 2224,
      "Ã¡dj": 2225,
      "ber": 2226,
      "Ġguovlluid": 2227,
      "Â¹": 2228,
      "eahttÃ¡": 2229,
      "Ġ40": 2230,
      "ĠÃ¡lbmoga": 2231,
      "ĠrÃ¡mma": 2232,
      "::::": 2233,
      "emiin": 2234,
      "pir": 2235,
      "ortnega": 2236,
      "illi": 2237,
      "nas": 2238,
      "agieldd": 2239,
      "Ġjie": 2240,
      "ĠduoÄĳaÅ¡t": 2241,
      "kur": 2242,
      "Ġovttaskas": 2243,
      "Ġmudd": 2244,
      "ĠÃ¡sahit": 2245,
      "Ġdor": 2246,
      "ĠDasa": 2247,
      "Ġsullii": 2248,
      "Ġgusket": 2249,
      "lÃ¡hka": 2250,
      "ĠvuoÄĳÄĳo": 2251,
      "konven": 2252,
      "Ġgeav": 2253,
      "edieÄĳÃ¡hus": 2254,
      "ĠÄįoahkkin": 2255,
      "nna": 2256,
      "ĠÃ¡Å¡Å¡is": 2257,
      "aguo": 2258,
      "dal": 2259,
      "aiguin": 2260,
      "ep": 2261,
      "giela": 2262,
      "ĠoÄĳasm": 2263,
      "Ġ21": 2264,
      "ĠGu": 2265,
      "osit": 2266,
      "Ã¡htten": 2267,
      "ĠRomssa": 2268,
      "odahkii": 2269,
      "ĠvuostÃ¡": 2270,
      "ĠOslo": 2271,
      "ullis": 2272,
      "ĠguovddÃ¡Å¾": 2273,
      "Ġ&": 2274,
      "ĠrÃ¡dj": 2275,
      "SA": 2276,
      "erÃ¡ÄĳÄĳi": 2277,
      "ĠÃ¥": 2278,
      "allamis": 2279,
      "ĠON": 2280,
      "Ġomd": 2281,
      "ttiin": 2282,
      "ideami": 2283,
      "Ġmuhtin": 2284,
      "ĠieÅ¾a": 2285,
      "tr": 2286,
      "Ġdili": 2287,
      "In": 2288,
      "Ġsoa": 2289,
      "mear": 2290,
      "ĠsÃ¡pmelaÄįÄįaid": 2291,
      "Ã¡dusat": 2292,
      "SR": 2293,
      "Ġgaskk": 2294,
      "............": 2295,
      "ĠÃ¡ss": 2296,
      "21": 2297,
      "uovllu": 2298,
      "vÃ¡ld": 2299,
      "Ġgeatnegas": 2300,
      "ĠStuorradi": 2301,
      "Ġolbmo": 2302,
      "Ġovdamearkka": 2303,
      "th": 2304,
      "ĠunnÃ¡n": 2305,
      "ksta": 2306,
      "uovv": 2307,
      "Ġoassin": 2308,
      "Ġnor": 2309,
      "----": 2310,
      "Ġservodagas": 2311,
      "Â§": 2312,
      "kkÃ¡dat": 2313,
      "Ġmun": 2314,
      "ikÅ¡": 2315,
      "Ã¡laÅ¡vuoÄĳa": 2316,
      "ĠMÃ¡nÃ¡id": 2317,
      "Ã¡las": 2318,
      "Ġdoppe": 2319,
      "eall": 2320,
      "Ġeaktu": 2321,
      "Mana": 2322,
      "ia": 2323,
      "mp": 2324,
      "easet": 2325,
      "uodjalus": 2326,
      "Ġgoa": 2327,
      "kil": 2328,
      "ĠsÃ¡gast": 2329,
      "Ġ29": 2330,
      "politihkalaÅ¡": 2331,
      "valusa": 2332,
      "Ġat": 2333,
      "06": 2334,
      "ĠmuÄĳui": 2335,
      "taga": 2336,
      "Ġduohta": 2337,
      "Ġkonven": 2338,
      "ĠGuovdageainn": 2339,
      "ĠbajÃ¡s": 2340,
      "arvÃ¡i": 2341,
      "aiddÃ¡i": 2342,
      "ark": 2343,
      "oahpahusa": 2344,
      "Ġovddast": 2345,
      "ĠgullÃ¡": 2346,
      "Ġbuori": 2347,
      "foan": 2348,
      "mÃ¡nus": 2349,
      "Ġoaidnit": 2350,
      "irji": 2351,
      "esse": 2352,
      "Ġ01": 2353,
      "Äĳii": 2354,
      "Ġortneg": 2355,
      "iduvvo": 2356,
      "ĠguolÃ¡stus": 2357,
      "ĠstuorÃ¡t": 2358,
      "ĠmÃ¡Åĭgg": 2359,
      "OlgeÅ¡bellodat": 2360,
      "kantu": 2361,
      "ĠlÃ¡ga": 2362,
      "ĠsÃ¡megielas": 2363,
      "Ġsird": 2364,
      "Ġ2014": 2365,
      "Ġunivers": 2366,
      "iduvvon": 2367,
      "05": 2368,
      "adan": 2369,
      "Ġluoh": 2370,
      "Ġdavvis": 2371,
      "Ġ500": 2372,
      "ihtta": 2373,
      "dah": 2374,
      "Ġgirk": 2375,
      "ksen": 2376,
      "ogas": 2377,
      "Ġbear": 2378,
      "keahttÃ¡": 2379,
      "Ġbarggus": 2380,
      "djalan": 2381,
      "Norgga": 2382,
      "ierpm": 2383,
      "keh": 2384,
      "ĠÄįÃ¡l": 2385,
      "Ġskuvllas": 2386,
      "bbas": 2387,
      "Ean": 2388,
      "02": 2389,
      "UO": 2390,
      "ĠsÃ¡tn": 2391,
      "Ġmen": 2392,
      "ĠïĤ·": 2393,
      "ĠOvd": 2394,
      "be": 2395,
      "ĠfÃ¡lald": 2396,
      "Ġgaskal": 2397,
      "ĠdoarvÃ¡i": 2398,
      "insihp": 2399,
      "istr": 2400,
      "ahke": 2401,
      "ĠEarÃ¡": 2402,
      "ĠÅ¡atta": 2403,
      "eaksta": 2404,
      "ĠNuor": 2405,
      "LA": 2406,
      "ode": 2407,
      "ĠÄįaÄĳahit": 2408,
      "Ã¡vss": 2409,
      "Ġbeassat": 2410,
      "Ġoainn": 2411,
      "Ġ2003": 2412,
      "okta": 2413,
      "Ġlohkan": 2414,
      "Ġ2004": 2415,
      "Ġsuor": 2416,
      "Ġservodaga": 2417,
      "Ġvaikko": 2418,
      "ĠlÃ¡hÄį": 2419,
      "Ġeane": 2420,
      "Ã¡mis": 2421,
      "ruktu": 2422,
      "ĠvÃ¡lga": 2423,
      "Almm": 2424,
      "rd": 2425,
      "Ġipmi": 2426,
      "ela": 2427,
      "Ġee": 2428,
      "mag": 2429,
      "Ã¡mus": 2430,
      "ĠmÃ¡htu": 2431,
      "uiguin": 2432,
      "duo": 2433,
      "bii": 2434,
      "OA": 2435,
      "Ġdasto": 2436,
      "Ġoroh": 2437,
      "jet": 2438,
      "juo": 2439,
      "ĠoaidnÃ¡": 2440,
      "iess": 2441,
      "Ġto": 2442,
      "vu": 2443,
      "Ġstrateg": 2444,
      "Ġno": 2445,
      "kumen": 2446,
      "Ġmeahcceg": 2447,
      "undui": 2448,
      "kii": 2449,
      "ustt": 2450,
      "ĠÄįÃ¡llin": 2451,
      "ĠorganisaÅ¡uvnn": 2452,
      "ĠjÃ¡v": 2453,
      "ĠJa": 2454,
      "ĠKultur": 2455,
      "FinnmÃ¡r": 2456,
      "olÃ¡ga": 2457,
      "jejuvvon": 2458,
      "Ġveahkk": 2459,
      "ĠOahpp": 2460,
      "Ã¡httu": 2461,
      "Å¡uvdn": 2462,
      "ĠÄįohkk": 2463,
      "Ġeana": 2464,
      "Ġskuvl": 2465,
      "Ã¡Å¡ii": 2466,
      "zÃ¡h": 2467,
      "ĠvuoigatvuoÄĳa": 2468,
      "Ġparla": 2469,
      "Ġmeahc": 2470,
      "olbmot": 2471,
      "ĠdikÅ¡": 2472,
      "Ġdoaimmat": 2473,
      "ologalaÅ¡": 2474,
      "Ġmasa": 2475,
      "ĠÃ¡rvalus": 2476,
      "ĠSÃ¡megiela": 2477,
      "LO": 2478,
      "ĠÄįÃ¡jehit": 2479,
      "Ġhuksen": 2480,
      "ĠjurddaÅ¡": 2481,
      "bÃ¡l": 2482,
      "muitt": 2483,
      "04": 2484,
      "abas": 2485,
      "ĠgÃ¡vnn": 2486,
      "eatna": 2487,
      "Äįod": 2488,
      "dii": 2489,
      "ĠÄįuovvol": 2490,
      "ĠproÅ¡eakta": 2491,
      "ĠareÃ¡la": 2492,
      "mo": 2493,
      "ĠSea": 2494,
      "uhttin": 2495,
      "adi": 2496,
      "ehtt": 2497,
      "ĠkultuvrralaÅ¡": 2498,
      "03": 2499,
      "aspir": 2500,
      "guovllus": 2501,
      "ĠmÃ¡Åĭga": 2502,
      "Ãħ": 2503,
      "Ġval": 2504,
      "Ġkonsulta": 2505,
      "Ã¡rvv": 2506,
      "eavstt": 2507,
      "vttiid": 2508,
      "assii": 2509,
      "Tr": 2510,
      "ED": 2511,
      "âĢ¦âĢ¦": 2512,
      "Ġu": 2513,
      "Ġnanne": 2514,
      "musea": 2515,
      "politihkka": 2516,
      "ols": 2517,
      "Ġoahpaheaddji": 2518,
      "ĠlÃ¡hkai": 2519,
      "ĠIi": 2520,
      "Ġsohka": 2521,
      "esideanta": 2522,
      "kn": 2523,
      "Ġrievtt": 2524,
      "ologiija": 2525,
      "Ġident": 2526,
      "Ġeaigg": 2527,
      "Oza": 2528,
      "Ġsiskkobealde": 2529,
      "Ġeahp": 2530,
      "ejuvvot": 2531,
      "Ã¡dusbellodat": 2532,
      "ĠÃ¡ÅĭgiruÅ¡Å¡": 2533,
      "Ġjagiid": 2534,
      "Ã¡htolaÅ¡": 2535,
      "oluo": 2536,
      "mmas": 2537,
      "div": 2538,
      "ĠkÃ¡r": 2539,
      "allamiid": 2540,
      "Ã¡lalaÅ¡": 2541,
      "ver": 2542,
      "Ġbiss": 2543,
      "allamat": 2544,
      "Ġbeass": 2545,
      "Ã¡nn": 2546,
      "ersen": 2547,
      "Ġ2001": 2548,
      "ĠdadjÃ¡": 2549,
      "meahtt": 2550,
      "Ġsadj": 2551,
      "Ġfr": 2552,
      "ĠmÃ¡nÃ¡ide": 2553,
      "Ġguosk": 2554,
      "vla": 2555,
      "Ar": 2556,
      "vuoigatvuoÄĳaid": 2557,
      "Ġguovtti": 2558,
      "Ġjoatkkas": 2559,
      "ihan": 2560,
      "Ġgalgga": 2561,
      "Ġgeasse": 2562,
      "ovnna": 2563,
      "edag": 2564,
      "vo": 2565,
      "pektii": 2566,
      "Ġmuital": 2567,
      "eaigg": 2568,
      "orm": 2569,
      "Ġlundd": 2570,
      "jagi": 2571,
      "ikk": 2572,
      "ĠAnti": 2573,
      "Ã¡sit": 2574,
      "Ġevttohus": 2575,
      "ĠMat": 2576,
      "Ġjorgal": 2577,
      "ddan": 2578,
      "Ġnama": 2579,
      ".,": 2580,
      "Ġmieh": 2581,
      "Ġbohtet": 2582,
      "agad": 2583,
      "ĠeamiÃ¡lbmot": 2584,
      "ĠDÃ¡s": 2585,
      "tola": 2586,
      "Ġlahtu": 2587,
      "ovttas": 2588,
      "elef": 2589,
      "ĠvÃ¡id": 2590,
      "erema": 2591,
      "tetge": 2592,
      "imuÅ¡": 2593,
      "ĠvÃ¡hne": 2594,
      "09": 2595,
      "obi": 2596,
      "Ġdego": 2597,
      "estiv": 2598,
      "Ġsiv": 2599,
      "abealla": 2600,
      "ĠdÃ¡rbbaÅ¡laÅ¡": 2601,
      "mÃ¡Å¡": 2602,
      "Ġguvlui": 2603,
      "Lea": 2604,
      "dn": 2605,
      "Ġgulahallan": 2606,
      "ĠAina": 2607,
      "Ġ2000": 2608,
      "eddjiid": 2609,
      "hki": 2610,
      "vvi": 2611,
      "ĠdilÃ¡laÅ¡": 2612,
      "Ġbeaiv": 2613,
      "OvddÃ¡dusbellodat": 2614,
      "lis": 2615,
      "ggus": 2616,
      "Ġdoaibmabijuid": 2617,
      "Ã¡nit": 2618,
      "ĠLuondd": 2619,
      "Ã¨": 2620,
      "Ġuh": 2621,
      "eantta": 2622,
      "ĠbÃ¡": 2623,
      "ĠbuÅ¡eahtta": 2624,
      "ĠollislaÅ¡": 2625,
      "vuoÄĳÄĳ": 2626,
      "dÃ¡": 2627,
      "iriikkalaÅ¡": 2628,
      "vuona": 2629,
      "Ġohppiid": 2630,
      "ĠcealkÃ¡muÅ¡": 2631,
      "barggus": 2632,
      "kui": 2633,
      "ĠDean": 2634,
      "Ġtu": 2635,
      "kkad": 2636,
      "ĠsÃ¡medikki": 2637,
      "ĠÄįakÄį": 2638,
      "ĠÄįielgas": 2639,
      "ĠvÃ¡ikkuhangaska": 2640,
      "Ġmedi": 2641,
      "Ġbargo": 2642,
      "Ã¡megillii": 2643,
      "jiin": 2644,
      "Ġgulasku": 2645,
      "Ġfylkkagieldd": 2646,
      "allamii": 2647,
      "ĠgohÄįod": 2648,
      "Ġoahppi": 2649,
      "ering": 2650,
      "Ġmilj": 2651,
      "//": 2652,
      "eavttut": 2653,
      "Ġmielddis": 2654,
      "deami": 2655,
      "omearri": 2656,
      "ĠgÃ¡vd": 2657,
      "${": 2658,
      "iht": 2659,
      "Ġoahppan": 2660,
      "Ġovttasbarggu": 2661,
      "ahttÃ¡": 2662,
      "uohkin": 2663,
      "isttar": 2664,
      "dji": 2665,
      "}${": 2666,
      "ĠhÃ¡r": 2667,
      "ĠgullevaÅ¡": 2668,
      "Ġovdanbukt": 2669,
      "Ġguovtteg": 2670,
      "mmah": 2671,
      "Ġkulturmuit": 2672,
      "Ġgolbma": 2673,
      "mÃ¡": 2674,
      "ĠvejolaÅ¡vuoÄĳa": 2675,
      "idnu": 2676,
      "cci": 2677,
      "ĠdÃ¡ss": 2678,
      "eguovdil": 2679,
      "berg": 2680,
      ".-": 2681,
      "Ġadn": 2682,
      "Ġatnit": 2683,
      "Ġ+": 2684,
      "Ê¹": 2685,
      "ĠAl": 2686,
      "ĠUn": 2687,
      "ugiid": 2688,
      "medi": 2689,
      "Ġfil": 2690,
      "ild": 2691,
      "Ġoktan": 2692,
      "ĠgelbbolaÅ¡vuoÄĳa": 2693,
      "vuor": 2694,
      "ĠOr": 2695,
      "Juo": 2696,
      "ĠÃ¡iras": 2697,
      "ĠoktavuoÄĳa": 2698,
      "ĠÃ¡ssan": 2699,
      "ĠgalggaÅ¡ii": 2700,
      "Ġ2015": 2701,
      "hka": 2702,
      "Ġiige": 2703,
      "ĠÄįatn": 2704,
      "Ġeavttuid": 2705,
      "eahtta": 2706,
      "Ġel": 2707,
      "Ġbel": 2708,
      "alo": 2709,
      "ĠDoarjja": 2710,
      "eamen": 2711,
      "ĠdÃ¡idda": 2712,
      "rist": 2713,
      "Ãģl": 2714,
      "dire": 2715,
      "dut": 2716,
      "ĠâĢŀ": 2717,
      "organisaÅ¡uvnn": 2718,
      "ĠguoskevaÅ¡": 2719,
      "ĠnuppÃ¡st": 2720,
      "Ġoktiibuot": 2721,
      "Ġbuhta": 2722,
      "Ġrolla": 2723,
      "Ġguhkes": 2724,
      "ieht": 2725,
      "logus": 2726,
      "ĠseammÃ¡s": 2727,
      "akt": 2728,
      "Ġeanemus": 2729,
      "Ġbuoret": 2730,
      "lahtu": 2731,
      "Ġdilli": 2732,
      "ĠÃ¡Å¡Å¡iin": 2733,
      "://": 2734,
      "Äİ": 2735,
      "Ġoahpu": 2736,
      "ote": 2737,
      "Ġgoz": 2738,
      "Ġ196": 2739,
      "Ġsierr": 2740,
      "Ġoahppat": 2741,
      "dÃ¡s": 2742,
      "ĠhÃ¡liida": 2743,
      "ĠoassÃ¡last": 2744,
      "Ġna": 2745,
      "ĠÃ¡vÅ¾Å¾": 2746,
      "ationÃ¡la": 2747,
      "aÅ¡uvdn": 2748,
      "ĠStÃ¡hta": 2749,
      "Ã¥l": 2750,
      "asis": 2751,
      "Ġlihk": 2752,
      "Ġkval": 2753,
      "Ġbir": 2754,
      "Âŀ": 2755,
      "vuogÃ¡d": 2756,
      "Ġbuoremus": 2757,
      "ĠrÃ¡djÃ¡i": 2758,
      "Å¡uvnnat": 2759,
      "40": 2760,
      "ĠdievasÄįoahkki": 2761,
      "Ġovttasbargu": 2762,
      "ĠSii": 2763,
      "ĠdievasÄįoahkkin": 2764,
      "................................................": 2765,
      "ÄįuozÃ¡h": 2766,
      "ĠguÄĳ": 2767,
      "ĠmÃ¡nÃ¡": 2768,
      "bÃ¡ikk": 2769,
      "yr": 2770,
      "ihkas": 2771,
      "odagat": 2772,
      "ĠvejolaÅ¡vuohta": 2773,
      "Ġgusto": 2774,
      "ĠdÃ¡in": 2775,
      "anl": 2776,
      "Ġ2002": 2777,
      "fin": 2778,
      "Ġlullis": 2779,
      "bellodaga": 2780,
      "ustteg": 2781,
      "ĠÃ¡lgoÃ¡lbmogiid": 2782,
      "edieÄĳ": 2783,
      "ĠÄįujuha": 2784,
      "vuoigatvuoÄĳa": 2785,
      "Ã¡iggis": 2786,
      "ktalaÅ¡": 2787,
      "ĠY": 2788,
      "uvvat": 2789,
      "pi": 2790,
      "ĠbearrÃ¡ig": 2791,
      "ĠNj": 2792,
      "Ġgolmma": 2793,
      "vuoigatvuohta": 2794,
      "Ġruvnno": 2795,
      "edagog": 2796,
      "Â¢": 2797,
      "Ġ33": 2798,
      "Ġveahkeh": 2799,
      "ĠKon": 2800,
      "ity": 2801,
      "Ġmearriduvvon": 2802,
      "gea": 2803,
      "ĠDÃ¡": 2804,
      "Ġoaiv": 2805,
      "Ġdohk": 2806,
      "ĠRuoÅ§a": 2807,
      "dat": 2808,
      "vvalaÅ¡": 2809,
      "fÃ¡g": 2810,
      "ĠÅ¡iehtad": 2811,
      "aÅ¡uvdna": 2812,
      "Ã¡rkan": 2813,
      "ĠieÅ¡guÄĳetlÃ¡gan": 2814,
      "ors": 2815,
      "Ġdeaivv": 2816,
      "Ġkm": 2817,
      "MI": 2818,
      "ĠrÃ¡djai": 2819,
      "ĠJos": 2820,
      "ubmi": 2821,
      "Ġnubbi": 2822,
      "gÃ¡htten": 2823,
      "ĠsÃ¡pmelaÄįÄįat": 2824,
      "Ġ35": 2825,
      "poasta": 2826,
      "ovdÃ¡n": 2827,
      "uhtti": 2828,
      "ĠMie": 2829,
      "Ġbirras": 2830,
      "Ġav": 2831,
      "DÃ¡l": 2832,
      "doallo": 2833,
      "Ġloahpah": 2834,
      "RÃ¡ÄĳÄĳehus": 2835,
      "atist": 2836,
      "ĠmÃ¡ilmmi": 2837,
      "08": 2838,
      "Ġgeas": 2839,
      "25": 2840,
      "Ġvi": 2841,
      "ttÃ¡": 2842,
      "Ġregistr": 2843,
      "ĠrÃ¡vv": 2844,
      "Ã¡bealde": 2845,
      "minist": 2846,
      "Ã¡lddahus": 2847,
      "ĠovdÃ¡neami": 2848,
      "DÃ¡s": 2849,
      "tad": 2850,
      "Ã¡daga": 2851,
      "Ġdoaibmabijut": 2852,
      "Ġboht": 2853,
      "45": 2854,
      "Ġala": 2855,
      "ĠÃ¡ibbas": 2856,
      "Ġmearridan": 2857,
      "Ġoidn": 2858,
      "ĠmeroÅ¡t": 2859,
      "ĠfÃ¡l": 2860,
      "Ġfievrr": 2861,
      "Ġhaga": 2862,
      "ĠLundui": 2863,
      "Ġrea": 2864,
      "Ġalmmuh": 2865,
      "turr": 2866,
      "ĠvuoigatvuoÄĳat": 2867,
      "ens": 2868,
      "ĠVÃ¡nddar": 2869,
      "amii": 2870,
      "Jus": 2871,
      "jan": 2872,
      "Ġfuolahus": 2873,
      "ejumi": 2874,
      "Ã¡husat": 2875,
      "ihkal": 2876,
      "Ġvuoruh": 2877,
      "ĠrÃ¡v": 2878,
      "ĠMienna": 2879,
      "ran": 2880,
      "ĠboaÄĳ": 2881,
      "eallima": 2882,
      "ning": 2883,
      "again": 2884,
      "98": 2885,
      "fis": 2886,
      "im": 2887,
      "ris": 2888,
      "ihkkala": 2889,
      "ĠmÃ¡vss": 2890,
      "eavz": 2891,
      "Ġorru": 2892,
      "47": 2893,
      "hte": 2894,
      "iellan": 2895,
      "oÅ¡iehtadus": 2896,
      "ĠmÃ¡httu": 2897,
      "Ġsuodjal": 2898,
      "lahit": 2899,
      "uÄĳot": 2900,
      "itÃ¡la": 2901,
      "ĠprogrÃ¡mma": 2902,
      "ortnet": 2903,
      "ro": 2904,
      "DÃ¡n": 2905,
      "ggit": 2906,
      "Ġrahp": 2907,
      "irjer": 2908,
      "uolÃ¡stus": 2909,
      "iika": 2910,
      "Ã¡vcc": 2911,
      "ger": 2912,
      "Ġbaji": 2913,
      "Ġ37": 2914,
      "ĠmearkkaÅ¡upmi": 2915,
      "ÃģÅ¡Å¡i": 2916,
      "ĠBoazodoall": 2917,
      "urohp": 2918,
      "eim": 2919,
      "Gov": 2920,
      "ĠOvttas": 2921,
      "almmust": 2922,
      "ĠbÃ¡ik": 2923,
      "ĠVuoÄĳÄĳ": 2924,
      "Ġoan": 2925,
      "Ġduodje": 2926,
      "Ġenerg": 2927,
      "Ġmuddui": 2928,
      "urn": 2929,
      "ggiin": 2930,
      "Ġ36": 2931,
      "TA": 2932,
      "ĠÃ¡id": 2933,
      "ĠRÃ¡ÄĳÄĳehus": 2934,
      "NA": 2935,
      "get": 2936,
      "Ġgieldda": 2937,
      "ĠbÃ¡iken": 2938,
      "Ġeroh": 2939,
      "ĠmaÅĭÅĭel": 2940,
      "ÄįuozÃ¡hagat": 2941,
      "ppa": 2942,
      "ĠsÃ¡mediggej": 2943,
      "allamiin": 2944,
      "ĠVai": 2945,
      "evttoh": 2946,
      "Ġpriv": 2947,
      "oluotta": 2948,
      "ĠvÃ¡lljen": 2949,
      "Ġmuitalit": 2950,
      "ceal": 2951,
      "Ġso": 2952,
      "ĠdieÄĳut": 2953,
      "ĠMarit": 2954,
      "Ma": 2955,
      "ĠrÃ¡dd": 2956,
      "eriÃ¡la": 2957,
      "ĠvuoÄĳÄĳos": 2958,
      "ĠvÃ¡rre": 2959,
      "Ġkulturmuitt": 2960,
      "ĠMeahcirÃ¡ÄĳÄĳehus": 2961,
      "his": 2962,
      "asvÃ¡st": 2963,
      "ju": 2964,
      "ĠÄįuogg": 2965,
      "ĠoahppoplÃ¡n": 2966,
      "Ġboraspir": 2967,
      "Ġallaskuvla": 2968,
      "ĠJuo": 2969,
      "ĠSk": 2970,
      "man": 2971,
      "ĠfuomÃ¡Å¡": 2972,
      "Ġbargui": 2973,
      "adji": 2974,
      "ipean": 2975,
      "ĠGonagas": 2976,
      "jis": 2977,
      "ada": 2978,
      "sÃ¡megiela": 2979,
      "ĠLass": 2980,
      "ovnnalaÅ¡": 2981,
      "ves": 2982,
      "ĠMÃ¡htt": 2983,
      "eavttuid": 2984,
      "ĠmearrÃ¡dusaid": 2985,
      "Ġprinsihp": 2986,
      "nes": 2987,
      "Ġbuktit": 2988,
      "ĠVÃ¡r": 2989,
      "ddas": 2990,
      "ggaÅ¡t": 2991,
      "ejuvvojit": 2992,
      "vÃ¡r": 2993,
      "ĠdÃ¡rkk": 2994,
      "Ġdol": 2995,
      "Ã¡dje": 2996,
      "doarjja": 2997,
      "Ġduog": 2998,
      "gr": 2999,
      "ĠrÃ¡ÄĳÄĳehusa": 3000,
      "omear": 3001,
      "ĠKar": 3002,
      "MÃ¡nÃ¡id": 3003,
      "Ã¡Å¾a": 3004,
      "birras": 3005,
      "ĠdÃ¡iddÃ¡r": 3006,
      "ĠÃ¡vkkÃ¡st": 3007,
      "ehis": 3008,
      "mentÃ¡r": 3009,
      "ĠÅł": 3010,
      "kultuvrra": 3011,
      "EalÃ¡hus": 3012,
      "Ġohcat": 3013,
      "Äįiel": 3014,
      "erÃ¡la": 3015,
      "meahttun": 3016,
      "ak": 3017,
      "ĠhÃ¡bme": 3018,
      "iik": 3019,
      "jell": 3020,
      "ĠOahpahus": 3021,
      "Kon": 3022,
      "ĠJohan": 3023,
      "MÃ¡htt": 3024,
      "Ġsuomag": 3025,
      "ĠgÃ¡vdno": 3026,
      "ebut": 3027,
      "Ġ45": 3028,
      "ĠfÃ¡pm": 3029,
      "rrasa": 3030,
      "Ġcealk": 3031,
      "Davv": 3032,
      "sp": 3033,
      "Ã¡nan": 3034,
      "2008": 3035,
      "ĠjahkedieÄĳÃ¡hus": 3036,
      "Ġolis": 3037,
      "Ġrehket": 3038,
      "Ġgeavaheapmi": 3039,
      "usin": 3040,
      "jjÃ¡laÅ¡": 3041,
      "ĠÃ¡igodagas": 3042,
      "ĠOkta": 3043,
      "ĠgÃ¡vdnojit": 3044,
      "Ġgust": 3045,
      "ĠDasto": 3046,
      "oahpamuÅ¡a": 3047,
      "ĠÃ¡lggahit": 3048,
      "ĠmÃ¡nÃ¡idgÃ¡rde": 3049,
      "ttorm": 3050,
      "Ġvearr": 3051,
      "vuog": 3052,
      "Ġdiehtoj": 3053,
      "ieÄĳut": 3054,
      "vvas": 3055,
      "Ġgoit": 3056,
      "miel": 3057,
      "tere": 3058,
      "Ġeall": 3059,
      "ĠsÃ¡mit": 3060,
      "ĠsÃ¡v": 3061,
      "ĠdearvvaÅ¡": 3062,
      "ervv": 3063,
      "ionÃ¡la": 3064,
      "Ġburiid": 3065,
      "07": 3066,
      "Ġjienastus": 3067,
      "ĠboahtÃ¡n": 3068,
      "ĠvÃ¡llje": 3069,
      "ĠDÃ¡id": 3070,
      "vuoÄĳal": 3071,
      "uodjal": 3072,
      "nje": 3073,
      "Ġri": 3074,
      "Ã¡husaid": 3075,
      "ĠmearrÃ¡dusa": 3076,
      "Ġjuogad": 3077,
      "Ġaktii": 3078,
      "meting": 3079,
      "asit": 3080,
      "Ġunnimus": 3081,
      "SÃ¡megiella": 3082,
      "by": 3083,
      "ce": 3084,
      "Ġevttohusa": 3085,
      "Ġidentitehta": 3086,
      "ĠoppalaÅ¡": 3087,
      "ĠNil": 3088,
      "Ġlohku": 3089,
      "njuolggadus": 3090,
      "ohpp": 3091,
      "ĠruÄĳaid": 3092,
      "vtta": 3093,
      "Ġmis": 3094,
      "Ġulbmilin": 3095,
      "ohc": 3096,
      "ĠfÃ¡tt": 3097,
      "ĠdÃ¡bÃ¡laÄįÄįat": 3098,
      "ĠILO": 3099,
      "istorjÃ¡": 3100,
      "Ġsearvat": 3101,
      "22": 3102,
      "Ġjuh": 3103,
      "els": 3104,
      "ĠOÄĳÄĳa": 3105,
      "ĠÄįielga": 3106,
      "ĠÃ¡lbmotmeahc": 3107,
      "ĠDa": 3108,
      "ĠieÅ¡mearr": 3109,
      "ĠÃ¡lo": 3110,
      "ierr": 3111,
      "Ġnubb": 3112,
      "ehta": 3113,
      "Ġ43": 3114,
      "ĠmÃ¡nnÃ¡": 3115,
      "oassi": 3116,
      "ĠlÃ¡giin": 3117,
      "viid": 3118,
      "ĠeamiÃ¡lbmogiid": 3119,
      "Ç©": 3120,
      "earvvas": 3121,
      "ĠSol": 3122,
      "ĠÄįalmmust": 3123,
      "ĠsÃ¡niid": 3124,
      "IN": 3125,
      "Ġad": 3126,
      "Ġdoll": 3127,
      "Ġlohkat": 3128,
      "):": 3129,
      "ĠOhcej": 3130,
      "Ġnuorat": 3131,
      "Ġ39": 3132,
      "Ġkultuvrii": 3133,
      "ĠÃ¡lgoÃ¡lbmog": 3134,
      "Ġgaskkust": 3135,
      "ttar": 3136,
      "Ġoktavuo": 3137,
      "Ġguovl": 3138,
      "Tabealla": 3139,
      "avgil": 3140,
      "StÃ¡hta": 3141,
      "vddu": 3142,
      "Ġintern": 3143,
      "Ġbealde": 3144,
      "ĠAnd": 3145,
      "ĠoaÄįÄįui": 3146,
      "Ġalit": 3147,
      "imis": 3148,
      "Ġgalggai": 3149,
      "Ġjna": 3150,
      "reg": 3151,
      "Ġ[": 3152,
      "ggu": 3153,
      "ĠÃ¡igumuÅ¡": 3154,
      "Ġvis": 3155,
      "iijat": 3156,
      "Ġlag": 3157,
      "but": 3158,
      "tat": 3159,
      "serv": 3160,
      "Ġjahke": 3161,
      "dne": 3162,
      "Ġseaill": 3163,
      "uÅ¡Å¡an": 3164,
      "Cavgil": 3165,
      "ĠUnivers": 3166,
      "Ġoss": 3167,
      "astan": 3168,
      "last": 3169,
      "ksa": 3170,
      "SS": 3171,
      "idno": 3172,
      "Ġjoavkk": 3173,
      "kkit": 3174,
      "oll": 3175,
      "Ã¡lle": 3176,
      "iil": 3177,
      "vÃ¡ll": 3178,
      "ĠnjÃ¡l": 3179,
      "Ġrievdadit": 3180,
      "ĠStuor": 3181,
      "ĠdÃ¡rogiela": 3182,
      "gol": 3183,
      "rÃ¡s": 3184,
      "agiin": 3185,
      "ĠÃ¡ige": 3186,
      "eai": 3187,
      "Ġrabas": 3188,
      "odit": 3189,
      "ĠvuollÃ¡i": 3190,
      "oavd": 3191,
      "oahpu": 3192,
      "Ġoasi": 3193,
      "yn": 3194,
      "suor": 3195,
      "Å¡add": 3196,
      "ĠJo": 3197,
      "Ġovttast": 3198,
      "doarjaga": 3199,
      "ĠlÃ¡hk": 3200,
      "Ġdaidda": 3201,
      "ĠproÅ¡eavtta": 3202,
      "ddÃ¡i": 3203,
      "Ġoahpponeavvuid": 3204,
      "odagain": 3205,
      "ĠâĪı": 3206,
      "ĠÄįoahkk": 3207,
      "ĠhÃ¡liidit": 3208,
      "joavku": 3209,
      "Â¤": 3210,
      "ĠlÃ¡hkaÃ¡sahus": 3211,
      "estivÃ¡la": 3212,
      "Ġruovttoluotta": 3213,
      "stiv": 3214,
      "Ġceavz": 3215,
      "birra": 3216,
      "Ġmuitala": 3217,
      "ĠlÃ¡hÄįit": 3218,
      "Ġbuorebut": 3219,
      "Ġvej": 3220,
      "rri": 3221,
      "ĠEalÃ¡hus": 3222,
      "Ġoalle": 3223,
      "kkat": 3224,
      "Ġoahppo": 3225,
      "ern": 3226,
      "ĠMin": 3227,
      "ĠmaÅĭÅĭil": 3228,
      "Ġbargoj": 3229,
      "2009": 3230,
      "ĠÃ¡rvvoÅ¡tall": 3231,
      "Ġmearrida": 3232,
      "hk": 3233,
      "ĠsÃ¡pmelaÄįÄį": 3234,
      "ĠÃ¡lbmogii": 3235,
      "ĠovddasvÃ¡stÃ¡dusa": 3236,
      "eahtes": 3237,
      "ppaÅ¡": 3238,
      "ĠNSR": 3239,
      "ĠlunddolaÅ¡": 3240,
      "Ã¡ide": 3241,
      "Ã¡hter": 3242,
      "ĠGuttorm": 3243,
      "ts": 3244,
      "Ġposit": 3245,
      "ĠMun": 3246,
      "lahtt": 3247,
      "ĠgÃ¡vp": 3248,
      "ĠdieÄĳu": 3249,
      "uhttit": 3250,
      "2012": 3251,
      "hÃ¡lddaÅ¡": 3252,
      "ĠvÃ¡nddar": 3253,
      "Â·Â·": 3254,
      "metinget": 3255,
      "Ġdoib": 3256,
      "ĠÄįielgasit": 3257,
      "bev": 3258,
      "misk": 3259,
      "uos": 3260,
      "gii": 3261,
      "âĢĿ.": 3262,
      "ĠeaiggÃ¡d": 3263,
      "ĠÃģlbmot": 3264,
      "Ġvu": 3265,
      "Ã¡Å¡Å¡iid": 3266,
      "ĠviidÃ¡seappot": 3267,
      "97": 3268,
      "guvlui": 3269,
      "ĠBar": 3270,
      "Ġriikkas": 3271,
      "oamit": 3272,
      "igeguovdil": 3273,
      "Å¡uvnnaid": 3274,
      "Ġguhte": 3275,
      "isk": 3276,
      "Ġdahkan": 3277,
      "ĠÅ¡iehtadus": 3278,
      "Ġnamuhuvvon": 3279,
      "Ġsisa": 3280,
      "Ġfylkkasuohkan": 3281,
      "KK": 3282,
      "ĠsÃ¡pmelaÅ¡": 3283,
      "ihkkal": 3284,
      "Ġresurssaid": 3285,
      "ĠvalÃ¡Å¡t": 3286,
      "26": 3287,
      "ĠmÃ¡rkan": 3288,
      "Ġvuosttas": 3289,
      "Ġlahtt": 3290,
      "Ġta": 3291,
      "kÃ¡bma": 3292,
      "ĠfÃ¡galaÅ¡": 3293,
      "teren": 3294,
      "Ġgielddas": 3295,
      "Ġgirje": 3296,
      "Ġdoal": 3297,
      "Ġeanado": 3298,
      "kÅ¡": 3299,
      "ĠSuomas": 3300,
      "kkiid": 3301,
      "ĠrÃ¡ÄĳÄĳÃ¡d": 3302,
      "ĠBiras": 3303,
      "ĠÅ¡addan": 3304,
      "njÃ¡r": 3305,
      "Ġheivehuvvon": 3306,
      "isttalaÅ¡": 3307,
      "ff": 3308,
      "rÃ¡ÄĳÄĳi": 3309,
      "ĠÄįie": 3310,
      "mentÃ¡ralaÅ¡": 3311,
      "~~": 3312,
      "uopm": 3313,
      "ovdna": 3314,
      "ĠAnÃ¡r": 3315,
      "amma": 3316,
      "ĠeisevÃ¡lddiid": 3317,
      "lassii": 3318,
      "ĠDalle": 3319,
      "aguovll": 3320,
      "ealÃ¡husaid": 3321,
      "Ġohcan": 3322,
      "DA": 3323,
      "Ġmiesse": 3324,
      "Ġguovlu": 3325,
      "dollui": 3326,
      "Ġboares": 3327,
      "ahallan": 3328,
      "stad": 3329,
      "var": 3330,
      "guovddÃ¡Å¾at": 3331,
      "Ġmielddisbukt": 3332,
      "stta": 3333,
      "Submi": 3334,
      "oass": 3335,
      "Ġartihkkala": 3336,
      "ejupmi": 3337,
      "Ã¡saÄįÄįat": 3338,
      "Ã¡sta": 3339,
      "earvi": 3340,
      "kkaÅ¡": 3341,
      "Ġeat": 3342,
      "Ġnjeal": 3343,
      "ĠjahkÃ¡i": 3344,
      "htun": 3345,
      "jjÃ¡": 3346,
      "PR": 3347,
      "ĠMaiddÃ¡i": 3348,
      "Ġteaksta": 3349,
      "daid": 3350,
      "ĠnationÃ¡la": 3351,
      "Ġeatnamiid": 3352,
      "Ġbuoridit": 3353,
      "evÃ¡l": 3354,
      "Äĳiid": 3355,
      "ĠgÃ¡rvv": 3356,
      "2007": 3357,
      "SÃ¡mediggerÃ¡ÄĳÄĳi": 3358,
      "27": 3359,
      "ttevaÅ¡": 3360,
      "ĠTh": 3361,
      "Ġvealah": 3362,
      "Ġsearvv": 3363,
      "29": 3364,
      "vÃ¡ldi": 3365,
      "ulli": 3366,
      "Äĳistaga": 3367,
      "Ġdehe": 3368,
      "ili": 3369,
      "ĠboÄĳii": 3370,
      "ĠÃ¡rvvoÅ¡tallan": 3371,
      "ËľËľ": 3372,
      "23": 3373,
      "ĠÄįovd": 3374,
      "ĠÃ¡Å¡Å¡it": 3375,
      "Ġinfor": 3376,
      "Ã¡ddÃ¡": 3377,
      "oavkkus": 3378,
      "Ġil": 3379,
      "Ġ47": 3380,
      "itter": 3381,
      "Ġ................": 3382,
      "miela": 3383,
      "ĠsÃ¡r": 3384,
      "Ã¡hkan": 3385,
      "urggiin": 3386,
      "Ġgeavahuvvo": 3387,
      "emin": 3388,
      "riksen": 3389,
      "aicc": 3390,
      "Ġdattetge": 3391,
      "eatn": 3392,
      "igation": 3393,
      "ĠsadjÃ¡i": 3394,
      "mediggi": 3395,
      "ango": 3396,
      "doaimma": 3397,
      "ister": 3398,
      "ĠdÃ¡rkil": 3399,
      "lai": 3400,
      "DÃ¡t": 3401,
      "ĠriegÃ¡d": 3402,
      "ĠGas": 3403,
      "Ġ78": 3404,
      "Ġeanadoall": 3405,
      "umis": 3406,
      "andoallo": 3407,
      "ĠÅ¡addat": 3408,
      "ĠgÃ¡vdnat": 3409,
      "pmÃ¡r": 3410,
      "esset": 3411,
      "ĠÅ¡attai": 3412,
      "Ã±": 3413,
      "ĠHen": 3414,
      "Ġ,": 3415,
      "ĠÄįÃ¡z": 3416,
      "ĠÅ¡addet": 3417,
      "amearkk": 3418,
      "Ġnavigation": 3419,
      "Ġsidjiide": 3420,
      "ĠEr": 3421,
      "nen": 3422,
      "ĠRuoÅ¡Å¡": 3423,
      "ĠmiehtÃ¡": 3424,
      "guovlluin": 3425,
      "vuovd": 3426,
      "ĠberoÅ¡t": 3427,
      "arjel": 3428,
      "bme": 3429,
      "miija": 3430,
      "joÄĳiheaddji": 3431,
      "Ã¡httÃ¡": 3432,
      "ins": 3433,
      "IE": 3434,
      "ekt": 3435,
      "omÃ¡n": 3436,
      "ĠgÃ¡ibida": 3437,
      "ĠprivÃ¡hta": 3438,
      "otno": 3439,
      "ĠÄįadn": 3440,
      "ĠlaÄĳÄĳ": 3441,
      "veah": 3442,
      "eringen": 3443,
      "mmis": 3444,
      "Ġboazodoallu": 3445,
      "Ã¡gas": 3446,
      "ĠDe": 3447,
      "ĠearenoamÃ¡Å¡": 3448,
      "Ġdokumean": 3449,
      "ents": 3450,
      "Ã¡zz": 3451,
      "progrÃ¡": 3452,
      "Ġstudean": 3453,
      "ĠbuÅ¡eahtas": 3454,
      "vuoÄĳad": 3455,
      "ĠBuot": 3456,
      "lÃ¡": 3457,
      "Ġdeadd": 3458,
      "Ġmaidda": 3459,
      "ĠÃ¡rbevier": 3460,
      "ahttindepartemeanta": 3461,
      "Ġbagad": 3462,
      "konferÃ¡n": 3463,
      "Ġle": 3464,
      "Ġruovttu": 3465,
      "Ġsisdoalu": 3466,
      "Oahpp": 3467,
      "ĠÄįÃ¡j": 3468,
      "Ġbargan": 3469,
      "ĠdÃ¡rbbu": 3470,
      "beaivvi": 3471,
      "jja": 3472,
      "ĠRiikk": 3473,
      "24": 3474,
      "uss": 3475,
      "Ġ1999": 3476,
      "Ġdeattuha": 3477,
      "eaddjiid": 3478,
      "ĠvÃ¡ldi": 3479,
      "Å¡g": 3480,
      "ĠhÃ¡stalusaid": 3481,
      "Ġallaskuvlla": 3482,
      "lbmil": 3483,
      "Ġ34": 3484,
      "Ġdeattuhit": 3485,
      "ddit": 3486,
      "ideapmÃ¡i": 3487,
      "ĠSÃ¡mediggerÃ¡Äĳi": 3488,
      "kkiin": 3489,
      "ĠAnn": 3490,
      "beaivi": 3491,
      "Ġsuohkanis": 3492,
      "ĠgÃ¡ibidit": 3493,
      "ĠjoÄĳ": 3494,
      "idne": 3495,
      "bman": 3496,
      "2015": 3497,
      "eha": 3498,
      "Ġjuovla": 3499,
      "ĠeisevÃ¡lddit": 3500,
      "omer": 3501,
      "Ġgarras": 3502,
      "kÅĭ": 3503,
      "imii": 3504,
      "ektii": 3505,
      "ministtar": 3506,
      "astivra": 3507,
      "38": 3508,
      "Doarjja": 3509,
      "jeringen": 3510,
      "keahtes": 3511,
      "ĠdigaÅ¡t": 3512,
      "aheaddji": 3513,
      "iida": 3514,
      "Ã¤l": 3515,
      "aba": 3516,
      "Ġ169": 3517,
      "ĠjahkÃ¡saÅ¡": 3518,
      "Ã¡sk": 3519,
      "Mii": 3520,
      "vuoÄĳaide": 3521,
      "kkÃ¡": 3522,
      "deapmi": 3523,
      "ĠKrist": 3524,
      "Ġbarget": 3525,
      "ĠgeassemÃ¡nu": 3526,
      "buÅ¡eah": 3527,
      "Ġanal": 3528,
      "Suo": 3529,
      "Ġnie": 3530,
      "inen": 3531,
      "ĠdieÄĳih": 3532,
      "Ġkapihtt": 3533,
      "kru": 3534,
      "witter": 3535,
      "osii": 3536,
      "astÃ¡": 3537,
      "ova": 3538,
      "osiin": 3539,
      "Ã¡hÄįÄį": 3540,
      "easta": 3541,
      "Ġstivra": 3542,
      "ars": 3543,
      "ĠSeamm": 3544,
      "ovddasvÃ¡st": 3545,
      "red": 3546,
      "duin": 3547,
      "ĠTor": 3548,
      "boah": 3549,
      "amiid": 3550,
      "Ġheaitt": 3551,
      "ĠlÃ¡vdego": 3552,
      "Ġboazo": 3553,
      "Ġriekti": 3554,
      "lahttu": 3555,
      "Ġkantu": 3556,
      "ĠSÃ¡miid": 3557,
      "ĠeanaÅ¡": 3558,
      "oasi": 3559,
      "35": 3560,
      "post": 3561,
      "vdad": 3562,
      "Ġ08": 3563,
      "Ġform": 3564,
      "Ġipmir": 3565,
      "ĠgokÄį": 3566,
      "ÃģM": 3567,
      "Ġgoas": 3568,
      "direktor": 3569,
      "oaÅ¾Å¾": 3570,
      "iddja": 3571,
      "99": 3572,
      "Ġ38": 3573,
      "aÅ¡uvdnii": 3574,
      "evttohus": 3575,
      "departemeantta": 3576,
      "tui": 3577,
      "almmÃ¡t": 3578,
      "Ġheaj": 3579,
      "Ġoam": 3580,
      "tevaÅ¡": 3581,
      "proseass": 3582,
      "Ovd": 3583,
      "vik": 3584,
      "Ã¡igge": 3585,
      "Ġolbmuide": 3586,
      "ĠbÃ¡ikego": 3587,
      "mÃ¥l": 3588,
      "Ġperspektii": 3589,
      "ĠsÃ¡htÃ¡Å¡ii": 3590,
      "vear": 3591,
      "iehtu": 3592,
      "ami": 3593,
      "danÄįuozÃ¡hagat": 3594,
      "ĠSis": 3595,
      "Ġguovv": 3596,
      "Ã¡hkkan": 3597,
      "otnolas": 3598,
      "Ã¡leamos": 3599,
      "Ã¡tni": 3600,
      "uÅ¡uvnn": 3601,
      "ĠguovddÃ¡Å¾is": 3602,
      "Ġsuohkana": 3603,
      "ĠÃħ": 3604,
      "gel": 3605,
      "mann": 3606,
      "ebo": 3607,
      "Ġmuitalus": 3608,
      "lÃ¡ndda": 3609,
      "aset": 3610,
      "doaimmaid": 3611,
      "ind": 3612,
      "Ġbar": 3613,
      "ĠSÃ¡megiella": 3614,
      "Ġbesset": 3615,
      "ulbmil": 3616,
      "ĠdahkÃ¡": 3617,
      "ĠdutkamuÅ¡": 3618,
      "Ġbaicc": 3619,
      "ĠorgÃ¡n": 3620,
      "Ohc": 3621,
      "ttus": 3622,
      "ĠviidÃ¡set": 3623,
      "ĠMÃ¡nÃ¡idgÃ¡r": 3624,
      "umit": 3625,
      "Nu": 3626,
      "umiid": 3627,
      "oÄĳih": 3628,
      "joh": 3629,
      "GA": 3630,
      "iila": 3631,
      "ena": 3632,
      "sy": 3633,
      "Ġotn": 3634,
      "Ġuniversitehta": 3635,
      "bÃ¡iki": 3636,
      "Ġbuol": 3637,
      "ĠPed": 3638,
      "tion": 3639,
      "ĠGa": 3640,
      "Ã¶r": 3641,
      "ĠealÃ¡husaid": 3642,
      "Ġlasihit": 3643,
      "dili": 3644,
      "Ġfuolahit": 3645,
      "Ìģ": 3646,
      "llÃ¡i": 3647,
      "Ġ300": 3648,
      "Ġteavstt": 3649,
      "Ã¡htii": 3650,
      "ilge": 3651,
      "ĠdohkÃ¡laÅ¡": 3652,
      "ĠlivÄįÄįe": 3653,
      "eahÄįa": 3654,
      "aÅ¡un": 3655,
      "ĠOvdd": 3656,
      "ĠÃ¡lbmotrievtt": 3657,
      "ĠGir": 3658,
      "dahje": 3659,
      "Å¡ii": 3660,
      "io": 3661,
      "ĠfÃ¡r": 3662,
      "ĠhÃ¡lddahuslaÅ¡": 3663,
      "ĠvuoÄĳu": 3664,
      "ggot": 3665,
      "Ġoktavuohta": 3666,
      "ĠbearraÅ¡": 3667,
      "ihkkar": 3668,
      "bidj": 3669,
      "Ġfylkka": 3670,
      "Departemen": 3671,
      "Ġ58": 3672,
      "ĠlÃ¡gid": 3673,
      "bj": 3674,
      "ahkan": 3675,
      "kl": 3676,
      "asÃ¡mi": 3677,
      "Or": 3678,
      "ked": 3679,
      "ĠDie": 3680,
      "ĠberoÅ¡tumiid": 3681,
      "Ġkultuvrras": 3682,
      "Ã¡Å¾ii": 3683,
      "2014": 3684,
      "Ġjoatkka": 3685,
      "ĠDas": 3686,
      "ĠÄįav": 3687,
      "Ġdiehtit": 3688,
      "kip": 3689,
      "Ġgie": 3690,
      "Ġpoas": 3691,
      "Ġboazodoalus": 3692,
      "Rom": 3693,
      "doaibmabij": 3694,
      "ĠSiida": 3695,
      "ddjo": 3696,
      "Ġguolle": 3697,
      "ĠPer": 3698,
      "Ġviiddis": 3699,
      "ĠsÃ¡mediggejoavku": 3700,
      "tem": 3701,
      "por": 3702,
      "Ġboazodollui": 3703,
      "ĠdÃ¡rogillii": 3704,
      "Äĳa": 3705,
      "amis": 3706,
      "ĠRuoÅ§as": 3707,
      "ĠoÄįÄį": 3708,
      "Ġnuoraide": 3709,
      "Ġdoahp": 3710,
      "Ġ44": 3711,
      "Ġinstit": 3712,
      "tnegas": 3713,
      "nuor": 3714,
      "Ġjoht": 3715,
      "emien": 3716,
      "ĠÃ¡iggis": 3717,
      "uondu": 3718,
      "ĠMu": 3719,
      "vdit": 3720,
      "ĠbargÃ¡": 3721,
      "ĠrÃ¡Äĳi": 3722,
      "Äįoa": 3723,
      "Ã¡sahusa": 3724,
      "ĠMÃ¡": 3725,
      "eallin": 3726,
      "ĠÄįilget": 3727,
      "ahis": 3728,
      "ommi": 3729,
      "Ġlii": 3730,
      "Giella": 3731,
      "ohtalus": 3732,
      "Ġgov": 3733,
      "dusa": 3734,
      "Ġnan": 3735,
      "ĠRÃ¡ÄĳÄĳehusa": 3736,
      "ĠhÃ¡stalusat": 3737,
      "Ġnjuolga": 3738,
      "ĠearÃ¡t": 3739,
      "ĠmaÅĭimuÅ¡": 3740,
      "ĠDi": 3741,
      "oaiv": 3742,
      "esi": 3743,
      "vvalaÄįÄįat": 3744,
      "juolggadusat": 3745,
      "Ġridd": 3746,
      "ĠNorga": 3747,
      "Ġmass": 3748,
      "ĠTelef": 3749,
      "Olgor": 3750,
      "Ġmeannudeapmi": 3751,
      "iddo": 3752,
      "istit": 3753,
      "Ġbuorit": 3754,
      "ĠÄįuovvu": 3755,
      "mearri": 3756,
      "duvvon": 3757,
      "ĠDeanu": 3758,
      "Ã¡igi": 3759,
      "Å¾a": 3760,
      "eames": 3761,
      "vÃ¡ldd": 3762,
      "astt": 3763,
      "vuonas": 3764,
      "ĠmearrÃ¡dusat": 3765,
      "ahttima": 3766,
      "Ġw": 3767,
      "2011": 3768,
      "Ġbuo": 3769,
      "ĠAlmm": 3770,
      "Ġ64": 3771,
      "ĠhÃ¡lddaÅ¡it": 3772,
      "IS": 3773,
      "rik": 3774,
      "Ġ55": 3775,
      "ĠorgÃ¡na": 3776,
      "ĠRÃ¡": 3777,
      "tolat": 3778,
      "ĠhÃ¡lddaÅ¡eami": 3779,
      "MA": 3780,
      "ĠvÃ¡ldÃ¡": 3781,
      "iijaid": 3782,
      "bÃ¡lvalusaid": 3783,
      "pma": 3784,
      "Ã¡ldas": 3785,
      "ĠparlamentÃ¡ralaÅ¡": 3786,
      "ĠlassÃ¡nan": 3787,
      "ilit": 3788,
      "ĠjoÄĳiheaddji": 3789,
      "Ã¡pmelaÄįÄįaid": 3790,
      "amus": 3791,
      "ultuvra": 3792,
      "ĠbÃ¡lvalusaid": 3793,
      "ĠMathis": 3794,
      "agaide": 3795,
      "ĠÄįuoh": 3796,
      "ĠGuovdageainnu": 3797,
      "Ġgillii": 3798,
      "ttp": 3799,
      "Ġsi": 3800,
      "Ġ46": 3801,
      "Ġdav": 3802,
      "ĠdÃ¡si": 3803,
      "ĠhÃ¡lddaÅ¡a": 3804,
      "Ã¡mu": 3805,
      "ĠlÃ¡vdegotti": 3806,
      "Ġohppiide": 3807,
      "ppi": 3808,
      "ukÄį": 3809,
      "ehket": 3810,
      "ym": 3811,
      "ĠbuÅ¡": 3812,
      "Ġmeahcce": 3813,
      "Ġguohtun": 3814,
      "Ġduoji": 3815,
      "âĦ": 3816,
      "Ġ2017": 3817,
      "Ġdadjat": 3818,
      "olo": 3819,
      "ha": 3820,
      "Ġvuogi": 3821,
      "âĦ¦": 3822,
      "Ġsiida": 3823,
      "Ġkvalitehta": 3824,
      "2010": 3825,
      "ĠgelbbolaÅ¡vuohta": 3826,
      "asta": 3827,
      "ĠÃ¡igÃ¡i": 3828,
      "Ã¡va": 3829,
      "2013": 3830,
      "Ġ53": 3831,
      "ista": 3832,
      "Ġproseass": 3833,
      "ĠdÃ¡lkkÃ¡dat": 3834,
      "Ġmiljon": 3835,
      "acebo": 3836,
      "Ġ75": 3837,
      "fr": 3838,
      "ggÃ¡i": 3839,
      "ĠgÃ¡l": 3840,
      "ĠlÃ¡vdegoddi": 3841,
      "Ġfors": 3842,
      "ĠEn": 3843,
      "Ã¡ldu": 3844,
      "ĠdivÅ¡Å¡": 3845,
      "vuohki": 3846,
      "jul": 3847,
      "oar": 3848,
      "gan": 3849,
      "assen": 3850,
      "Ġ09": 3851,
      "ĠvejolaÅ¡vuoÄĳaid": 3852,
      "ktet": 3853,
      "Ġenergiij": 3854,
      "ive": 3855,
      "Ġnorgga": 3856,
      "ĠvahÃ¡g": 3857,
      "lÃ¡vdegotti": 3858,
      "oahppu": 3859,
      "fitn": 3860,
      "ĠDÃ¡r": 3861,
      "Skip": 3862,
      "28": 3863,
      "konvenÅ¡uvnna": 3864,
      "Ãģr": 3865,
      "Ġdoarju": 3866,
      "ĠBargiid": 3867,
      "oÄĳ": 3868,
      "Ã¡ige": 3869,
      "urd": 3870,
      "jov": 3871,
      "ID": 3872,
      "78": 3873,
      "Ġboahtit": 3874,
      "ĠÃ¡sahuvvon": 3875,
      "Ġjurd": 3876,
      "ĠruÄĳat": 3877,
      "Ġluonddur": 3878,
      "ĠboarrÃ¡s": 3879,
      "Ġdoaibman": 3880,
      "Ġguorahallat": 3881,
      "Ġ>": 3882,
      "Ġ60": 3883,
      "Ġpolitihka": 3884,
      "ajagi": 3885,
      "ĠÄįoahkkimis": 3886,
      "ĠearenoamÃ¡Å¾it": 3887,
      "Ġfierpm": 3888,
      "Ġduhta": 3889,
      "Ġdoaibmag": 3890,
      "kÃ¡s": 3891,
      "Ã¡iguin": 3892,
      "ttit": 3893,
      "oposi": 3894,
      "ade": 3895,
      "nnas": 3896,
      "ĠdÃ¡rbbuid": 3897,
      "ove": 3898,
      "ĠdaÄĳistaga": 3899,
      "Ġvuoigatvuo": 3900,
      "lÃ¡vdegoddi": 3901,
      "ihtii": 3902,
      "Ġ..": 3903,
      "ĠvÃ¡i": 3904,
      "ĠfÃ¡gas": 3905,
      "ĠfÃ¡rr": 3906,
      "Ġruovttus": 3907,
      "Ellen": 3908,
      "suo": 3909,
      "ahtton": 3910,
      "uohki": 3911,
      "giid": 3912,
      "ĠSÃ¡medikkiin": 3913,
      "Ġohcc": 3914,
      "ealÃ¡husa": 3915,
      "ggat": 3916,
      "allet": 3917,
      "ĠAre": 3918,
      "Ġdeattuh": 3919,
      "Ġoahppu": 3920,
      "Å¡uvnnas": 3921,
      "Ġmovttiid": 3922,
      "Ġdohkkehit": 3923,
      "Ġpoasta": 3924,
      "Bok": 3925,
      "alan": 3926,
      "ogrÃ¡f": 3927,
      "ĠÄįear": 3928,
      "Ġdutkama": 3929,
      "joavkk": 3930,
      "vejolaÅ¡": 3931,
      "ĠhÃ¡v": 3932,
      "irras": 3933,
      "ĠgielalaÅ¡": 3934,
      "Ġmenu": 3935,
      "ĠgaskasaÅ¡": 3936,
      "Äĳe": 3937,
      "mmun": 3938,
      "39": 3939,
      "2005": 3940,
      "eaivv": 3941,
      "Ġjea": 3942,
      "ĠjÃ¯": 3943,
      "sttaÅ¡": 3944,
      "ĠvÃ¡lljet": 3945,
      "BokmÃ¥l": 3946,
      "US": 3947,
      "Ġbargos": 3948,
      "eft": 3949,
      "uoÅĭ": 3950,
      "ĠminerÃ¡la": 3951,
      "Â¾": 3952,
      "ĠhÃ¡rjeh": 3953,
      "laÅ¾Å¾an": 3954,
      "ahat": 3955,
      "ĠboahttevaÅ¡": 3956,
      "ĠÅ¡l": 3957,
      "maid": 3958,
      "Ġmearriduvvui": 3959,
      "ĠdÃ¡rbbaÅ¡it": 3960,
      "Ġam": 3961,
      "iÅĭ": 3962,
      "Ġ1997": 3963,
      "ĠÄįuovvut": 3964,
      "ĠguhkÃ¡": 3965,
      "ER": 3966,
      "Ġleft": 3967,
      "Ġveh": 3968,
      "vuogi": 3969,
      "ksi": 3970,
      "astin": 3971,
      "ĠÄįujuhit": 3972,
      "ĠmÃ¡tke": 3973,
      "Guo": 3974,
      "bealat": 3975,
      "Dat": 3976,
      "oaimmah": 3977,
      "ĠHa": 3978,
      "Ġfatn": 3979,
      "ska": 3980,
      "uhtadan": 3981,
      "ĠFyl": 3982,
      "ĠDoaibma": 3983,
      "ïĢ": 3984,
      "Ġnana": 3985,
      "Ã¡husas": 3986,
      "Ġrekru": 3987,
      "Ã¸rn": 3988,
      "ĠGuovdageainnus": 3989,
      "ttiid": 3990,
      "Ġ2016": 3991,
      "kitalo": 3992,
      "agirjj": 3993,
      "ĠDÃ¡kkÃ¡r": 3994,
      "ĠgÃ¡nn": 3995,
      "ĠgeahÄįÄįat": 3996,
      "Ġ98": 3997,
      "ĠMearr": 3998,
      "omiid": 3999,
      "ĠdÃ¡lv": 4000,
      "ĠgÄį": 4001,
      "ĠfÃ¡ll": 4002,
      "ĠMus": 4003,
      "75": 4004,
      "ĠnjÃ¡lmm": 4005,
      "Ġdohkkehuvvon": 4006,
      "ivÄįÄįii": 4007,
      "ĠboahtteÃ¡iggi": 4008,
      "Ġ=": 4009,
      "ĠIpmi": 4010,
      "Ġgulaskuddan": 4011,
      "Ruo": 4012,
      "Ġmoa": 4013,
      "Ġmols": 4014,
      "Ġnavig": 4015,
      "Ġbealis": 4016,
      "Ġvuoi": 4017,
      "Ġstatist": 4018,
      "Ġdilis": 4019,
      "Ġrev": 4020,
      "Ġsemin": 4021,
      "tast": 4022,
      "Ġmiht": 4023,
      "Dokumen": 4024,
      "oÅ¡ii": 4025,
      "Ġdoaimmas": 4026,
      "edagogalaÅ¡": 4027,
      "Ġdus": 4028,
      "Ġmot": 4029,
      "Ġnamalassii": 4030,
      "edit": 4031,
      "ĠÃ¡lggahuvvui": 4032,
      "Ġkur": 4033,
      "kultur": 4034,
      "Ã¡megiel": 4035,
      "ĠeamiÃ¡lbmog": 4036,
      "Ġsiste": 4037,
      "dettiin": 4038,
      "oahtit": 4039,
      "uvvojedje": 4040,
      "ale": 4041,
      "Ġdearvvas": 4042,
      "Ġref": 4043,
      "ĠbidjÃ¡": 4044,
      "ĠoktavuoÄĳain": 4045,
      "bÃ¡lvalusat": 4046,
      "Gielda": 4047,
      "elÃ¡ga": 4048,
      "alg": 4049,
      "Ġbargiid": 4050,
      "ĠÃ¡vv": 4051,
      "Ġveahkehit": 4052,
      "ĠRi": 4053,
      "ĠVÃ¡ikkuh": 4054,
      "Ġvuolde": 4055,
      "Ã©": 4056,
      "Ã¡hpp": 4057,
      "Ã¡vdnasiid": 4058,
      "________________": 4059,
      "lahus": 4060,
      "2004": 4061,
      "ĠboahtteÃ¡iggis": 4062,
      "ĠskÃ¡bma": 4063,
      "Ã¡sm": 4064,
      "Ġsearvad": 4065,
      "Ġev": 4066,
      "ĠSametinget": 4067,
      "ĠÄįilge": 4068,
      "Ã¡htalaÅ¡": 4069,
      "ĠregionÃ¡la": 4070,
      "fÃ¡laldaga": 4071,
      "tets": 4072,
      "Ġmiljovnna": 4073,
      "asiidu": 4074,
      "ĠEar": 4075,
      "zz": 4076,
      "Ġguovd": 4077,
      "ĠMagga": 4078,
      "Ġbiebmodepartemeanta": 4079,
      "Ġus": 4080,
      "rÃ¡Äĳi": 4081,
      "Ġsisab": 4082,
      "ĠRomssas": 4083,
      "ĠLeat": 4084,
      "95": 4085,
      "rramuÅ¡": 4086,
      "alli": 4087,
      "Ġdoaimmaide": 4088,
      "kama": 4089,
      "Ġbajimus": 4090,
      "atii": 4091,
      "ĠstÃ¡htalaÅ¡": 4092,
      "Ġguovllut": 4093,
      "ĠaddÃ¡n": 4094,
      "eskitalo": 4095,
      "Ġkruvnn": 4096,
      "Ġorrot": 4097,
      "Ġforside": 4098,
      "ilgehus": 4099,
      "Ġeatnig": 4100,
      "earrÃ¡ig": 4101,
      "ggan": 4102,
      "Ġvuostta": 4103,
      "Fin": 4104,
      "pers": 4105,
      "ĠbeassÃ¡": 4106,
      "ĠMarg": 4107,
      "Â¿Â¿": 4108,
      "eaiggÃ¡d": 4109,
      "ĠalmmÃ¡": 4110,
      "tolagat": 4111,
      "rea": 4112,
      "ejeaddji": 4113,
      "Ġkonkr": 4114,
      "Ġ48": 4115,
      "ĠollÃ¡sit": 4116,
      "ĠDep": 4117,
      "itet": 4118,
      "Ġ195": 4119,
      "Ġcel": 4120,
      "ÄĮÃ¡l": 4121,
      "Ġgielddain": 4122,
      ",-": 4123,
      "pme": 4124,
      "emat": 4125,
      "ĠnavigaÅ¡uvdnii": 4126,
      "Du": 4127,
      "ond": 4128,
      "iÃµ": 4129,
      "ĠII": 4130,
      "giellan": 4131,
      "Ġhukset": 4132,
      "ïĢł": 4133,
      "70": 4134,
      "Ġbuohk": 4135,
      "rejit": 4136,
      "Ġgeahp": 4137,
      "Ġgielas": 4138,
      "ahuvvon": 4139,
      "kten": 4140,
      "Ġbivdit": 4141,
      "gÃ¡i": 4142,
      "ĠealÃ¡husa": 4143,
      "ĠdavviriikkalaÅ¡": 4144,
      "Ġ....": 4145,
      "mmu": 4146,
      "ĠovdÃ¡nahttit": 4147,
      "ielÃ¢": 4148,
      "anvuÄĳot": 4149,
      "Ġevttoha": 4150,
      "Ġhttp": 4151,
      "ĠÃ¡lggahan": 4152,
      "Ġres": 4153,
      "ĠovddideapmÃ¡i": 4154,
      "Ġgoass": 4155,
      "partemeanttain": 4156,
      "ON": 4157,
      "obeal": 4158,
      "dÃ¡n": 4159,
      "Ġdagaha": 4160,
      "emeannud": 4161,
      "aÅ¡unÃ¡la": 4162,
      "ĠDanin": 4163,
      "FinnmÃ¡rkku": 4164,
      "Ġgielddaid": 4165,
      "ministara": 4166,
      "ĠBarents": 4167,
      "ĠRie": 4168,
      "ĠseammÃ¡": 4169,
      "Å¾ettiin": 4170,
      "Ã¡nta": 4171,
      "RA": 4172,
      "Ã¡htta": 4173,
      "TrÃ¸": 4174,
      "--------": 4175,
      "ĠLa": 4176,
      "Ġoahpahusas": 4177,
      "ĠTrom": 4178,
      ".âĢĿ": 4179,
      "vÃ¡l": 4180,
      "ahttojuvvon": 4181,
      "ĠvÃ¡lljej": 4182,
      "ĠhÃ¡ll": 4183,
      "Ġbargguid": 4184,
      "oÅ¾": 4185,
      "Ġstipean": 4186,
      "ĠThe": 4187,
      "ĠrÃ¡hkadan": 4188,
      "Ġbeliid": 4189,
      "Ġsus": 4190,
      "Ġ56": 4191,
      "fuo": 4192,
      "ĠSuohkan": 4193,
      "ĠvÃ¡sih": 4194,
      "GovÄįÄįa": 4195,
      "kis": 4196,
      "ĠvÃ¡ldÃ¡n": 4197,
      "Govva": 4198,
      "ÄįÃ¡l": 4199,
      "olmmoÅ¡": 4200,
      "Eanandoallo": 4201,
      "Ġdorvv": 4202,
      "Juogat": 4203,
      "Evttohus": 4204,
      "Ã¡stallan": 4205,
      "ĠhÃ¡lddaÅ¡anguovllu": 4206,
      "astiv": 4207,
      "ĠlÃ¡gan": 4208,
      "Ġsajis": 4209,
      "ĠsÃ¡m": 4210,
      "Ġoasis": 4211,
      "Ġdiehtojuohkin": 4212,
      "ĠjÃ¯h": 4213,
      "ĠbÃ¡hc": 4214,
      "eallje": 4215,
      "Ġgarrasit": 4216,
      "Ġuhc": 4217,
      "idde": 4218,
      "ohku": 4219,
      "ĠÃ¡vkin": 4220,
      "Ġatnui": 4221,
      "ĠLapp": 4222,
      "konomalaÅ¡": 4223,
      "ĠmakkÃ¡rge": 4224,
      "Ã¡tne": 4225,
      "An": 4226,
      "ous": 4227,
      "Ġsuodjalan": 4228,
      "jahk": 4229,
      "elis": 4230,
      "ou": 4231,
      "ĠLuonddu": 4232,
      "ĠFinnmÃ¡rkk": 4233,
      "Ġeanas": 4234,
      "ame": 4235,
      "Ġjor": 4236,
      "ĠdÃ¡idd": 4237,
      "eth": 4238,
      "ĠPedersen": 4239,
      "ĠgirjjÃ¡laÅ¡vuoÄĳa": 4240,
      "oguo": 4241,
      "Ġheivehit": 4242,
      "ohpu": 4243,
      "stru": 4244,
      "Ġovddideami": 4245,
      "Ġbohccuid": 4246,
      "bba": 4247,
      "Ġvuolgg": 4248,
      "ĠmannÃ¡": 4249,
      "guovlluid": 4250,
      "DearvvaÅ¡vuoÄĳa": 4251,
      "olut": 4252,
      "Ġ:": 4253,
      "uovllus": 4254,
      "ĠÃĺ": 4255,
      "Duo": 4256,
      "fÃ¡ga": 4257,
      "vdn": 4258,
      "sti": 4259,
      "ĠÃ¡kk": 4260,
      "ĠReg": 4261,
      "Ġdagahit": 4262,
      "ddo": 4263,
      "ĠvuordÃ¡": 4264,
      "oÅ¡ektii": 4265,
      "Ġulbmi": 4266,
      "ĠÄįilgehus": 4267,
      "Ã¦tta": 4268,
      "Ġjienast": 4269,
      "Ġmuitt": 4270,
      "2003": 4271,
      "Ġdal": 4272,
      "ggaid": 4273,
      "itehtas": 4274,
      "ĠvalÃ¡Å¡tallan": 4275,
      "Ã¤n": 4276,
      "ĠTur": 4277,
      "ĠVaikko": 4278,
      "ĠovddeÅ¡": 4279,
      "ĠÃ¡igi": 4280,
      "ĠvÃ¡rra": 4281,
      "ĠBer": 4282,
      "liote": 4283,
      "ĠÄįaÄĳa": 4284,
      "Ã¢Å¡": 4285,
      "ges": 4286,
      "adat": 4287,
      "Ġguovlluide": 4288,
      "âĢŀâĢŀ": 4289,
      "Ġvie": 4290,
      "ĠKeskitalo": 4291,
      "ds": 4292,
      "ĠvÃ¡ikkuha": 4293,
      "Ġsisttis": 4294,
      "ĠJohn": 4295,
      "ĠÃ¡sahusaid": 4296,
      "SÃ¡memusea": 4297,
      "Ġnag": 4298,
      "ĠrÃ¡hkaduvvon": 4299,
      "sÃ¡me": 4300,
      "atiiva": 4301,
      "Ġgullat": 4302,
      "Ġmainna": 4303,
      "eddjiide": 4304,
      "ĠdÃ¡hpÃ¡huvvÃ¡": 4305,
      "Ġgeavahuvvon": 4306,
      "ck": 4307,
      "jel": 4308,
      "ĠdavvisÃ¡megiela": 4309,
      "EarÃ¡": 4310,
      "ihp": 4311,
      "ĠÄįuoÄįÄį": 4312,
      "mihtt": 4313,
      "ign": 4314,
      "Ġ70": 4315,
      "Ġdoaibmat": 4316,
      "con": 4317,
      "ĠSeammÃ¡s": 4318,
      "ĠbÃ¡r": 4319,
      "SÃ¡medigger": 4320,
      "Ġsakka": 4321,
      "ĠGe": 4322,
      "ĠmieÄĳih": 4323,
      "asi": 4324,
      "Ġovdalgo": 4325,
      "acebook": 4326,
      "ÄįÃ¡j": 4327,
      "Ġregi": 4328,
      "Ã¦r": 4329,
      "foandda": 4330,
      "Ġolgor": 4331,
      "ĠSÃ¡mis": 4332,
      "tic": 4333,
      "Å¡addan": 4334,
      "Ġbuohkat": 4335,
      "gÄį": 4336,
      "ĠVÃ¡l": 4337,
      "innu": 4338,
      "Ġdien": 4339,
      "vies": 4340,
      "Ã¡mm": 4341,
      "ĠKÃ¡rÃ¡Å¡jogas": 4342,
      "ĠmielddisbuktÃ¡": 4343,
      "Ġvieh": 4344,
      "bargui": 4345,
      "ugiin": 4346,
      "nr": 4347,
      "mÃ¡vva": 4348,
      "Ã¡rta": 4349,
      "Ġdavvig": 4350,
      "Ã¡miid": 4351,
      "Ġfertet": 4352,
      "fjell": 4353,
      "gelbbolaÅ¡": 4354,
      "tor": 4355,
      "kiiva": 4356,
      "Ġmearridii": 4357,
      "ĠÄįÃ¡la": 4358,
      "bealde": 4359,
      "teddj": 4360,
      "ĠÄįuoÅ¾Å¾": 4361,
      "ĠlÃ¡gaid": 4362,
      "ortnegiid": 4363,
      "Ġvuoruhit": 4364,
      "ĠcealkÃ¡": 4365,
      "iijas": 4366,
      "aktÃ¸r": 4367,
      "Ġvahku": 4368,
      "ejuvvui": 4369,
      "ĠstuorÃ¡mus": 4370,
      "dilÃ¡laÅ¡": 4371,
      "lig": 4372,
      "Ġ'": 4373,
      "Ġvier": 4374,
      "edo": 4375,
      "Ġ400": 4376,
      "Ġstivren": 4377,
      "Ġjoatkit": 4378,
      "Å§a": 4379,
      "emis": 4380,
      "uÃ¡la": 4381,
      "dih": 4382,
      "Ġlakt": 4383,
      "ĠovdÃ¡neapmi": 4384,
      "OR": 4385,
      "Ġlob": 4386,
      "ĠbistevaÅ¡": 4387,
      "ron": 4388,
      "ejoÄĳih": 4389,
      "Ġovddit": 4390,
      "ĠHar": 4391,
      "198": 4392,
      ".Â»": 4393,
      "ĠRe": 4394,
      "ĠgiellaguovddÃ¡Å¾": 4395,
      "ĠInga": 4396,
      "Ġjoatkkaskuvlla": 4397,
      "Ġartihkal": 4398,
      "ĠvuhtiivÃ¡ld": 4399,
      "Ġguovttegielat": 4400,
      "uohtun": 4401,
      "Ġbovd": 4402,
      "ĠNils": 4403,
      "ĠBal": 4404,
      "ĠgÃ¡": 4405,
      "ktan": 4406,
      "rÃ¡Äĳiid": 4407,
      "Ã¡hkat": 4408,
      "Ġgielaid": 4409,
      "Ġopm": 4410,
      "âĪ«": 4411,
      "ĠMeahcirÃ¡ÄĳÄĳehusa": 4412,
      "bid": 4413,
      "Ġeks": 4414,
      "Ġdefin": 4415,
      "appo": 4416,
      "ĠMÃ¡r": 4417,
      "ielalaÅ¡": 4418,
      "ĠmÃ¡nÃ¡idgÃ¡rddiin": 4419,
      "::::::::": 4420,
      "ton": 4421,
      "ĠÄįielggadit": 4422,
      "Ã¥d": 4423,
      "ĠguovvamÃ¡nu": 4424,
      "ĠinformÃ¡n": 4425,
      "Ġsuohkaniin": 4426,
      "ĠnaÅ¡uvnn": 4427,
      "ĠipmÃ¡r": 4428,
      "EN": 4429,
      "Ġrehken": 4430,
      "ĠrÃ¡vis": 4431,
      "Ġbell": 4432,
      "oÅ¡iehtadusa": 4433,
      "ĠrÃ¡f": 4434,
      "ĠnjukÄį": 4435,
      "ieÄĳÃ¡husat": 4436,
      "Ġbuohcc": 4437,
      "ĠrÃ¡j": 4438,
      "Ġnjie": 4439,
      "ĠvuoÄĳÄĳu": 4440,
      "Ġinves": 4441,
      "skuvlla": 4442,
      "ktiv": 4443,
      "ĠÄįÃ¡hc": 4444,
      "olssa": 4445,
      "Dokumean": 4446,
      "dilli": 4447,
      "ĠsiskkÃ¡ldas": 4448,
      "Sol": 4449,
      "ĠdoaibmÃ¡": 4450,
      "2001": 4451,
      "iti": 4452,
      "ĠbuÅ¡eahta": 4453,
      "ste": 4454,
      "ĠÄįuovvolit": 4455,
      "Ġ1998": 4456,
      "ĠmiessemÃ¡nu": 4457,
      "Ġmoht": 4458,
      "oda": 4459,
      "proÅ¡eavtta": 4460,
      "kamuÅ¡": 4461,
      "ĠvÃ¡lddi": 4462,
      "iena": 4463,
      "Ġell": 4464,
      "ĠgeahÄįa": 4465,
      "itÃ¡": 4466,
      "bbat": 4467,
      "Ġgeavahuvvot": 4468,
      "ĠÃ¡igg": 4469,
      "Ã¡ge": 4470,
      "partemeanttat": 4471,
      "ĠmaÅĭemus": 4472,
      "Ġ*": 4473,
      "minister": 4474,
      "uovlluid": 4475,
      "Ġoainnu": 4476,
      "\".": 4477,
      "Ġ77": 4478,
      "vuoÄĳu": 4479,
      "ĠGÃ¡i": 4480,
      "Ġstruktu": 4481,
      "ĠÃ¡lbmogis": 4482,
      "Ġeavttut": 4483,
      "ĠbearrÃ¡igeahÄįÄį": 4484,
      "Ġdoaimmah": 4485,
      "EDI": 4486,
      "bivdu": 4487,
      "ĠHÃ¦tta": 4488,
      "2006": 4489,
      "Ġ150": 4490,
      "Ġtekn": 4491,
      "joÄĳihango": 4492,
      "ĠErenoam": 4493,
      "ĠsÃ¡miide": 4494,
      "Ġloahpas": 4495,
      "ĠÄįujuh": 4496,
      "vuoÄĳÄĳu": 4497,
      "ĠUlbmil": 4498,
      "uoÅĭomÃ¡n": 4499,
      "Ġro": 4500,
      "son": 4501,
      "Ġjienastuslohku": 4502,
      "eavstta": 4503,
      "Ġloahpp": 4504,
      "ĠdigitÃ¡la": 4505,
      "Ġhir": 4506,
      "ĠJA": 4507,
      "lie": 4508,
      "usaiguin": 4509,
      "alii": 4510,
      "Ã¡mit": 4511,
      "ings": 4512,
      "ĠgÃ¡rÅ¾Å¾": 4513,
      "ĠÃ¡sahusat": 4514,
      "Ġbuhtadus": 4515,
      "Ġsisdoallu": 4516,
      "Ġmanne": 4517,
      "juvvon": 4518,
      "foanda": 4519,
      "Ġ800": 4520,
      "VÃ¡r": 4521,
      "Ġoktage": 4522,
      "Ġovddideapmi": 4523,
      "ĠatnÃ¡": 4524,
      "Ġguhkit": 4525,
      "Ġjearah": 4526,
      "uvvet": 4527,
      "Ġdoarjagat": 4528,
      "Ġ................................................................................................................................": 4529,
      "ĠÃ¡lki": 4530,
      "orgÃ¡na": 4531,
      "emii": 4532,
      "Ġbeaivi": 4533,
      "Ġmea": 4534,
      "agii": 4535,
      "eahp": 4536,
      "Ġgirku": 4537,
      "MÃ¡httodepartemeanta": 4538,
      "bivddu": 4539,
      "ahttet": 4540,
      "geavaheami": 4541,
      "ĠjahkÃ¡saÄįÄįat": 4542,
      "ĠnuortalaÅ¡": 4543,
      "ĠvÃ¡sihit": 4544,
      "Ġjuhkk": 4545,
      "ĠlÃ¡gidit": 4546,
      "2016": 4547,
      "Ġdass": 4548,
      "ihke": 4549,
      "Ġmaiguin": 4550,
      "Ġgill": 4551,
      "edovd": 4552,
      "uovlluin": 4553,
      "Ġgeavahus": 4554,
      "ĠsÃ¡mediggerÃ¡ÄĳÄĳi": 4555,
      "Ġwww": 4556,
      "ĠrÃ¡hkkan": 4557,
      "odagaide": 4558,
      "ĠdoaibmaplÃ¡na": 4559,
      "ggaÅ¡tus": 4560,
      "ire": 4561,
      "proÅ¡eakta": 4562,
      "ĠmaÅĭimus": 4563,
      "Ġkulturmuittuid": 4564,
      "Ġdokumen": 4565,
      "vvat": 4566,
      "samediggi": 4567,
      "Ġdatte": 4568,
      "33": 4569,
      "ĠÄįuol": 4570,
      "joavkku": 4571,
      "Ġgolggot": 4572,
      "agn": 4573,
      "Ġmet": 4574,
      "âĢ¦âĢ¦âĢ¦âĢ¦": 4575,
      "partemeanttas": 4576,
      "Ġdulk": 4577,
      "Ġkantuvra": 4578,
      "orf": 4579,
      "sis": 4580,
      "vdda": 4581,
      "ĠbuktÃ¡": 4582,
      "bas": 4583,
      "Ġbealit": 4584,
      "ĠvuostÃ¡i": 4585,
      "Ġpresideanta": 4586,
      "guovlu": 4587,
      "Ġ95": 4588,
      "ĠvÃ¡ikkuhusaid": 4589,
      "ĠvÃ¡": 4590,
      "ullas": 4591,
      "Ġhehtt": 4592,
      "earvvi": 4593,
      "Ġgielddat": 4594,
      "ÄįÃ¡lli": 4595,
      "Ġbargit": 4596,
      "Ġskuv": 4597,
      "olÃ¡hka": 4598,
      "Ġkonkrehta": 4599,
      "Ġsturr": 4600,
      "Ġjearr": 4601,
      "ĠviidÃ¡t": 4602,
      "SÃ¡megiela": 4603,
      "ÄĲ": 4604,
      "ĠÄįaÄĳahuvvon": 4605,
      "ES": 4606,
      "ft": 4607,
      "Ġmod": 4608,
      "buvttad": 4609,
      "ĠbissovaÅ¡": 4610,
      "mielalaÅ¡": 4611,
      "kÃ¡i": 4612,
      "ĠJan": 4613,
      "iehk": 4614,
      "Ġelekt": 4615,
      "Ġoahpaheaddjit": 4616,
      "ĠOrg": 4617,
      "mark": 4618,
      "ĠgoalmmÃ¡t": 4619,
      "Ġregjeringen": 4620,
      "ĠvÃ¡zz": 4621,
      "vdeg": 4622,
      "ĠÃ¡lggus": 4623,
      "res": 4624,
      "oahpahusas": 4625,
      "old": 4626,
      "Ġ94": 4627,
      "ĠvÃ¡ikkuhusat": 4628,
      "Ġgeavat": 4629,
      "ĠsÃ¡ni": 4630,
      "ĠmÃ¡Åĭggabealat": 4631,
      "ĠlaÄĳÄĳasa": 4632,
      "gÃ¡ib": 4633,
      "ĠlÃ¡ig": 4634,
      "Ġriddo": 4635,
      "Ġoahpahussii": 4636,
      "mÃ¡nÃ¡id": 4637,
      "ĠVÃ¡nddardanÄįuozÃ¡hagat": 4638,
      "Ġmuhtu": 4639,
      "evttohusa": 4640,
      "Ġut": 4641,
      "ĠfÃ¡dd": 4642,
      "eimmet": 4643,
      "takt": 4644,
      "ĠBoaz": 4645,
      "Jos": 4646,
      "valusat": 4647,
      "Ã¡Å¡Å¡i": 4648,
      "60": 4649,
      "ĠmÃ¡htolaÅ¡": 4650,
      "urggiid": 4651,
      "IT": 4652,
      "ĠbeaivvÃ¡laÅ¡": 4653,
      "olon": 4654,
      "tut": 4655,
      "Ġlotnolas": 4656,
      "Ġkom": 4657,
      "rethe": 4658,
      "ĠgÃ¡nnÃ¡h": 4659,
      "Ġfuolahusdepartemeanta": 4660,
      "VÃ¡ld": 4661,
      "iinn": 4662,
      "dni": 4663,
      "gab": 4664,
      "ologu": 4665,
      "Ġgozih": 4666,
      "Ã¡igÃ¡saÅ¡": 4667,
      "Ġiskkad": 4668,
      "Ç©iÃµ": 4669,
      "Ġstob": 4670,
      "udn": 4671,
      "uhtadandepartemeanta": 4672,
      "ĠÄįÃ¡llÃ¡": 4673,
      "ĠvÃ¡ikkuhus": 4674,
      "ĠdÃ¡sseÃ¡rvo": 4675,
      "Ġsor": 4676,
      "ĠOle": 4677,
      "Ã¤j": 4678,
      "Ġsaji": 4679,
      "Ġalde": 4680,
      "Ã¤rvi": 4681,
      "laid": 4682,
      "Ġresurs": 4683,
      "Ġmerk": 4684,
      "Â¼": 4685,
      "ĠÃ¡rktalaÅ¡": 4686,
      "oazodoalu": 4687,
      "Ġfoan": 4688,
      "bmu": 4689,
      "ttaide": 4690,
      "kkÃ¡ld": 4691,
      "oroh": 4692,
      "Ġfidn": 4693,
      "ĠrÃ¡ÄĳÄĳi": 4694,
      "ĠmÃ¡vssolaÅ¡": 4695,
      "ort": 4696,
      "OÄĳÄĳa": 4697,
      "uÄĳaid": 4698,
      "aldat": 4699,
      "ĠCh": 4700,
      "Ġdoarjut": 4701,
      "ĠbearaÅ¡": 4702,
      "Ġlagas": 4703,
      "Â».": 4704,
      "uohtt": 4705,
      "Ġbeare": 4706,
      "bmat": 4707,
      "fa": 4708,
      "Ã¡hku": 4709,
      "Ġ................................................................................................": 4710,
      "ĠLÃ¡hka": 4711,
      "Ã¡htas": 4712,
      "Ġ0030": 4713,
      "Suodjalus": 4714,
      "Ġjuollu": 4715,
      "ĠhistorjjÃ¡laÅ¡": 4716,
      "Ġdiehtu": 4717,
      "Ã¸y": 4718,
      "Ġbuvtt": 4719,
      "gir": 4720,
      "eaddje": 4721,
      "ĠDearvvaÅ¡vuoÄĳa": 4722,
      "geass": 4723,
      "ĠprogrÃ¡": 4724,
      "olaÅ¾Å¾an": 4725,
      "96": 4726,
      "Ġvistt": 4727,
      "Ġveahki": 4728,
      "KA": 4729,
      "iikadepartemeanta": 4730,
      "2000": 4731,
      "ĠSÃ¤Ã¤": 4732,
      "ogra": 4733,
      "IR": 4734,
      "LL": 4735,
      "ĠSara": 4736,
      "Ġgeardde": 4737,
      "Ġheaittih": 4738,
      "Ġbidjan": 4739,
      "ĠvÃ¡ste": 4740,
      "Ġproseassa": 4741,
      "ddjiin": 4742,
      "Ġvul": 4743,
      "agrÃ¡": 4744,
      "ĠÃģÅ¡Å¡i": 4745,
      "ĠHel": 4746,
      "ĠdoloÅ¡": 4747,
      "led": 4748,
      "Ġmih": 4749,
      "ĠMargrethe": 4750,
      "Ġovdamearkk": 4751,
      "Ġgoluid": 4752,
      "Dutkan": 4753,
      "Ġskuvlii": 4754,
      "berga": 4755,
      "bliote": 4756,
      "angaska": 4757,
      "rategiijat": 4758,
      "Ġbah": 4759,
      "ĠÄįoahkkima": 4760,
      "suodjalus": 4761,
      "Ġlassi": 4762,
      "stan": 4763,
      "ct": 4764,
      "ĠEl": 4765,
      "ĠÄįielggas": 4766,
      "Ġservodahkii": 4767,
      "oahtÃ¡n": 4768,
      "istan": 4769,
      "utnje": 4770,
      "ktod": 4771,
      "ĠJagi": 4772,
      "ĠHe": 4773,
      "olbmuide": 4774,
      "eat": 4775,
      "ĠgeahÄįÄįalit": 4776,
      "ĠSu": 4777,
      "asteapmi": 4778,
      "Ġjuolludan": 4779,
      "udit": 4780,
      "ĠBirasgÃ¡htten": 4781,
      "eisevÃ¡ldd": 4782,
      "ĠSto": 4783,
      "ĠealÃ¡sk": 4784,
      "ĠgÃ¡ibÃ¡dus": 4785,
      "DÃ¡lkkÃ¡dat": 4786,
      "fÃ¡pm": 4787,
      "Ġsm": 4788,
      "ĠDÃ¡b": 4789,
      "ĠMo": 4790,
      "Ġovttad": 4791,
      "ĠÃģÅ¡Å¡": 4792,
      "gaid": 4793,
      "ĠsmÃ¡vva": 4794,
      "Ã¡iddus": 4795,
      "Ã¡pmelaÄįÄįat": 4796,
      "Ġjuks": 4797,
      "ĠEurohp": 4798,
      "Ġgirjji": 4799,
      "ĠvÃ¡hnemat": 4800,
      "ahÃ¡lddaÅ¡": 4801,
      "Ġbohte": 4802,
      "ĠAB": 4803,
      "ĠMÃ¡tta": 4804,
      "ĠvÃ¡ldet": 4805,
      "cealkÃ¡muÅ¡": 4806,
      "ora": 4807,
      "ihkkii": 4808,
      "Å¡iehtadus": 4809,
      "ĠlohkÃ¡": 4810,
      "ĠgÃ¡vpog": 4811,
      "ĠsÃ¡megielaid": 4812,
      "ĠlÃ¡gas": 4813,
      "uovllut": 4814,
      "Ġfriddja": 4815,
      "ogrÃ¡falaÅ¡": 4816,
      "ierra": 4817,
      "Ġ32": 4818,
      "ĠKir": 4819,
      "ĠmearrasÃ¡mi": 4820,
      "eguovdilis": 4821,
      "Ġodne": 4822,
      "anvejolaÅ¡": 4823,
      "Ġpositii": 4824,
      "ittot": 4825,
      "ddat": 4826,
      "ajiena": 4827,
      "ĠDakkÃ¡r": 4828,
      "Ġvar": 4829,
      "ivvan": 4830,
      "iga": 4831,
      "mme": 4832,
      "orgÃ¡n": 4833,
      "ĠmÃ¡nÃ¡idgÃ¡rddis": 4834,
      "Ġrekrutt": 4835,
      "ban": 4836,
      "idii": 4837,
      "Ġhilg": 4838,
      "Ġlas": 4839,
      "Ġjuoga": 4840,
      "amÃ¡nus": 4841,
      "Ġdoarjagiid": 4842,
      "Ġbuohtast": 4843,
      "ĠÃ¡iggiid": 4844,
      "mielde": 4845,
      "stivra": 4846,
      "Ġdiliid": 4847,
      "FÃ¡ddÃ¡": 4848,
      "Ġnappo": 4849,
      "Ġeaige": 4850,
      "ĠvuosttaÅ¾ettiin": 4851,
      "ĠborramuÅ¡": 4852,
      "ĠvÃ¡ilevaÅ¡": 4853,
      "Ġkapihttalis": 4854,
      "ĠoahppoplÃ¡na": 4855,
      "esurssaid": 4856,
      "Ġolbmuin": 4857,
      "iddut": 4858,
      "uovl": 4859,
      "Ġbust": 4860,
      "vuoda": 4861,
      "ĠÃ¡irras": 4862,
      "ĠFinn": 4863,
      "ĠdikÅ¡un": 4864,
      "ĠSc": 4865,
      "Ġduopm": 4866,
      "Ġguorahallan": 4867,
      "Ġsohkabeal": 4868,
      "ĠÃ¡idna": 4869,
      "Mun": 4870,
      "ĠdÃ¡httu": 4871,
      "Ġaren": 4872,
      "Ġdahket": 4873,
      "Ġboas": 4874,
      "Ġ97": 4875,
      "ĠgeahÄįadit": 4876,
      "Ġgalge": 4877,
      "ĠgeahÄįÄįa": 4878,
      "uvttad": 4879,
      "Ġ54": 4880,
      "ĠÃ¡rvoh": 4881,
      "Ġ...": 4882,
      "Ġelektr": 4883,
      "ohko": 4884,
      "Ġberrejit": 4885,
      "jÃ¡vrri": 4886,
      "Ġtj": 4887,
      "Ġ1990": 4888,
      "ĠRuoÅ¡Å¡a": 4889,
      "bel": 4890,
      "Ġgirj": 4891,
      "ahki": 4892,
      "âĢĿ,": 4893,
      "Ġfin": 4894,
      "ĠrastÃ¡": 4895,
      "Ã¡sis": 4896,
      "tera": 4897,
      "digen": 4898,
      "vddus": 4899,
      "Ġgearggus": 4900,
      "Ġunnimusat": 4901,
      "bealla": 4902,
      "ariid": 4903,
      "Ġ................................................................................": 4904,
      "Ġdoibmii": 4905,
      "ĠIsa": 4906,
      "Ġmihttomearri": 4907,
      "Kontakt": 4908,
      "Ġenergiijadepartemeanta": 4909,
      "dis": 4910,
      "Ġjoavku": 4911,
      "Muh": 4912,
      "vuorkÃ¡": 4913,
      "Ruhtadandepartemeanta": 4914,
      "ĠMuhtun": 4915,
      "Ġguohtu": 4916,
      "ĠStuoradi": 4917,
      "Ġaddet": 4918,
      "vÃ¡ikkuh": 4919,
      "ĠfÃ¡sta": 4920,
      "Ġteor": 4921,
      "Ġas": 4922,
      "ĠEriksen": 4923,
      "llii": 4924,
      "Ġguoss": 4925,
      "bodd": 4926,
      "ĠjuovlamÃ¡nu": 4927,
      "Ã¡itt": 4928,
      "Ġaddojuvvo": 4929,
      "ĠkonferÃ¡n": 4930,
      "Ġluonddus": 4931,
      "ĠmÃ¡nÃ¡idgÃ¡rddiid": 4932,
      "Âº": 4933,
      "Ġdem": 4934,
      "Ġgarra": 4935,
      "Ġservv": 4936,
      "Ġgeavaha": 4937,
      "TT": 4938,
      "kor": 4939,
      "art": 4940,
      "ehit": 4941,
      "ĠÄįuov": 4942,
      "Ġ1996": 4943,
      "Oljo": 4944,
      "ĠovttasrÃ¡Äĳiid": 4945,
      "omeriid": 4946,
      "ĠPors": 4947,
      "lef": 4948,
      "ĠÄįaÄĳahan": 4949,
      "Ġpost": 4950,
      "Ġnjeallje": 4951,
      "}Â¢": 4952,
      "bakk": 4953,
      "}Â¢{": 4954,
      "ggÃ¡": 4955,
      "ÄįÄįaid": 4956,
      "galgÃ¡": 4957,
      "isa": 4958,
      "irjjis": 4959,
      "Ġheive": 4960,
      "ek": 4961,
      "Ġgirjer": 4962,
      "ĠJes": 4963,
      "ci": 4964,
      "uw": 4965,
      "ĠNA": 4966,
      "ĠUniversity": 4967,
      "ĠÃģlgg": 4968,
      "ĠmÃ¡ksojuvvo": 4969,
      "muh": 4970,
      "Ġeaktod": 4971,
      "ĠgohÄįÄį": 4972,
      "ĠgÃ¡ibÃ¡dusaid": 4973,
      "ĠmÃ¡ilmmis": 4974,
      "DD": 4975,
      "uorggis": 4976,
      "ĠDavvis": 4977,
      "Ġ................................": 4978,
      "Ġon": 4979,
      "Ġ................................................................................................................": 4980,
      "ssaide": 4981,
      "tip": 4982,
      "Ġriekta": 4983,
      "Ġovddida": 4984,
      "Almmust": 4985,
      "Ġregul": 4986,
      "Olgoriikadepartemeanta": 4987,
      "87": 4988,
      "onen": 4989,
      "ihkkÃ¡r": 4990,
      "Ġ57": 4991,
      "Johtalus": 4992,
      "Departemeanttat": 4993,
      "skuvla": 4994,
      "Ã¡laÅ¡vuohta": 4995,
      "StÃ¡htaministara": 4996,
      "ĠdÃ¡Å¾a": 4997,
      "usge": 4998,
      "Ġviess": 4999,
      "ĠÄįÃ¡lalaÅ¡": 5000,
      "ĠBr": 5001,
      "Ġguoski": 5002,
      "Ġsoai": 5003,
      "presideanta": 5004,
      "iikkÃ¡": 5005,
      "vvaid": 5006,
      "ĠkulturÃ¡r": 5007,
      "Ġjohtui": 5008,
      "fÃ¡laldat": 5009,
      "Gonagas": 5010,
      "uÅ¡t": 5011,
      "ite": 5012,
      "vir": 5013,
      "ehtalaÅ¡": 5014,
      "ĠMÃ¡Åĭ": 5015,
      "ĠmearkkaÅ¡ahtti": 5016,
      "vuogit": 5017,
      "Ã¡last": 5018,
      "ĠvÃ¡rrejuvvo": 5019,
      "ĠduoÄĳaÅ¡tit": 5020,
      "Ġit": 5021,
      "ĠsÃ¡htÃ¡t": 5022,
      "Ġtil": 5023,
      "Ġleaba": 5024,
      "ÃµÃµ": 5025,
      "Ġskuvllain": 5026,
      "ustis": 5027,
      "juolggadusaid": 5028,
      "Ġher": 5029,
      "Ġ65": 5030,
      "ĠmÃ¡nÃ¡in": 5031,
      "doaimmat": 5032,
      "digenous": 5033,
      "ealÃ¡husat": 5034,
      "instit": 5035,
      "ĠSÃ¡mediggerÃ¡": 5036,
      "Ġovttaoaiv": 5037,
      "ĠmeahcÃ¡st": 5038,
      "Suodjalusdepartemeanta": 5039,
      "Ġnannen": 5040,
      "jÃ¡t": 5041,
      "ĠÃģlbmotmeahc": 5042,
      "Ġvuotn": 5043,
      "Ġ04": 5044,
      "ihpp": 5045,
      "Ã¡Å¡Å¡it": 5046,
      "uÄĳat": 5047,
      "Ã¥v": 5048,
      "ĠdieÄĳalaÅ¡": 5049,
      "Ġjuohkit": 5050,
      "ĠAlmmolaÅ¡": 5051,
      "Ġviehka": 5052,
      "dig": 5053,
      "Ġakte": 5054,
      "eivviid": 5055,
      "ĠvÃ¡lgabii": 5056,
      "Ġmeh": 5057,
      "algÃ¡": 5058,
      "ohis": 5059,
      "Ġovttajiena": 5060,
      "ĠÃ¡Å¡Å¡emeannud": 5061,
      "ĠveahÃ¡Å¡": 5062,
      "ĠearÃ¡id": 5063,
      "ĠieÅ¾amet": 5064,
      "Ġprof": 5065,
      "ĠbivdÃ¡": 5066,
      "Ġresursa": 5067,
      "Ġleah": 5068,
      "Ġbealli": 5069,
      "Dan": 5070,
      "ĠÃģirras": 5071,
      "valan": 5072,
      "njuolggadusaid": 5073,
      "ktasaÅ¡": 5074,
      "ĠealÃ¡husat": 5075,
      "Johtalusdepartemeanta": 5076,
      "kos": 5077,
      "mÇ©iÃµ": 5078,
      "Ġlohkk": 5079,
      "34": 5080,
      "Ġartihkkal": 5081,
      "ĠoassÃ¡lastit": 5082,
      "ĠOvdamear": 5083,
      "Ã¡gat": 5084,
      "ĠStat": 5085,
      "htan": 5086,
      "Ġproseantta": 5087,
      "iki": 5088,
      "ĠSo": 5089,
      "kuvlii": 5090,
      "omearrin": 5091,
      "ĠlagaÅ¡": 5092,
      "uoÄĳ": 5093,
      "Ġguoll": 5094,
      "Ġgeaid": 5095,
      "Ġleamen": 5096,
      "olten": 5097,
      "uov": 5098,
      "Ġhup": 5099,
      "Ġ05": 5100,
      "Ġoanehis": 5101,
      "31": 5102,
      "Sam": 5103,
      "bargguin": 5104,
      "Ġovda": 5105,
      "Ġ59": 5106,
      "Ġlihkost": 5107,
      "Ġheajos": 5108,
      "Ġgidd": 5109,
      "Ġvihtta": 5110,
      "ĠMuot": 5111,
      "ĠsÃ¡melÃ¡ga": 5112,
      "ahÄį": 5113,
      ".\"": 5114,
      "ejoÄĳiheaddji": 5115,
      "Ġraportta": 5116,
      "ĠbÃ¡lvalusat": 5117,
      "Ġveahkkin": 5118,
      "Ġgeavahuvvojit": 5119,
      "http": 5120,
      "VA": 5121,
      "ĠMeahcc": 5122,
      "ĠbuÅ¡eahtt": 5123,
      "Ġsoahp": 5124,
      "allon": 5125,
      "eaddjis": 5126,
      "eassu": 5127,
      "ĠDoppe": 5128,
      "ĠteÃ¡hter": 5129,
      "gus": 5130,
      "ole": 5131,
      "Ġmiellahtt": 5132,
      "ĠlullisÃ¡mi": 5133,
      "Ġusti": 5134,
      "ĠsoahpamuÅ¡": 5135,
      "ĠEvttohus": 5136,
      "oÅ¡eakt": 5137,
      "eame": 5138,
      "agiela": 5139,
      "ageavah": 5140,
      "ktot": 5141,
      "Ġveahka": 5142,
      "Ġulbmiliid": 5143,
      "RÃ¡ÄĳÄĳehusa": 5144,
      "ker": 5145,
      "doal": 5146,
      "Ġbeali": 5147,
      "ĠhistorjjÃ¡": 5148,
      "Ġbaicce": 5149,
      "lÃ¡v": 5150,
      "ddalaÅ¡": 5151,
      "ohcc": 5152,
      "vuovdin": 5153,
      "Ġanalys": 5154,
      "Ġkan": 5155,
      "ivss": 5156,
      "Ã¡pmu": 5157,
      "ĠkonvenÅ¡uvnna": 5158,
      "ĠÃ¡rvalusa": 5159,
      "Ġ84": 5160,
      "ĠdÃ¡sse": 5161,
      "Ġohcama": 5162,
      "32": 5163,
      "aheapmi": 5164,
      "OAH": 5165,
      "ant": 5166,
      "Ġgoittot": 5167,
      "ĠdÃ¡rbbaÅ¡a": 5168,
      "Ġordn": 5169,
      "vuoigatvuoÄĳat": 5170,
      "Ġborge": 5171,
      "earrÃ¡igeahÄįÄį": 5172,
      "ĠrÃ¡mmaid": 5173,
      "Ġdaddj": 5174,
      "muÅ¡at": 5175,
      "eivve": 5176,
      "iÅ¡g": 5177,
      "uhtta": 5178,
      "ĠgeahÄįÄįal": 5179,
      "Ġgeavaheamis": 5180,
      "Ġfal": 5181,
      "ĠdilÃ¡laÅ¡vuoÄĳaid": 5182,
      "ÄįÃ¡la": 5183,
      "rievd": 5184,
      "ĠvuoÄĳÄĳuduvvon": 5185,
      "Ġsuorggis": 5186,
      "Ã¤s": 5187,
      "Ġdoalahit": 5188,
      "Ġmenddo": 5189,
      "jas": 5190,
      "ahii": 5191,
      "ĠguolÃ¡stan": 5192,
      "ĠbeaivÃ¡d": 5193,
      "Ġgosa": 5194,
      "Ġduddj": 5195,
      "Ġ66": 5196,
      "ĠmÃ¡ksit": 5197,
      "Ġfitnodat": 5198,
      "Ġeallima": 5199,
      "viidosaÅ¡": 5200,
      "Ġgonagas": 5201,
      "Ã¡niid": 5202,
      "ene": 5203,
      "ĠPa": 5204,
      "Ġguhkk": 5205,
      "beid": 5206,
      "Ã§": 5207,
      "Ġgova": 5208,
      "Ġtear": 5209,
      "ĠvuoigatvuoÄĳal": 5210,
      "net": 5211,
      "Ġli": 5212,
      "demiid": 5213,
      "Ġbohtosiid": 5214,
      "ĠOhcejoga": 5215,
      "Ġnuorra": 5216,
      "Ã¡go": 5217,
      "iduvvot": 5218,
      "ĠOlli": 5219,
      "ĠLÃ¡vdegoddi": 5220,
      "termin": 5221,
      "ĠAs": 5222,
      "Ġlon": 5223,
      "oÅ¡tu": 5224,
      "Ġsisdollui": 5225,
      "ĠhÃ¡lddaÅ¡eapmi": 5226,
      "Ġspesi": 5227,
      "ĠStuorradiggÃ¡i": 5228,
      "100": 5229,
      "Ġme": 5230,
      "uhtte": 5231,
      "uohtu": 5232,
      "NSR": 5233,
      "Ã¡ns": 5234,
      "ĠmÃ¡ttas": 5235,
      "eatnamiid": 5236,
      "ome": 5237,
      "Ġ~": 5238,
      "Ġjot": 5239,
      "odan": 5240,
      "2002": 5241,
      "Ġdoaimmahit": 5242,
      "RK": 5243,
      "ovttad": 5244,
      "Ġsullas": 5245,
      "Ġluondu": 5246,
      "doallÃ¡": 5247,
      "ĠÃ¡lggahuvvon": 5248,
      "laga": 5249,
      "Ã¡da": 5250,
      "ĠmÃ¡httit": 5251,
      "ĠSiiddas": 5252,
      "RÃ¡va": 5253,
      "biras": 5254,
      "ĠLe": 5255,
      "ĠÃ¡rbedieÄĳ": 5256,
      "ĠHenrik": 5257,
      "ĠÃ¡saheami": 5258,
      "Norggas": 5259,
      "Ġgoll": 5260,
      "ĠnaÅ¡uvnnalaÅ¡": 5261,
      "duvvo": 5262,
      "ĠLulli": 5263,
      "Ġsutnje": 5264,
      "Ġill": 5265,
      "Ġduohk": 5266,
      "ĠvÃ¡n": 5267,
      "ĠsÃ¡tneg": 5268,
      "Ġipmirdit": 5269,
      "Ġdohkkehan": 5270,
      "ĠveahÃ¡": 5271,
      "mÃ¡htu": 5272,
      "eatt": 5273,
      "Äįoahkkima": 5274,
      "Ġdadj": 5275,
      "bÃ¡lvalusa": 5276,
      "ikkel": 5277,
      "Ġlahttu": 5278,
      "Ġmoadde": 5279,
      "vvir": 5280,
      "Ġsub": 5281,
      "ĠlÃ¡dje": 5282,
      "ĠSA": 5283,
      "vrras": 5284,
      "Ġgiel": 5285,
      "ĠjÃ¡": 5286,
      "vuoÃ°": 5287,
      "ĠdÃ¡ruid": 5288,
      "oahpahussii": 5289,
      "Departemeantta": 5290,
      "ĠnÃ¡vcc": 5291,
      "ĠÃ¡lkit": 5292,
      "ĠfylkkamÃ¡n": 5293,
      "Ġgustojit": 5294,
      "Ġmeasta": 5295,
      "ĠOll": 5296,
      "ĠBargiidbellodaga": 5297,
      "rre": 5298,
      "Ġled": 5299,
      "ovddasvÃ¡stÃ¡dus": 5300,
      "att": 5301,
      "ĠoÄĳ": 5302,
      "Ã¡htat": 5303,
      "2017": 5304,
      "Ġalmmuhit": 5305,
      "36": 5306,
      "ĠfestivÃ¡la": 5307,
      "allamiidda": 5308,
      "ĠGuovdageaidnu": 5309,
      "Ġruvdn": 5310,
      "ĠGuolÃ¡stus": 5311,
      "Ġgolut": 5312,
      "Ġra": 5313,
      "ĠMuÄĳui": 5314,
      "ĠhÃ¡hkat": 5315,
      "ĠBÃ¡l": 5316,
      "orgalaÅ¡": 5317,
      "Ġmusihkka": 5318,
      "Ġsearvadahttindepartemeanta": 5319,
      "ĠgoappaÅ¡": 5320,
      "goddi": 5321,
      "Ġunnitlog": 5322,
      "Ġeaktun": 5323,
      "vuotna": 5324,
      "ĠÃ¡sset": 5325,
      "ddaid": 5326,
      "ĠfÃ¡t": 5327,
      "ĠÄįadnon": 5328,
      "earaÅ¡": 5329,
      "dÃ¡l": 5330,
      "hp": 5331,
      "jord": 5332,
      "ĠmÃ¡inn": 5333,
      "otna": 5334,
      "vuogÃ¡daga": 5335,
      "ĠABC": 5336,
      "din": 5337,
      "Ġduh": 5338,
      "ĠoaÄįÄįo": 5339,
      "Nuor": 5340,
      "tto": 5341,
      "ĠKultuvra": 5342,
      "Ġmunn": 5343,
      "Ġdis": 5344,
      "digg": 5345,
      "Ã¡vkk": 5346,
      "lÃ¡nddas": 5347,
      "Ġservodateallima": 5348,
      ".:": 5349,
      "alÃ¡hka": 5350,
      "ĠSaj": 5351,
      "Ġriid": 5352,
      "Ġka": 5353,
      "Ġmidjiide": 5354,
      "Ġkat": 5355,
      "jÃ¡vri": 5356,
      "TrÃ¸nd": 5357,
      "ĠdÃ¡ppe": 5358,
      "Ġ68": 5359,
      "ĠoÄĳÄĳajagi": 5360,
      "ĠleamaÅ¡an": 5361,
      "Ġoahpponeavvut": 5362,
      "Art": 5363,
      "Ġdivv": 5364,
      "ĠduogÃ¡Å¡": 5365,
      "Ġevalu": 5366,
      "Ġlobi": 5367,
      "ĠÃ¡lgÃ¡": 5368,
      "Ġdepartemeanta": 5369,
      "Kulturdepartementet": 5370,
      "kel": 5371,
      "ddara": 5372,
      "ĠÄįÃ¡jÃ¡hus": 5373,
      "ĠguÄĳet": 5374,
      "cces": 5375,
      "odepartemeantta": 5376,
      "uhttima": 5377,
      "Å£": 5378,
      "ert": 5379,
      "ĠUnjÃ¡r": 5380,
      "Ġneahtt": 5381,
      "Ãģigeguovdil": 5382,
      "ĠÃ¡rjja": 5383,
      "ĠViid": 5384,
      "ĠIeÅ¡": 5385,
      "ĠvejolaÅ¡vuoÄĳat": 5386,
      "ĠBalto": 5387,
      "Ġgiellan": 5388,
      "ĠoppalaÄįÄįat": 5389,
      "ĠvÃ¡rrejuvvon": 5390,
      "kielÃ¢": 5391,
      "vai": 5392,
      "eva": 5393,
      "egor": 5394,
      "Ġdoallat": 5395,
      "ktiibuot": 5396,
      "ĠmÃ¡tkk": 5397,
      "meksi": 5398,
      "eannu": 5399,
      "Ġsadji": 5400,
      "Ġver": 5401,
      "amu": 5402,
      "Ã¡rvvu": 5403,
      "Tema": 5404,
      "...........": 5405,
      "Ã¨Ã¨": 5406,
      "ling": 5407,
      "miiguin": 5408,
      "Ġoahpahit": 5409,
      "Ġdavvin": 5410,
      "Ġvuolg": 5411,
      "ansen": 5412,
      "lin": 5413,
      "iggodagaid": 5414,
      "LÃ¡hka": 5415,
      "eaÅ§": 5416,
      "ĠÃ¡rvvus": 5417,
      "Doaibma": 5418,
      "oe": 5419,
      "ĠDutkan": 5420,
      "âĪıâĪı": 5421,
      "ĠgeahÄįÄįalan": 5422,
      "Gu": 5423,
      "Äĳasmahttin": 5424,
      "bidju": 5425,
      "Ġmiella": 5426,
      "oktavuoÄĳas": 5427,
      "ĠcuoÅĭomÃ¡n": 5428,
      "ĠvuÄĳ": 5429,
      "Ġ49": 5430,
      "ĠGuovddÃ¡Å¡": 5431,
      "Ġturis": 5432,
      "ĠÃ¡vnnas": 5433,
      "riekti": 5434,
      "ĠskÃ¡bmamÃ¡nu": 5435,
      "Okta": 5436,
      "dÃ¡id": 5437,
      "Ã¡ÄĳÄĳÃ¡i": 5438,
      "ajÃ¡s": 5439,
      "Ġrii": 5440,
      "Ġ42": 5441,
      "istar": 5442,
      "les": 5443,
      "ĠaktiivvalaÄįÄįat": 5444,
      "vttÃ¡": 5445,
      "Ġbadjelas": 5446,
      "usta": 5447,
      "enn": 5448,
      "Ġoaivi": 5449,
      "Ġ801": 5450,
      "ĠmearkkaÅ¡umi": 5451,
      "ĠÃ¡sahuvvui": 5452,
      "Ġvuog": 5453,
      "ttuid": 5454,
      "sson": 5455,
      "vow": 5456,
      "ĠThom": 5457,
      "ĠProÅ¡eakta": 5458,
      "ĠbÃ¡gg": 5459,
      "ĠfÃ¡llat": 5460,
      "ihkku": 5461,
      "Ã¡Å¡Å¡iin": 5462,
      "eahta": 5463,
      "Ġdagahan": 5464,
      "Ġmuohta": 5465,
      "ĠTe": 5466,
      "proseassa": 5467,
      "hild": 5468,
      "alvalusat": 5469,
      "ggain": 5470,
      "ĠGielda": 5471,
      "Ġlahka": 5472,
      "Ġmand": 5473,
      "Ġgeal": 5474,
      "Ġolggos": 5475,
      "amaid": 5476,
      "ĠbuktÃ¡n": 5477,
      "Ġrievtti": 5478,
      "ĠÄįakÄįamÃ¡nu": 5479,
      "ĠKle": 5480,
      "ĠDaid": 5481,
      "ĠrÃ¡ddjejuvvon": 5482,
      "ĠÃ¡lbmotmeahcit": 5483,
      "44": 5484,
      "gos": 5485,
      "Ġsiidduin": 5486,
      "Ġgalgat": 5487,
      "allojuvvon": 5488,
      "ĠLar": 5489,
      "ĠgÃ¡vpe": 5490,
      "Ġsuohkanat": 5491,
      "isttu": 5492,
      "ĠgeavaheapmÃ¡i": 5493,
      "ĠÃ¡ssa": 5494,
      "olbmo": 5495,
      "lu": 5496,
      "eassad": 5497,
      "Ġoppa": 5498,
      "ĠgaÅ¾aldagat": 5499,
      "Ġeanemusat": 5500,
      "Ġceavzilis": 5501,
      "ĠÄįuohc": 5502,
      "los": 5503,
      "mÃ¡ll": 5504,
      "ĠKÃ¡rÃ¡Å¡joga": 5505,
      "ruo": 5506,
      "eabb": 5507,
      "Ġbiddjon": 5508,
      "ĠGieldd": 5509,
      "allojuvvo": 5510,
      "dieÄĳut": 5511,
      "Ġjietn": 5512,
      "ĠÄįavÄįÄįa": 5513,
      "Ġ80": 5514,
      "ĠAnÃ¡ra": 5515,
      "oahpaheaddji": 5516,
      "ĠÃģlttÃ¡": 5517,
      "ĠÃ¡Å¡Å¡edovd": 5518,
      "ĠovdÃ¡nahttin": 5519,
      "Ã¡httet": 5520,
      "Ġdoall": 5521,
      "Ġ85": 5522,
      "Ġleai": 5523,
      "arie": 5524,
      "ĠSiidda": 5525,
      "OU": 5526,
      "avtt": 5527,
      "ight": 5528,
      "ovddideami": 5529,
      "aheami": 5530,
      "Ġortnega": 5531,
      "ew": 5532,
      "adeapmi": 5533,
      "igo": 5534,
      "Ġ600": 5535,
      "Ġdavvi": 5536,
      "37": 5537,
      "ĠHistorjÃ¡": 5538,
      "Ġtr": 5539,
      "ĠberoÅ¡tupmi": 5540,
      "Ġnjiedj": 5541,
      "lf": 5542,
      "Ã¡llu": 5543,
      "Ġlagab": 5544,
      "ovddideapmi": 5545,
      "orr": 5546,
      "Ġmolssa": 5547,
      "aren": 5548,
      "Boazodoall": 5549,
      "uksen": 5550,
      "mearrÃ¡dus": 5551,
      "Ġoaivvildit": 5552,
      "Ġpsy": 5553,
      "ĠdÃ¡sa": 5554,
      "Ġ1995": 5555,
      "ĠoÅ¾Å¾o": 5556,
      "ĠMari": 5557,
      "qu": 5558,
      "Ġolah": 5559,
      "Ġred": 5560,
      "Ġriika": 5561,
      "Ġdeaddil": 5562,
      "Ġgozihit": 5563,
      "Ġbargosaj": 5564,
      "ehÄįÄį": 5565,
      "ĠÄįÃ¡llÃ¡n": 5566,
      "pman": 5567,
      "ca": 5568,
      "ĠâĢĻ": 5569,
      "ĠFerte": 5570,
      "ĠohcamuÅ¡": 5571,
      "Ġcealkka": 5572,
      "emiide": 5573,
      ".........": 5574,
      "ĠÃ¡rvvoÅ¡tallama": 5575,
      "Ġortnet": 5576,
      "dustr": 5577,
      "ĠsÃ¡nit": 5578,
      "ifis": 5579,
      "Ġbargov": 5580,
      "ĠvÃ¡sÃ¡husaid": 5581,
      "Ġstivr": 5582,
      "ĠPoasta": 5583,
      "bargiid": 5584,
      "oasis": 5585,
      "ĠeaktodÃ¡htolaÅ¡": 5586,
      "Ġboazos": 5587,
      "gieldd": 5588,
      "Ġgulaskudda": 5589,
      "ĠfÃ¡lu": 5590,
      "ĠSÃ¡httÃ¡": 5591,
      "gaÅ¾ald": 5592,
      "Ġbohccot": 5593,
      "Ġgoitge": 5594,
      "ĠnjÃ¡lmmÃ¡laÅ¡": 5595,
      "Ġfier": 5596,
      "Ġbargun": 5597,
      "ĠÃ¡mm": 5598,
      "oaimma": 5599,
      "ĠMikkel": 5600,
      "Ġbeakt": 5601,
      "ĠÃ¨": 5602,
      "SÃ¡medikkis": 5603,
      "Ġruhtadan": 5604,
      "Ġlogut": 5605,
      "ĠvÃ¡stidit": 5606,
      "Ã°Ã°": 5607,
      "ĠVÃ¡nddardeami": 5608,
      "Ġeasta": 5609,
      "Neahtta": 5610,
      "ĠKa": 5611,
      "tipean": 5612,
      "ĠbÃ¡z": 5613,
      "ĠSe": 5614,
      "ĠÃ¡ddejumi": 5615,
      "Ġheivv": 5616,
      "edh": 5617,
      "aporta": 5618,
      "Telef": 5619,
      "ĠOla": 5620,
      "ĠstÃ¡htabuÅ¡eah": 5621,
      "ÃĦ": 5622,
      "Ġboazologu": 5623,
      "ĠKÃ¡rÃ¡Å¡johka": 5624,
      "Ġek": 5625,
      "Ġ41": 5626,
      "ĠÃģigeguovdil": 5627,
      "Ġdahkkon": 5628,
      "Ġce": 5629,
      "Ġresurssat": 5630,
      "ĠBi": 5631,
      "ĠoÄĳÄĳasis": 5632,
      "Ġbargguin": 5633,
      "ĠMaÅĭÅĭ": 5634,
      "ĠgeatnegasvuoÄĳaid": 5635,
      "ikio": 5636,
      "Ġdieh": 5637,
      "KU": 5638,
      "guin": 5639,
      "plÃ¡nas": 5640,
      "Ġeaktuda": 5641,
      "90": 5642,
      "valit": 5643,
      "Ġloahpahuvvui": 5644,
      "Ġminor": 5645,
      "Ġbuohkaide": 5646,
      "Ġgen": 5647,
      "ohkan": 5648,
      "ĠguhkÃ¡s": 5649,
      "Ġmeannudit": 5650,
      "aguovddÃ¡Å¾": 5651,
      "ĠÄįuovvoleapmi": 5652,
      "ĠÃģig": 5653,
      "idÃ¡": 5654,
      "ĠdÃ¡hk": 5655,
      "ĠÄįoah": 5656,
      "boks": 5657,
      "Ã¡laÅ¾Å¾an": 5658,
      "ĠMÃ¡n": 5659,
      "Ġsiiddu": 5660,
      "Ġguoskk": 5661,
      "Davvi": 5662,
      "direktorÃ¡hta": 5663,
      "ĠgolggotmÃ¡nu": 5664,
      "issa": 5665,
      "ĠLuondduguovddÃ¡Å¾at": 5666,
      "ĠPe": 5667,
      "ĠdÃ¡rogiella": 5668,
      "ĠSÃ¡pmi": 5669,
      "str": 5670,
      "ĠPlÃ¡na": 5671,
      "Ġdoaimmain": 5672,
      "ĠvÃ¡ikkuhangaskaoamit": 5673,
      "ĠRaba": 5674,
      "ĠAili": 5675,
      "ĠnaÅ¡unÃ¡la": 5676,
      "ediehtu": 5677,
      "heiv": 5678,
      "Ġ67": 5679,
      "ĠjulevsÃ¡mi": 5680,
      "Ġneg": 5681,
      "earch": 5682,
      "Bargo": 5683,
      "Ġdoarjjastivra": 5684,
      "ĠvuogÃ¡d": 5685,
      "eand": 5686,
      "Ã¡jeh": 5687,
      "Ġevttohan": 5688,
      "ĠsÃ¡medigge": 5689,
      "Äįoahkkimis": 5690,
      "Ġpasi": 5691,
      "ĠJuohke": 5692,
      "Ġbeas": 5693,
      "Ġoaivil": 5694,
      "Ġbarggut": 5695,
      "Ã¶n": 5696,
      "Ġboazodoallo": 5697,
      "ĠÄįuoggÃ¡": 5698,
      "Suoma": 5699,
      ".),": 5700,
      "ĠcealkÃ¡muÅ¡a": 5701,
      "ĠAnders": 5702,
      "EG": 5703,
      "uhtadus": 5704,
      "Ġ1994": 5705,
      "Ġbisuhit": 5706,
      "vÃ¡s": 5707,
      "ĠhistorjÃ¡": 5708,
      "aguovddÃ¡Å¡": 5709,
      "ĠLassin": 5710,
      "oÅ¡eaktar": 5711,
      "Biras": 5712,
      "rÃ¡ÄĳÄĳehus": 5713,
      "Ġgirkodepartemeanta": 5714,
      "ĠgÃ¡ld": 5715,
      "ĠvuoiÅĭÅĭ": 5716,
      "Ġaid": 5717,
      "ĠrÃ¡fÃ¡id": 5718,
      "ohas": 5719,
      "Åĭgg": 5720,
      "ĠÃ¡it": 5721,
      "ĠDavviriikkalaÅ¡": 5722,
      "Ġeahpe": 5723,
      "Nj": 5724,
      "Siid": 5725,
      "hÃ¡pmi": 5726,
      "inar": 5727,
      "irje": 5728,
      "arjaga": 5729,
      "Ġboazog": 5730,
      "Ġovttasbargo": 5731,
      "Facebook": 5732,
      "asaÄįÄįat": 5733,
      "ĠÅ¡iehtadusa": 5734,
      "irjjit": 5735,
      "Ġjagiin": 5736,
      "iriikkaid": 5737,
      "ita": 5738,
      "Ġ52": 5739,
      "konsul": 5740,
      "ĠvÃ¡lljejuvvon": 5741,
      "tudean": 5742,
      "ossodat": 5743,
      "ĠollaÅ¡uhtt": 5744,
      "ojoavku": 5745,
      "suodjal": 5746,
      "Ã¡gast": 5747,
      "ĠvÃ¡ikkuhangaskaomiid": 5748,
      "ĠnjukÄįamÃ¡nu": 5749,
      "Ġdohko": 5750,
      "Ġhe": 5751,
      "ĠieÅ¡guÄĳetge": 5752,
      "mar": 5753,
      "vÃ¡": 5754,
      "Ġges": 5755,
      "ĠEkonomalaÅ¡": 5756,
      "ĠsÃ¡httÃ¡n": 5757,
      "ĠmÃ¡nÃ¡idgÃ¡rddi": 5758,
      "konvenÅ¡uvdna": 5759,
      "ĠNuorta": 5760,
      "ĠÄįearddalaÅ¡": 5761,
      "ĠÃģlbmotmeahcit": 5762,
      "VÃ¡l": 5763,
      "Ġbii": 5764,
      "ĠÃ¡immah": 5765,
      "Ġlahtut": 5766,
      "tal": 5767,
      "doalus": 5768,
      "ula": 5769,
      "ĠsÃ¡mediggevÃ¡l": 5770,
      "ĠsÃ¡pmelaÄįÄįaide": 5771,
      "ST": 5772,
      "ĠÃ¡hp": 5773,
      "ohan": 5774,
      "ihkkalis": 5775,
      "Ã¯el": 5776,
      "idnemÃ¡nu": 5777,
      "Ġku": 5778,
      "ĠEanadoall": 5779,
      "ĠTuri": 5780,
      "ĠDÃ¡in": 5781,
      "urnÃ¡la": 5782,
      "ĠÃ¡igeguovdilis": 5783,
      "Ġsuohkaniid": 5784,
      "Ġjiena": 5785,
      "innas": 5786,
      "Ġnissonolbmuid": 5787,
      "our": 5788,
      "Ġalcces": 5789,
      "ĠCon": 5790,
      "dÃ¡rbb": 5791,
      "ÏĢÏĢ": 5792,
      "oÅ¡tallan": 5793,
      "okÃ¡la": 5794,
      "Ġoaidnu": 5795,
      "Ġeallit": 5796,
      "Ġbirrasa": 5797,
      "Al": 5798,
      "br": 5799,
      "Å¡uvnnain": 5800,
      "ĠbivdÃ¡n": 5801,
      "Ã¡rbev": 5802,
      "Ġtel": 5803,
      "edieÄĳÃ¡husa": 5804,
      "Ġ8019": 5805,
      "ortnegat": 5806,
      "ĠJohtolagat": 5807,
      "Ġ)": 5808,
      "tiisa": 5809,
      "Ġteavstta": 5810,
      "gun": 5811,
      "eakta": 5812,
      "ttÃ¡s": 5813,
      "Ġmon": 5814,
      "Ġ110": 5815,
      "ike": 5816,
      "Ã¡rvalus": 5817,
      "eahtas": 5818,
      "undsen": 5819,
      "Ġetn": 5820,
      "Ġveal": 5821,
      "ĠEU": 5822,
      "ĠohcanvuÄĳot": 5823,
      "ĠmÃ¡nÃ¡idgÃ¡rddiide": 5824,
      "Ġjienastuslohkui": 5825,
      "ggiide": 5826,
      "Ġuhcc": 5827,
      "rÃ¡hkad": 5828,
      "ĠhÃ¡bmet": 5829,
      "Ġgoassege": 5830,
      "ĠSus": 5831,
      "ĠSom": 5832,
      "ĠieÅ¾an": 5833,
      "luo": 5834,
      "bmÃ¡i": 5835,
      "ĠIs": 5836,
      "lÃ¡gas": 5837,
      "ĠmÃ¡id": 5838,
      "kkii": 5839,
      "ĠMuotka": 5840,
      "sÃ¡megiella": 5841,
      "Ã¡lvalusat": 5842,
      "istorjjÃ¡laÅ¡": 5843,
      "ĠovttasbargoÅ¡iehtadus": 5844,
      "ĠlÃ¡i": 5845,
      "Ġbiddjojuvvon": 5846,
      "Ġbiddjojuvvo": 5847,
      "jii": 5848,
      "ĠLean": 5849,
      "ĠmÃ¡httÃ¡": 5850,
      "ĠLappi": 5851,
      "Ġmiellahtu": 5852,
      "ervodat": 5853,
      "Ġohcamii": 5854,
      "ĠsÃ¡mepolitihkalaÅ¡": 5855,
      "cation": 5856,
      "uÅ¡Å¡at": 5857,
      "Ġaddojuvvon": 5858,
      "ĠvÃ¡lmm": 5859,
      "Min": 5860,
      "bes": 5861,
      "ĠpedagogalaÅ¡": 5862,
      "teh": 5863,
      "ĠSihke": 5864,
      "ĠlÃ¡gain": 5865,
      "Ġbeale": 5866,
      "ĠboaÄĳus": 5867,
      "ĠSand": 5868,
      "Ġruv": 5869,
      "ÃģI": 5870,
      "ĠÃ¡lbmogiid": 5871,
      "ĠÃ¡sahusain": 5872,
      "Ġrustteg": 5873,
      "Ġsihkk": 5874,
      "Ã¡rvosaÅ¡": 5875,
      "Ã¡rat": 5876,
      "ĠdÃ¡inna": 5877,
      "Ġdoaibmi": 5878,
      "ĠJon": 5879,
      "Ġ51": 5880,
      "ĠdÃ¡idaga": 5881,
      "mÃ¡httu": 5882,
      "bÃ¡ikki": 5883,
      "fÃ¡galaÅ¡": 5884,
      "ĠDivttas": 5885,
      "Ġskuvlah": 5886,
      "Ġsurggiin": 5887,
      "Ġrievdaduvvon": 5888,
      "ĠmÃ¡httet": 5889,
      "ĠMaÅĭ": 5890,
      "Ã¡igodagas": 5891,
      "Ġbeassan": 5892,
      "tene": 5893,
      "vttolaÅ¡": 5894,
      "ĠlÃ¡hkaÃ¡sahusa": 5895,
      "ĠgÃ¡vpot": 5896,
      "tie": 5897,
      "uheapmi": 5898,
      "Ġovdii": 5899,
      "alÃ¡g": 5900,
      "ĠduojÃ¡r": 5901,
      "oaÅ¾Å¾u": 5902,
      "atur": 5903,
      "vvu": 5904,
      "Ġbiegga": 5905,
      "Ann": 5906,
      "ĠhÃ¡mis": 5907,
      "Ã¡ssÃ¡saÅ¡": 5908,
      "ĠSeamma": 5909,
      "Ġnammii": 5910,
      "Ġgirjjis": 5911,
      "uÅ¡eahtta": 5912,
      "Ġerohus": 5913,
      "ĠÄĮÃ¡ll": 5914,
      "ĠÃ¡vÅ¾Å¾uh": 5915,
      "Ii": 5916,
      "teret": 5917,
      "Per": 5918,
      "Ġdaga": 5919,
      "ohte": 5920,
      "oahtÃ¡": 5921,
      "Ġmannat": 5922,
      "ĠlÃ¡id": 5923,
      "ĠÄįaÄĳahuvvot": 5924,
      "Ġjoatk": 5925,
      "oavda": 5926,
      "Ġduohken": 5927,
      "omen": 5928,
      "dio": 5929,
      "fyl": 5930,
      "Ġrel": 5931,
      "ĠDain": 5932,
      "ĠÃ¡Å¡Å¡Ã¡i": 5933,
      "oahkkingirji": 5934,
      "ĠbajÃ¡sÅ¡addan": 5935,
      "Ġbier": 5936,
      "Ġ250": 5937,
      "ĠMan": 5938,
      "uorggi": 5939,
      "ĠÄĮuo": 5940,
      "Ġruvnnu": 5941,
      "Ġstrategiija": 5942,
      "Ġhu": 5943,
      "ĠHeai": 5944,
      "Ġraporta": 5945,
      "ĠLarsen": 5946,
      "ĠrÃ¡mmaeavttuid": 5947,
      "rrat": 5948,
      "Ġ06": 5949,
      "iinna": 5950,
      "seÃ¡rvu": 5951,
      "ĠfÃ¡laldaga": 5952,
      "MaÅĭ": 5953,
      "Ġoadje": 5954,
      "ĠÃ¡kkast": 5955,
      "heim": 5956,
      "Ã¡igodat": 5957,
      "Ġunna": 5958,
      "Ġovddasteaddji": 5959,
      "ĠieÅ¡mearridan": 5960,
      "Oahpahus": 5961,
      "taid": 5962,
      "vugiid": 5963,
      "era": 5964,
      "ĠGeav": 5965,
      "rategiija": 5966,
      "Ġsom": 5967,
      "esen": 5968,
      "vddÃ¡": 5969,
      "ahttÃ¡n": 5970,
      "ĠFor": 5971,
      "Ġlogu": 5972,
      "bor": 5973,
      "Ġduoh": 5974,
      "ddin": 5975,
      "ĠsÃ¡mÃ¡st": 5976,
      "vr": 5977,
      "aÅ¡ii": 5978,
      "Ġdutk": 5979,
      "Ġavii": 5980,
      "ÌĮ": 5981,
      "Ġoastit": 5982,
      "ĠnuvttÃ¡": 5983,
      "po": 5984,
      "ssain": 5985,
      "Ġosiid": 5986,
      "riks": 5987,
      "ovddidan": 5988,
      "ĠdÃ¡hpÃ¡hus": 5989,
      "van": 5990,
      "uvai": 5991,
      "Ġ020": 5992,
      "insa": 5993,
      "Ġlohpi": 5994,
      "kovvi": 5995,
      "ostuol": 5996,
      "vuohtan": 5997,
      "ĠorganisaÅ¡uvnnat": 5998,
      "bmÃ¡": 5999,
      "ĠBa": 6000,
      "mÃ¡il": 6001,
      "Ġokto": 6002,
      "jjÃ¡s": 6003,
      "ĠÃ¡vd": 6004,
      "ĠsÃ¡ddet": 6005,
      "ĠsÃ¡vv": 6006,
      "ulev": 6007,
      "olaÅ¡vuoÄĳa": 6008,
      "politihkas": 6009,
      "ĠRo": 6010,
      "Ġjuolluduvvon": 6011,
      "omearit": 6012,
      "Ġy": 6013,
      "Ġper": 6014,
      "Ġbeaivve": 6015,
      "ĠduhtavaÅ¡": 6016,
      "ted": 6017,
      "Ġvuohki": 6018,
      "ĠdieÄĳÃ¡hus": 6019,
      "Ġ1993": 6020,
      "Ġoasit": 6021,
      "Ġregistrerejuvvon": 6022,
      "ĠBor": 6023,
      "Ġbargob": 6024,
      "Ġgulahallama": 6025,
      "maiddÃ¡i": 6026,
      "ĠproÅ¡ektii": 6027,
      "Ġstuorr": 6028,
      "ĠvÃ¡stida": 6029,
      "Ġ1989": 6030,
      "LLA": 6031,
      "mÃ¡t": 6032,
      "rapor": 6033,
      "abealde": 6034,
      "Ġsearvan": 6035,
      "ĠÃ¡irasis": 6036,
      "Ġdoalah": 6037,
      "ĠMÃ¡httolo": 6038,
      "idieÄĳut": 6039,
      "ĠÂ¢": 6040,
      "Ġdovdat": 6041,
      "ĠdievasÄįoahkkimis": 6042,
      "Lin": 6043,
      "Ã¡hcc": 6044,
      "ĠBerg": 6045,
      "ĠProÅ¡eavtt": 6046,
      "amin": 6047,
      "gk": 6048,
      "ona": 6049,
      "Ġruhtadeami": 6050,
      "jor": 6051,
      "pet": 6052,
      "ÃģH": 6053,
      "eaddjÃ¡i": 6054,
      "Ġsys": 6055,
      "alusa": 6056,
      "Ã¡raÅ¡": 6057,
      "meari": 6058,
      "Ġleago": 6059,
      "Ġ88": 6060,
      "ĠÃ¡lbmotvÃ¡ll": 6061,
      "ferds": 6062,
      "ttut": 6063,
      "Ġ1992": 6064,
      "ctic": 6065,
      "sÃ¡megillii": 6066,
      "ĠhÃ¡lddaÅ¡eamis": 6067,
      "uit": 6068,
      "ĠearÃ¡l": 6069,
      "ĠSÃ¡meÃ¡lbmot": 6070,
      "ĠovttajienalaÄįÄįat": 6071,
      "elas": 6072,
      "rasa": 6073,
      "ĠÄįuv": 6074,
      "Ã¡ilmmi": 6075,
      "Ġjohtin": 6076,
      "meahcc": 6077,
      "Ġsuodjalit": 6078,
      "ĠvÃ¡hnen": 6079,
      "iÅĭkkat": 6080,
      "Ġallaskuvllas": 6081,
      "dÃ¡si": 6082,
      "kÅ¡un": 6083,
      "eaddi": 6084,
      "ĠdieÄĳusge": 6085,
      "ĠÃ¡ddet": 6086,
      "eaÅ§alaÅ¡": 6087,
      "ÃģÅ¡Å¡": 6088,
      "Ã¡vdegottis": 6089,
      "mitea": 6090,
      "eahÄįen": 6091,
      "ĠRiikkaidgaskasaÅ¡": 6092,
      "Ġ87": 6093,
      "Ġjoavkku": 6094,
      "ged": 6095,
      "ĠproÅ¡eavttaid": 6096,
      "Ġoskk": 6097,
      "eminÃ¡ra": 6098,
      "Ã¡ssa": 6099,
      "ĠÃģlgo": 6100,
      "ĠlÃ¡hkÃ¡i": 6101,
      "Ġsoj": 6102,
      "Ġstivrra": 6103,
      "Ġvisot": 6104,
      "48": 6105,
      "Ġleav": 6106,
      "astis": 6107,
      "gillii": 6108,
      "hÄį": 6109,
      "Ġvugiin": 6110,
      "Ġoahppog": 6111,
      "andÃ¡r": 6112,
      "Ġgili": 6113,
      "ĠBo": 6114,
      "proÅ¡eavttat": 6115,
      "Ġall": 6116,
      "Ġoasse": 6117,
      "ori": 6118,
      "eallimis": 6119,
      "urnal": 6120,
      "ĠsÃ¡htii": 6121,
      "ĠsÃ¡tne": 6122,
      "Ġledjen": 6123,
      "ĠliikkÃ¡": 6124,
      "ealÃ¡husain": 6125,
      "Ġdoarjjan": 6126,
      "Ġdoaibmabijuide": 6127,
      "ĠgaÅ¾aldagaid": 6128,
      "Ġnamm": 6129,
      "ĠelektrovnnalaÅ¡": 6130,
      "=\"": 6131,
      "ĠhÃ¡st": 6132,
      "ĠmateriÃ¡la": 6133,
      "eaddjiide": 6134,
      "Ġskuvllaid": 6135,
      "gin": 6136,
      "ĠfÃ¡pmud": 6137,
      "ferdsels": 6138,
      "Ġmuor": 6139,
      "Ã¡vdegoddÃ¡i": 6140,
      "Ġsihkkarastin": 6141,
      "oaÄĳi": 6142,
      "ĠRa": 6143,
      "ovddideapmÃ¡i": 6144,
      "Ġleage": 6145,
      "ivnn": 6146,
      "Ġovttaid": 6147,
      "ĠdehÃ¡leamos": 6148,
      "ĠeisevÃ¡lddiiguin": 6149,
      "menn": 6150,
      "Ġkonse": 6151,
      "ĠVuosttaÅ¡": 6152,
      "Ġvirge": 6153,
      "Ġjuogo": 6154,
      "Samferdsels": 6155,
      "ivÄįÄįe": 6156,
      "ĠberoÅ¡keahttÃ¡": 6157,
      "ĠfÃ¡laldat": 6158,
      "uohkima": 6159,
      "Ġaut": 6160,
      "Ġlohp": 6161,
      "Ġbeales": 6162,
      "Finans": 6163,
      "ĠÃ¡sahan": 6164,
      "ofÃ¡lald": 6165,
      "rievtti": 6166,
      "algihtii": 6167,
      "lla": 6168,
      "âĢ¢âĢ¢": 6169,
      "Samferdselsdepartementet": 6170,
      "Ġbuh": 6171,
      "ĠEai": 6172,
      "Ġlah": 6173,
      "doaimmaide": 6174,
      "ĠsÃ¡ddejuvvo": 6175,
      "fierpm": 6176,
      "Ġsotna": 6177,
      "ĠbÃ¡ldd": 6178,
      "ĠSkuvla": 6179,
      "ĠfÃ¡": 6180,
      "ĠVuor": 6181,
      "ĠEgil": 6182,
      "ĠVal": 6183,
      "Ġalmmust": 6184,
      "Ġkont": 6185,
      "Ġgaskabodd": 6186,
      "bliotehka": 6187,
      "Ġrievdan": 6188,
      "del": 6189,
      "Ġduodji": 6190,
      "Ġdaningo": 6191,
      "itit": 6192,
      "Ġmed": 6193,
      "ĠÃ¡rvu": 6194,
      "ĠMÃ¡nÃ¡idgÃ¡rddit": 6195,
      "ĠAm": 6196,
      "tenriks": 6197,
      "Ġmedia": 6198,
      "ĠPorsÃ¡Åĭ": 6199,
      "Ġmeal": 6200,
      "Ã¡liid": 6201,
      "Finansdepartementet": 6202,
      "ĠNordlÃ¡ndda": 6203,
      "Ġsuomagillii": 6204,
      "ĠrahÄį": 6205,
      "ÃģL": 6206,
      "Ġ2018": 6207,
      "ĠrÃ¡dje": 6208,
      "ĠolmmoÅ¡lohku": 6209,
      ".............": 6210,
      "ĠIpmil": 6211,
      "aleamos": 6212,
      "Ġeanadoalu": 6213,
      "Buot": 6214,
      "soahpamuÅ¡a": 6215,
      "..........": 6216,
      "Ġseailluhit": 6217,
      "Ġovttasbarggus": 6218,
      "Ġoahpaheddjiid": 6219,
      "ĠOllu": 6220,
      "ĠÃ¡rga": 6221,
      "ĠriegÃ¡dan": 6222,
      "Ġluhtte": 6223,
      "Ġhut": 6224,
      "este": 6225,
      "ĠÃ¡sahuvvo": 6226,
      "ĠdÃ¡vvir": 6227,
      "Ġruhtad": 6228,
      "tenriksdepartementet": 6229,
      "igin": 6230,
      "Ġnuorta": 6231,
      "ĠAnÃ¡ris": 6232,
      "stantii": 6233,
      "ho": 6234,
      "Ġevttohusaid": 6235,
      "guovddÃ¡Å¾a": 6236,
      "obuvttad": 6237,
      "Ġhuksejuvvon": 6238,
      "kkaÅ¡umi": 6239,
      "Ġdemok": 6240,
      "uvdnapr": 6241,
      "Ohcan": 6242,
      "Ġrevid": 6243,
      "Ġmerkejuvvon": 6244,
      "\",": 6245,
      "Utenriksdepartementet": 6246,
      "mols": 6247,
      "mÃ¡lle": 6248,
      "illa": 6249,
      "ĠOpp": 6250,
      "IID": 6251,
      "Ġamas": 6252,
      "Rie": 6253,
      "Ġoidno": 6254,
      "ĠTer": 6255,
      "Ġjienain": 6256,
      "ĠfÃ¡pmui": 6257,
      "nii": 6258,
      "uohtas": 6259,
      "ĠSp": 6260,
      "ĠbÃ¡lk": 6261,
      "ĠÃ¡vkkÃ¡stallat": 6262,
      "ahttimii": 6263,
      "ate": 6264,
      "Ġsuomagiela": 6265,
      "ĠgÃ¡rv": 6266,
      "plÃ¡naid": 6267,
      "rreg": 6268,
      "Ġbuoremusat": 6269,
      "Ġju": 6270,
      "rru": 6271,
      "Ã¡igemearri": 6272,
      "Â«": 6273,
      "Ġprakt": 6274,
      "hton": 6275,
      "...............": 6276,
      "Ġgeatnegasvuohta": 6277,
      "suohkan": 6278,
      "vrii": 6279,
      "ĠÄįuvvot": 6280,
      "Ġorganiseren": 6281,
      "Ġvies": 6282,
      "Ã¡nsa": 6283,
      "Ã¡sat": 6284,
      "ovkui": 6285,
      "Ġ96": 6286,
      "ĠÃ¡rvvuid": 6287,
      "Ġohppiin": 6288,
      "lish": 6289,
      "ĠPar": 6290,
      "ministeriija": 6291,
      "Ġsear": 6292,
      "Ġbohcco": 6293,
      "ĠbeaivÃ¡duvvon": 6294,
      "duid": 6295,
      "ĠjÃ¡hkk": 6296,
      "astusa": 6297,
      "ortnegii": 6298,
      "ets": 6299,
      "..............": 6300,
      "outu": 6301,
      "fievrr": 6302,
      "gÃ¡v": 6303,
      "ĠBÃ¡i": 6304,
      "Ġdeaiv": 6305,
      "Ã¡hkii": 6306,
      "Ġarkiiva": 6307,
      "Ġdasgo": 6308,
      "Ġluonddum": 6309,
      "ĠInstit": 6310,
      "ĠplÃ¡nen": 6311,
      "ĠmÃ¡ÅĭggalÃ¡gan": 6312,
      "isten": 6313,
      "ĠnorgalaÅ¡": 6314,
      "ĠLei": 6315,
      "Ġbivdo": 6316,
      "Ġnubbing": 6317,
      "ÄįÃ¡jÃ¡hus": 6318,
      "âĢľ": 6319,
      "ĠKo": 6320,
      "Ġ07": 6321,
      "ĠsÃ¡medigger": 6322,
      "bÃ¡r": 6323,
      "ĠloahpalaÅ¡": 6324,
      "Kulturdepartemeanta": 6325,
      "vttir": 6326,
      "ĠOarje": 6327,
      "fil": 6328,
      "bargguid": 6329,
      "ĠvÃ¡sihan": 6330,
      "vÃ¡lddi": 6331,
      "vii": 6332,
      "ĠfÃ¡ddÃ¡n": 6333,
      "ĠgÃ¥": 6334,
      "ĠSPR": 6335,
      "ktagiid": 6336,
      "Ġorohat": 6337,
      "gadit": 6338,
      "ĠmÃ¡hc": 6339,
      "ogat": 6340,
      "ĠoahpÃ¡sm": 6341,
      "ktiiva": 6342,
      "elle": 6343,
      "Sk": 6344,
      "ĠbÃ¡ikki": 6345,
      "ĠrievttÃ¡laÅ¡": 6346,
      "ĠNjÃ¡vd": 6347,
      "ĠdÃ¡rkkist": 6348,
      "Ġgr": 6349,
      "Ġsta": 6350,
      "Ġhan": 6351,
      "olohku": 6352,
      "vuoÄĳadepartemeanta": 6353,
      "Ġgalle": 6354,
      "ĠOlsen": 6355,
      "eÅ¾": 6356,
      "Â¡": 6357,
      "adus": 6358,
      "Stuorradi": 6359,
      "94": 6360,
      "ĠlÃ¡": 6361,
      "iska": 6362,
      "vtti": 6363,
      "ĠBj": 6364,
      "Departementene": 6365,
      "Ovttas": 6366,
      "riikk": 6367,
      "rustteg": 6368,
      "birrasa": 6369,
      "Ġekonomiija": 6370,
      "Ã¡lddaÅ¡an": 6371,
      "ĠoahppoplÃ¡naid": 6372,
      "perspektii": 6373,
      "stÃ¡i": 6374,
      "doaimmah": 6375,
      "Â¨": 6376,
      "ĠDoai": 6377,
      "bmag": 6378,
      "astat": 6379,
      "Ġkrit": 6380,
      "Ġed": 6381,
      "ĠOass": 6382,
      "Ġeisev": 6383,
      "ystad": 6384,
      "ĠStuorradikki": 6385,
      "Å¡uvdnii": 6386,
      "bÃ¡ikkit": 6387,
      "Ġ76": 6388,
      "ĠÄįÃ¡lli": 6389,
      "iessu": 6390,
      "ĠguovttegielalaÅ¡": 6391,
      "ĠvuoÄĳÄĳoskuvlla": 6392,
      "lob": 6393,
      "Ġevttohit": 6394,
      "ĠMarie": 6395,
      "ore": 6396,
      "ĠBir": 6397,
      "Ã¡htaid": 6398,
      "ĠÄĮoahkki": 6399,
      "mahttit": 6400,
      "inst": 6401,
      "ĠOh": 6402,
      "Ġmannan": 6403,
      "Romssa": 6404,
      "ojoavkku": 6405,
      "ĠAnne": 6406,
      "ĠFylkk": 6407,
      "uvvi": 6408,
      "ĠTove": 6409,
      "ihttala": 6410,
      "Ġbuohta": 6411,
      "ĠRidd": 6412,
      "ĠotnÃ¡": 6413,
      "Ġguohton": 6414,
      "Ġovddideamis": 6415,
      "ĠÃ¡igut": 6416,
      "Ġevttohuvvon": 6417,
      "ĠfierpmÃ¡dat": 6418,
      "td": 6419,
      "rran": 6420,
      "Ġovddasteaddjit": 6421,
      "Äįuj": 6422,
      "odoaimmah": 6423,
      "Ġ350": 6424,
      "Ġeallimis": 6425,
      "Guovdagea": 6426,
      "dag": 6427,
      "asiin": 6428,
      "Ġhirbmat": 6429,
      "Ġnjuolgg": 6430,
      "aks": 6431,
      "Ġlan": 6432,
      "ĠdiekkÃ¡r": 6433,
      "ĠoÄĳÄĳasit": 6434,
      "ĠmÃ¡Åĭggaid": 6435,
      "oluid": 6436,
      "Ġ900": 6437,
      "ĠealÃ¡husaide": 6438,
      "ĠFinnmÃ¡rkkuopm": 6439,
      "beids": 6440,
      "Ġinn": 6441,
      "adaga": 6442,
      "Â·Â·Â·Â·": 6443,
      "ĠgiÄĳÄĳ": 6444,
      "USA": 6445,
      "ĠGÃ¡r": 6446,
      "ĠÄįÃ¡llojuvvon": 6447,
      "ĠNubbi": 6448,
      "ĠoÄįÄįodit": 6449,
      "Ã¡vdnasat": 6450,
      "Ġsearvi": 6451,
      "arÃ¡j": 6452,
      "ĠDÃ¡lÃ¡": 6453,
      "ysa": 6454,
      "ĠKal": 6455,
      "Ġdeattuhuvvo": 6456,
      "ihttu": 6457,
      "eivves": 6458,
      "ĠhÃ¡lddaÅ¡eapmÃ¡i": 6459,
      "Ġsosial": 6460,
      "ces": 6461,
      "siid": 6462,
      "Ġrievdd": 6463,
      "Nord": 6464,
      "Ġpoasttas": 6465,
      "jiid": 6466,
      "ohit": 6467,
      "eremii": 6468,
      "ĠgelbbolaÅ¡vuoÄĳ": 6469,
      "ahkk": 6470,
      "sea": 6471,
      "anta": 6472,
      "Ġmatemat": 6473,
      "ĠvÃ¡ldojuvvo": 6474,
      "ĠvÃ¡lddii": 6475,
      "PA": 6476,
      "per": 6477,
      "ĠÄįal": 6478,
      "ĠAk": 6479,
      "Ġbajit": 6480,
      "Dokumeanttat": 6481,
      "alÃ¡vdegotti": 6482,
      "Ġve": 6483,
      "main": 6484,
      "Ġguodd": 6485,
      "93": 6486,
      "KT": 6487,
      "iste": 6488,
      "Ġkulturvies": 6489,
      "ani": 6490,
      "ilmas": 6491,
      "46": 6492,
      "IV": 6493,
      "Ġrat": 6494,
      "Ġ02": 6495,
      "Ġbuorrin": 6496,
      "ĠfÃ¡rus": 6497,
      "ĠHarald": 6498,
      "ograf": 6499,
      "die": 6500,
      "Å¡iehtadusa": 6501,
      "bijut": 6502,
      "Ġeatnamiin": 6503,
      "Dokumenter": 6504,
      "amela": 6505,
      "Ġstobut": 6506,
      "su": 6507,
      "vttes": 6508,
      "ĠNy": 6509,
      "ahttimis": 6510,
      "Ġvuordit": 6511,
      "Ġvuovdin": 6512,
      "ĠÄįovdosiid": 6513,
      "Er": 6514,
      "ĠApp": 6515,
      "ĠearÃ¡ide": 6516,
      "Ġmihttomeriid": 6517,
      "ĠguÄĳe": 6518,
      "ĠGaska": 6519,
      "vala": 6520,
      "limus": 6521,
      "Ġnissonolbmot": 6522,
      "ĠberoÅ¡tumi": 6523,
      "ĠsierralÃ¡gan": 6524,
      "Ġgokko": 6525,
      "ĠÄĮuovv": 6526,
      "ĠsÃ¡mediggi": 6527,
      "ĠborgemÃ¡nu": 6528,
      "irjjiid": 6529,
      "Ġvuolggas": 6530,
      "Bargodepartemeanta": 6531,
      "ĠGaski": 6532,
      "lak": 6533,
      "ĠoÄĳasmahttindepartemeanta": 6534,
      "Ġjorgaluvvon": 6535,
      "enti": 6536,
      "Ġguov": 6537,
      "Ã¡igeassu": 6538,
      "ĠArt": 6539,
      "eabbo": 6540,
      "AlmmolaÅ¡": 6541,
      "Ġdepartemeantta": 6542,
      "Ġdaddjo": 6543,
      "suorggis": 6544,
      "ĠdÃ¡rogielat": 6545,
      "Ġvuollel": 6546,
      "ĠollaÅ¡uhttit": 6547,
      "ĠeaÅĭ": 6548,
      "ĠieÅ¾at": 6549,
      "Ġmearra": 6550,
      "Ġih": 6551,
      "ĠMuhtin": 6552,
      "ĠgaÅ¾aldat": 6553,
      "Ġskov": 6554,
      "Ġustibii": 6555,
      "Ġdaj": 6556,
      "Ã¡jus": 6557,
      "Ġluossa": 6558,
      "uk": 6559,
      "Ġovddidii": 6560,
      "Ġunnidit": 6561,
      "ĠIntern": 6562,
      "ĠïĤ·ïĢł": 6563,
      "ggaÅ¡tusa": 6564,
      "kv": 6565,
      "ĠGaup": 6566,
      "obeale": 6567,
      "Mearr": 6568,
      "ĠFin": 6569,
      "ĠÃ¡lggii": 6570,
      "ĠIndigenous": 6571,
      "Ã¡lasturr": 6572,
      "arÃ¢Å¡": 6573,
      "eara": 6574,
      "ĠJien": 6575,
      "arjj": 6576,
      "adjin": 6577,
      "ealah": 6578,
      "vuol": 6579,
      "ohtet": 6580,
      "ĠOslos": 6581,
      "ĠSomby": 6582,
      "Departementets": 6583,
      "mmiid": 6584,
      "idi": 6585,
      "eremis": 6586,
      "ĠÄįakÄįat": 6587,
      "ilje": 6588,
      "uÅ¡Å¡ii": 6589,
      "Ġdoarjjar": 6590,
      "ĠkonsultaÅ¡uvnnaid": 6591,
      "Ã¡lddahusa": 6592,
      "ĠlassÃ¡na": 6593,
      "ĠdÃ¡rbbaÅ¡uvvo": 6594,
      "Äįilgehus": 6595,
      "Ġmunnje": 6596,
      "ĠDepartemeanta": 6597,
      "ĠÃ¡lbmotrievttÃ¡laÅ¡": 6598,
      "Ġrefer": 6599,
      "ĠÃ¡hÄįÄį": 6600,
      "Ġgess": 6601,
      "Ġ86": 6602,
      "Ġsoab": 6603,
      "ĠsisttisdoallÃ¡": 6604,
      "eansa": 6605,
      "Ġgudn": 6606,
      "Ġstuorit": 6607,
      "Twitter": 6608,
      "Ġgean": 6609,
      "Ġmeahcis": 6610,
      "ĠeaiggÃ¡duÅ¡Å¡an": 6611,
      "SÃģM": 6612,
      "ahuvvo": 6613,
      "ĠvÃ¡stidan": 6614,
      "ĠsullasaÅ¡": 6615,
      "ĠSir": 6616,
      "Ġjuste": 6617,
      "Ġdahkkojuvvon": 6618,
      "ĠvÃ¡nhe": 6619,
      "onag": 6620,
      "Ġerenom": 6621,
      "ĠcuoÅĭomÃ¡nu": 6622,
      "ieÅ¾": 6623,
      "Ã¡rjeh": 6624,
      "Ġovddiduvvon": 6625,
      "angaskaoamit": 6626,
      "emiedi": 6627,
      "Ġerohusat": 6628,
      "Ġalimus": 6629,
      "Ġgullan": 6630,
      "Ġartihkkalis": 6631,
      "ĠEanet": 6632,
      "ĠlÃ¡hÄįÄį": 6633,
      "ĠmÃ¡hte": 6634,
      "als": 6635,
      "uvnna": 6636,
      "ĠÃ¡Å¡Å¡e": 6637,
      "conc": 6638,
      "Ġgoittotge": 6639,
      "ĠmÃ¡innaÅ¡": 6640,
      "ĠsÃ¡tni": 6641,
      "ĠjuoidÃ¡": 6642,
      "Ġseks": 6643,
      "Ġtermin": 6644,
      "Ã¡si": 6645,
      "earÃ¡": 6646,
      "vrrat": 6647,
      "lagidde": 6648,
      "Ġlis": 6649,
      "Ġlul": 6650,
      "ĠSF": 6651,
      "Ġjuolludus": 6652,
      "doa": 6653,
      "ideamis": 6654,
      "Ġpro": 6655,
      "ĠÄįuovvova": 6656,
      "ttÃ¡muÅ¡": 6657,
      "Ġoidnosii": 6658,
      "ĠÂ»": 6659,
      "ĠdieÄĳihit": 6660,
      "ly": 6661,
      "erud": 6662,
      "Ġoktavuodas": 6663,
      "agnhild": 6664,
      "ĠmÃ¡nu": 6665,
      "ĠÄįaÄĳahuvvo": 6666,
      "Ġnammadan": 6667,
      "kultuvrralaÅ¡": 6668,
      "Ġvealaheami": 6669,
      "dieÄĳÃ¡hus": 6670,
      "Ã¡vva": 6671,
      "Ã¡Å¡Å¡is": 6672,
      "oposiÅ¡uvnnat": 6673,
      "fÃ¡r": 6674,
      "Ġvuoig": 6675,
      "eahÄįÄįat": 6676,
      "ĠTwitter": 6677,
      "ĠÃģh": 6678,
      "ullevaÅ¡": 6679,
      "ĠovdÃ¡neapmÃ¡i": 6680,
      "ĠOlmmoÅ¡": 6681,
      "karta": 6682,
      "Ġrehketdoallu": 6683,
      "mod": 6684,
      "ĠBea": 6685,
      "davv": 6686,
      "Ġtelef": 6687,
      "ĠplÃ¡naid": 6688,
      "Ġdoibmet": 6689,
      "jjat": 6690,
      "md": 6691,
      "pa": 6692,
      "Ġvur": 6693,
      "Ã¥n": 6694,
      "Ġgirko": 6695,
      "ĠvieÅ¾Å¾": 6696,
      "BR": 6697,
      "eallÃ¡i": 6698,
      "Ġpositiiva": 6699,
      "Ġnjuolgga": 6700,
      "Eurohp": 6701,
      "fjord": 6702,
      "Ġrievdadusaid": 6703,
      "Ġsirdit": 6704,
      "ĠBoazodoallu": 6705,
      "Ġ0205": 6706,
      "Ġans": 6707,
      "Ġsmi": 6708,
      "ogo": 6709,
      "Ġkulturmuitos": 6710,
      "organisaÅ¡uvnnat": 6711,
      "Ġulbmila": 6712,
      "Ġgielddaide": 6713,
      "Ġcegg": 6714,
      "Ġviss": 6715,
      "ĠberoÅ¡tumit": 6716,
      "Mar": 6717,
      "ĠsoahpamuÅ¡a": 6718,
      "terreg": 6719,
      "ĠÃ¡irasa": 6720,
      "Ġbadjelasas": 6721,
      "emiedigk": 6722,
      "UT": 6723,
      "beaiv": 6724,
      "ĠrÃ¡vvagiid": 6725,
      "ĠgearggusvuoÄĳadepartemeanta": 6726,
      "Äĳiin": 6727,
      "ĠVuoigat": 6728,
      "ĠÃ¡vkkÃ¡laÅ¡": 6729,
      "ĠÃ¡lbmotmeahci": 6730,
      "Ġmaidege": 6731,
      "adeami": 6732,
      "ostii": 6733,
      "ĠdiÄĳ": 6734,
      "ĠproÅ¡eavttat": 6735,
      "vuogÃ¡dat": 6736,
      "eatnegas": 6737,
      "bargit": 6738,
      "ĠgeogrÃ¡falaÅ¡": 6739,
      "ĠgohÄįoduvvon": 6740,
      "ĠheivvolaÅ¡": 6741,
      "vven": 6742,
      "adettiin": 6743,
      "ĠfinnmÃ¡r": 6744,
      "Ġdeaivvadan": 6745,
      "are": 6746,
      "ĠOvdal": 6747,
      "rris": 6748,
      "eana": 6749,
      "ĠdÃ¡rbbut": 6750,
      "Ġovddiduvvo": 6751,
      "ĠoaidnÃ¡n": 6752,
      "ÄĮÃ¡lÃ¡n": 6753,
      "Ġnjiedjan": 6754,
      "Ġ2019": 6755,
      "Justiisa": 6756,
      "ĠÃ¡rbevieruid": 6757,
      "ohÄįÄį": 6758,
      "ĠsÃ¡miin": 6759,
      "uorah": 6760,
      "Ãģlgo": 6761,
      ".......": 6762,
      "Ġpen": 6763,
      "ĠAreÃ¡la": 6764,
      "Kap": 6765,
      "Mus": 6766,
      "dul": 6767,
      "kommi": 6768,
      ".....": 6769,
      "adis": 6770,
      "Ġeanetlohku": 6771,
      "ĠJagis": 6772,
      "bokte": 6773,
      "Ã¡sahusat": 6774,
      "Ġjuoh": 6775,
      "arr": 6776,
      "ĠBÃ¡lvalusat": 6777,
      "Ġcon": 6778,
      "ĠhÃ¡liidat": 6779,
      "oÄĳastus": 6780,
      "VD": 6781,
      "ĠJahk": 6782,
      "itehtat": 6783,
      "joga": 6784,
      "Ġgier": 6785,
      "Ġvuorras": 6786,
      "ĠUr": 6787,
      "Neahttakarta": 6788,
      "ĠplÃ¡nejuvvon": 6789,
      "ÄĮÃ¡lÃ¡nhÃ¡pmi": 6790,
      "eddjiin": 6791,
      "kom": 6792,
      "olf": 6793,
      "ĠhÃ¡lddahusa": 6794,
      "ĠÃ¡igot": 6795,
      "ĠÃ¡lggos": 6796,
      "ĠovdÃ¡nan": 6797,
      "ĠseminÃ¡r": 6798,
      "EDIG": 6799,
      "uro": 6800,
      "obier": 6801,
      "konomiija": 6802,
      "ĠÃ¡lggahuvvo": 6803,
      "ĠvÃ¡stideaddji": 6804,
      "ĠbajimuÅ¡": 6805,
      "ielggad": 6806,
      "ĠStuorradiggi": 6807,
      "dÃ¡sis": 6808,
      "Eavtt": 6809,
      "ĠvÃ¡ldog": 6810,
      "ĠluondduguovddÃ¡Å¡": 6811,
      "ĠSÃ¡memusea": 6812,
      "oktavuoÄĳat": 6813,
      "Bla": 6814,
      "vul": 6815,
      "ĠgÃ¡dd": 6816,
      "Ã¡dagas": 6817,
      "Ġovdamearkan": 6818,
      "Ġah": 6819,
      "aste": 6820,
      "ational": 6821,
      "ĠbajÃ¡bealde": 6822,
      "Ġdulkot": 6823,
      "Siida": 6824,
      "nde": 6825,
      "alÃ¡vdegoddi": 6826,
      "Ġgula": 6827,
      "ĠOahppit": 6828,
      "Ġmihtilmas": 6829,
      "dain": 6830,
      "allit": 6831,
      "ĠNett": 6832,
      "SÃ¡mediggerÃ¡Äĳi": 6833,
      "Ġneahttasiid": 6834,
      "Gir": 6835,
      "Ġ................................................": 6836,
      "vddi": 6837,
      "Ġ1970": 6838,
      "ĠguÄĳege": 6839,
      "ĠÄįÃ¡lalaÄįÄįat": 6840,
      "Ġolahit": 6841,
      "Ġovddalgihtii": 6842,
      "Ġmiellagidde": 6843,
      "Ġviidodat": 6844,
      "ĠÃ¡saheapmi": 6845,
      "Ãģlbmot": 6846,
      "Ġovttaoaivilis": 6847,
      "Ġovdas": 6848,
      "Ã¡ttÃ¡t": 6849,
      "Ġdeavd": 6850,
      "Ġbargojoavkku": 6851,
      "ĠhÃ¡lddaÅ¡anguovllus": 6852,
      "Ã¡rkk": 6853,
      "dihte": 6854,
      "kamis": 6855,
      "Ã¡idda": 6856,
      "oplÃ¡n": 6857,
      "ĠInger": 6858,
      "ĠollislaÄįÄįat": 6859,
      "ĠgÃ¡nnÃ¡hahtti": 6860,
      "Jagi": 6861,
      "oab": 6862,
      "Ġmehtera": 6863,
      "Ġdiehto": 6864,
      "Ġolmm": 6865,
      "Ġovdag": 6866,
      "ĠEarret": 6867,
      "ĠÃ¡mmÃ¡t": 6868,
      "GuolÃ¡stus": 6869,
      "Ġby": 6870,
      "ĠLassidieÄĳut": 6871,
      "ĠNÃ¡": 6872,
      "Ġdoaibmadoarjaga": 6873,
      "ĠhÃ¡stalussan": 6874,
      "iehtar": 6875,
      "ohppui": 6876,
      "ĠPaul": 6877,
      "Ġgielat": 6878,
      "ĠvÃ¡ilu": 6879,
      "tolaga": 6880,
      "ĠjÃ¡hk": 6881,
      "eard": 6882,
      "ordin": 6883,
      "ĠAndersen": 6884,
      "heiveh": 6885,
      "Ga": 6886,
      "Ġrigg": 6887,
      "ihtal": 6888,
      "Ġjorga": 6889,
      "lik": 6890,
      "ĠSÃģ": 6891,
      "ĠguoÄĳ": 6892,
      "ĠVÃ¡ld": 6893,
      "Ġdevd": 6894,
      "esideantta": 6895,
      "Ġteavsttaid": 6896,
      "ĠoÄĳÄĳajagimÃ¡nu": 6897,
      "GeahÄįa": 6898,
      "jus": 6899,
      "Ġdire": 6900,
      "itu": 6901,
      "Ã¡pmelaÅ¡": 6902,
      "Ġgulahallat": 6903,
      "ĠVuoÄĳÄĳo": 6904,
      "Ġjoavkkuid": 6905,
      "ĠsÃ¡mepolitihka": 6906,
      "ĠBargo": 6907,
      "TrÃ¸ndelÃ¡ga": 6908,
      "KÃ¡r": 6909,
      "esta": 6910,
      "Ã¸re": 6911,
      "idh": 6912,
      "Ġdakko": 6913,
      "ĠgÃ¡ibiduvvo": 6914,
      "ĠsÃ¡pmelaÄįÄįain": 6915,
      "Ġoadjebas": 6916,
      "aska": 6917,
      "ĠdÃ¡ssÃ¡i": 6918,
      "ĠOvttasbargu": 6919,
      "ino": 6920,
      "skov": 6921,
      "nie": 6922,
      "Ġdill": 6923,
      "ĠdÃ¡rogiel": 6924,
      "Ġeatnamiidda": 6925,
      "Dokumentets": 6926,
      "Ġdokumentet": 6927,
      "Ãĥ": 6928,
      "Ġgiellageavah": 6929,
      "ĠÄįoavdit": 6930,
      "49": 6931,
      "han": 6932,
      "posi": 6933,
      "Ġvrd": 6934,
      "Ġoainnus": 6935,
      "ĠhÃ¡ve": 6936,
      "ĠvuostÃ¡ivÃ¡ld": 6937,
      "43": 6938,
      "omm": 6939,
      "ivva": 6940,
      "ihkar": 6941,
      "beroÅ¡tu": 6942,
      "Ġjurid": 6943,
      "eanttaid": 6944,
      "aÅ¡uvnna": 6945,
      "Ġrievdadus": 6946,
      "EAR": 6947,
      "55": 6948,
      "Ġje": 6949,
      "Ġbist": 6950,
      "ĠBeaivv": 6951,
      "eallimii": 6952,
      "ĠdievasÄįoahkkima": 6953,
      "LAÅł": 6954,
      "ĠdearvvasvuoÄĳa": 6955,
      "des": 6956,
      "ĠrÃ¡hk": 6957,
      "Åĭge": 6958,
      "Ġproseanta": 6959,
      "upmÃ¡i": 6960,
      "njuolggadusat": 6961,
      "ĠStrategiijat": 6962,
      "Ġmusihka": 6963,
      "Ġmovttiidahttit": 6964,
      "ĠsÃ¡l": 6965,
      "Ã¡Å¾iid": 6966,
      "JA": 6967,
      "ĠNystad": 6968,
      "ĠÃģlttÃ¡s": 6969,
      "Ġgivss": 6970,
      "vtteg": 6971,
      "proÅ¡eavttaide": 6972,
      "Ġatt": 6973,
      "suodjalan": 6974,
      "buor": 6975,
      "buol": 6976,
      "SÃ¡medigge": 6977,
      "Ġgirjjiid": 6978,
      "kkÃ¡n": 6979,
      "ĠAS": 6980,
      "Ġdihtor": 6981,
      "Norga": 6982,
      "Almmuhan": 6983,
      "ĠvuollÃ¡iÄįÃ¡ll": 6984,
      "tj": 6985,
      "Ġob": 6986,
      "Ġmill": 6987,
      "juollud": 6988,
      "Ġ186": 6989,
      "Ġbiddjo": 6990,
      "emÃ¡nu": 6991,
      "Ġdin": 6992,
      "agiidda": 6993,
      "Ġfidno": 6994,
      "ĠNo": 6995,
      "ĠNRK": 6996,
      "ĠbÃ¡lkÃ¡": 6997,
      "Ġdutkamii": 6998,
      "ĠrÃ¡mmaeavttut": 6999,
      "ian": 7000,
      "Ġoba": 7001,
      "Ġarkii": 7002,
      "ĠdÃ¥": 7003,
      "ihkalaÄįÄįat": 7004,
      "ĠlullisÃ¡megiela": 7005,
      "ĠbÃ¡ikenamaid": 7006,
      "ĠÄįuoÅ¾Å¾u": 7007,
      "vuoÏĢ": 7008,
      "ehtet": 7009,
      "sttas": 7010,
      "ĠlÃ¡gi": 7011,
      "Ġjearald": 7012,
      "ĠoÄĳasmahttin": 7013,
      "ĠSte": 7014,
      "Ġeatnama": 7015,
      "Ġkruvnnu": 7016,
      "Luondd": 7017,
      "omeari": 7018,
      "Ġnjealji": 7019,
      "ĠEng": 7020,
      "beliid": 7021,
      "hean": 7022,
      "Ã¡ks": 7023,
      "eaktu": 7024,
      "riekte": 7025,
      "skuvllas": 7026,
      "eaba": 7027,
      "ĠieÅ¡al": 7028,
      "aidgask": 7029,
      "Ġdulkon": 7030,
      "ĠdÃ¡hpÃ¡huvvan": 7031,
      "ĠRÃ¡vv": 7032,
      "ahusaid": 7033,
      "ĠÂª": 7034,
      "ĠHed": 7035,
      "ĠmÃ¡nÃ¡idgÃ¡rddit": 7036,
      "Ġspiehk": 7037,
      "ĠstÃ¡htaid": 7038,
      "ior": 7039,
      "Ġnjuovv": 7040,
      "Ġatnet": 7041,
      "ĠÃ§": 7042,
      "atge": 7043,
      "ĠGil": 7044,
      "ĠBie": 7045,
      "ahttojuvvo": 7046,
      "ĠJesus": 7047,
      "ÃĢ": 7048,
      "semin": 7049,
      "ealÃ¡husaide": 7050,
      "Ġrelev": 7051,
      "bmÃ¡t": 7052,
      "ĠÃ¡igodahkii": 7053,
      "uorre": 7054,
      "alai": 7055,
      "ĠRich": 7056,
      "ĠThomassen": 7057,
      "Ġâ": 7058,
      "elÃ¡gan": 7059,
      "ĠÄįujuhuvvo": 7060,
      "Ġlogi": 7061,
      "VuoÄĳÄĳ": 7062,
      "AR": 7063,
      "Ġovdalis": 7064,
      "ĠvÃ¡ilot": 7065,
      "arÃ¢Å¡kielÃ¢": 7066,
      "eahkk": 7067,
      "Ã¡htalaÄįÄįat": 7068,
      "ĠjoÄĳihit": 7069,
      "varlig": 7070,
      "ĠguolÃ¡stusdepartemeanta": 7071,
      "ĠinstituÅ¡uvnn": 7072,
      "OS": 7073,
      "rÃ¥d": 7074,
      "asteaddji": 7075,
      "Ã¡sahusaid": 7076,
      "VUO": 7077,
      "df": 7078,
      "Ġlusa": 7079,
      "Ġnjul": 7080,
      "Ã¥s": 7081,
      "ĠmearkkaÅ¡umiid": 7082,
      "ĠbÃ¡ikkiin": 7083,
      "ET": 7084,
      "atna": 7085,
      "skal": 7086,
      "Ġlagabui": 7087,
      "ĠTwitteris": 7088,
      "vuÄĳot": 7089,
      "ÄįÃ¡z": 7090,
      "vdo": 7091,
      "ĠLÃ¡vdegotti": 7092,
      "uÄĳege": 7093,
      "Ġgeahpp": 7094,
      "ĠvÃ¡lmmaÅ¡t": 7095,
      "Ġrehkenast": 7096,
      "Ġvuotnaguovll": 7097,
      "91": 7098,
      "Ġoal": 7099,
      "rema": 7100,
      "ĠbÃ¡lg": 7101,
      "ĠvÃ¡lddah": 7102,
      "Ġfilbma": 7103,
      "konferÃ¡nsa": 7104,
      "ĠÃ¡lbmotrievtti": 7105,
      "teddjiid": 7106,
      "dustriija": 7107,
      "dalit": 7108,
      "ry": 7109,
      "Ġva": 7110,
      "ĠiehÄį": 7111,
      "Lass": 7112,
      "ĠMedi": 7113,
      "ĠEami": 7114,
      "ĠdeaÅ§alaÄįÄįat": 7115,
      "ĠÄįiekÅĭ": 7116,
      "nuoraid": 7117,
      "ĠOvdamearkka": 7118,
      "erh": 7119,
      "ĠsÃ¡htte": 7120,
      "Ġgaskkustit": 7121,
      "ohat": 7122,
      "Ġkulturr": 7123,
      "ĠanÃ¡raÅ¡": 7124,
      "Ġossodat": 7125,
      "ĠdÃ¡lÃ¡Å¡": 7126,
      "Ġlohket": 7127,
      "Ġrievdadusat": 7128,
      "Ġorganiserema": 7129,
      "galget": 7130,
      "Ġoaivila": 7131,
      "Ġov": 7132,
      "Ġbil": 7133,
      "mail": 7134,
      "erie": 7135,
      "uvvoÅ¡ii": 7136,
      "lander": 7137,
      "ĠAd": 7138,
      "ĠTelefon": 7139,
      "sÃ¡n": 7140,
      "ĠdÃ¡htt": 7141,
      "ĠÄįielggadus": 7142,
      "Ã¡lbmogat": 7143,
      "Ġbirasdepartemeanta": 7144,
      "And": 7145,
      "ÅĪ": 7146,
      "Ġgor": 7147,
      "ĠÃ¡igodaga": 7148,
      "Ġoahpaheaddjin": 7149,
      "Ġekonomii": 7150,
      "Ġovdamearka": 7151,
      "ĠJuollud": 7152,
      "Ġmeannu": 7153,
      "erejuvvo": 7154,
      "Ġfer": 7155,
      "eahte": 7156,
      "ĠÃ¡ic": 7157,
      "Ġduovd": 7158,
      "fÃ¡laldagaid": 7159,
      "ĠgÃ¡rvvist": 7160,
      "kkul": 7161,
      "Ġfon": 7162,
      "Ġbakte": 7163,
      "Ġkommun": 7164,
      "Ġguovlodepartemeanta": 7165,
      "ektui": 7166,
      "asiidda": 7167,
      "ĠBargu": 7168,
      "guovddÃ¡Å¾is": 7169,
      "Ġopmodat": 7170,
      "Vai": 7171,
      "bir": 7172,
      "olbmuin": 7173,
      "muhto": 7174,
      "ddiid": 7175,
      "guovllut": 7176,
      "Ġorohaga": 7177,
      "kkan": 7178,
      "ĠÃģrbev": 7179,
      "Ġguovdu": 7180,
      "oÅ¾in": 7181,
      "ĠdassÃ¡Å¾ii": 7182,
      "Ġmihttomearrin": 7183,
      "jÃ¡rggas": 7184,
      "usas": 7185,
      "ehahtti": 7186,
      "ĠÃ¡rval": 7187,
      "abargg": 7188,
      "Ġstuorradigg": 7189,
      "bie": 7190,
      "ohÃ¡lddahus": 7191,
      "ĠBoazodoalu": 7192,
      "earkkat": 7193,
      "Ġnannejuvvo": 7194,
      "Ġruhtadit": 7195,
      "Ġmuitalii": 7196,
      "ierru": 7197,
      "obargg": 7198,
      "opolit": 7199,
      "Ġimp": 7200,
      "Ġdahkkojuvvo": 7201,
      "Bargu": 7202,
      "ction": 7203,
      "Ġsihkar": 7204,
      "ĠdehÃ¡laÄįÄįat": 7205,
      "Ġolbmui": 7206,
      "1999": 7207,
      "uvvama": 7208,
      "Ġeahpes": 7209,
      "OÄĳÄĳ": 7210,
      "ĠSED": 7211,
      "ktema": 7212,
      "ĠsuoidnemÃ¡nu": 7213,
      "ĠOktavuohta": 7214,
      "ĠÄįoahkkan": 7215,
      "Ġjoav": 7216,
      "Ġovdasiidu": 7217,
      "ibe": 7218,
      "Ġbiehtt": 7219,
      "ĠjulevsÃ¡megiela": 7220,
      "Ġskuvllat": 7221,
      "ĠOvttasbarg": 7222,
      "poas": 7223,
      "Ã¡rbb": 7224,
      "ĠDon": 7225,
      "Ã¤t": 7226,
      "ĠdieÄĳÃ¡husa": 7227,
      "ĠÃ¡rvohÃ¡hkan": 7228,
      "opp": 7229,
      "ĠKap": 7230,
      "Ġalmmuhuvvon": 7231,
      "ĠvÃ¡stÃ¡dus": 7232,
      "Ġanus": 7233,
      "ica": 7234,
      "ĠÃ¡lgit": 7235,
      "ĠdÃ¡sseÃ¡rvvu": 7236,
      "ĠgÃ¡iddus": 7237,
      "Ġohppui": 7238,
      "ĠsosiÃ¡ladepartemeanta": 7239,
      "aluin": 7240,
      "uvnnalaÅ¡": 7241,
      "innost": 7242,
      "osiÃ¡la": 7243,
      "ĠSku": 7244,
      "Ġ700": 7245,
      "ĠNugo": 7246,
      "92": 7247,
      "Ġbargi": 7248,
      "Ġeanandoallu": 7249,
      "ĠÃģrvv": 7250,
      "Ġoainnuid": 7251,
      "redaktÃ¸r": 7252,
      "ĠKlemet": 7253,
      "ĠfÃ¡m": 7254,
      "Ġindiv": 7255,
      "ĠÃ¡sahuvvot": 7256,
      "ĠseammalÃ¡gan": 7257,
      "ĠvÃ¡ldon": 7258,
      "ĠdavvisÃ¡megillii": 7259,
      "ĠÄįatnasit": 7260,
      "ĠipmÃ¡rdus": 7261,
      "ĠvÃ¡ttisvuoÄĳaid": 7262,
      "Ġrivttes": 7263,
      "ĠRichard": 7264,
      "Ġlie": 7265,
      "aleaddji": 7266,
      "ĠKra": 7267,
      "ĠseminÃ¡ra": 7268,
      "51": 7269,
      "vÃ¤": 7270,
      "Ġ03": 7271,
      "ĠÄįuokkis": 7272,
      "ĠhÃ¡liidan": 7273,
      "ĠparagrÃ¡": 7274,
      "proÅ¡eavttaid": 7275,
      "Ġguollebivd": 7276,
      "Sis": 7277,
      "boaÄĳ": 7278,
      "Ġvuhtt": 7279,
      "beale": 7280,
      "CavgilGovÄįÄįa": 7281,
      "jien": 7282,
      "asjon": 7283,
      "allo": 7284,
      "ktevra": 7285,
      "ibahis": 7286,
      "ĠVÃ¡ldo": 7287,
      "ferte": 7288,
      "keg": 7289,
      "ĠNina": 7290,
      "evi": 7291,
      "gasat": 7292,
      "ĠalmmÃ¡i": 7293,
      "dilis": 7294,
      "Ġbirrasis": 7295,
      "BirasgÃ¡htten": 7296,
      "nÃ¥": 7297,
      "tten": 7298,
      "ieÅ¡": 7299,
      "iimet": 7300,
      "Ġfok": 7301,
      "ĠdieÄĳe": 7302,
      "ĠUt": 7303,
      "ĠDuodje": 7304,
      "Ġortnegiid": 7305,
      "sub": 7306,
      "olmm": 7307,
      "Ġorrut": 7308,
      "ĠErenoamÃ¡Å¡": 7309,
      "etr": 7310,
      "guovl": 7311,
      "samisk": 7312,
      "Ġguovtte": 7313,
      "ĠJohansen": 7314,
      "ĠÃ¡vdnasiid": 7315,
      "atti": 7316,
      "Ġsiidda": 7317,
      "Ġmearriduvvo": 7318,
      "Doarjjaortnega": 7319,
      "ĠipmÃ¡rdusa": 7320,
      "ĠredaktÃ¸r": 7321,
      "Mari": 7322,
      "VÃ¡ikkuh": 7323,
      "uodjalan": 7324,
      "Ġoro": 7325,
      "Ġinvestere": 7326,
      "Ġsotnabeaivi": 7327,
      ".~": 7328,
      "der": 7329,
      "uheami": 7330,
      "Ġfierbme": 7331,
      "Ġsam": 7332,
      "Ġriikkaid": 7333,
      "ĠbÃ¡ikkis": 7334,
      "eriÃ¡las": 7335,
      "Ġeatnamat": 7336,
      "hr": 7337,
      "oaidn": 7338,
      "ĠgehÄįÄį": 7339,
      "ttiide": 7340,
      "......": 7341,
      "ĠDieÄĳ": 7342,
      "Ġohppet": 7343,
      "emihtt": 7344,
      "Ġoast": 7345,
      "Ġbeavdeg": 7346,
      "Ġgaskan": 7347,
      "Ã¡igÃ¡i": 7348,
      "ohcan": 7349,
      "ĠvejolaÄįÄįat": 7350,
      "Ovdasiidu": 7351,
      "</": 7352,
      "Ġgur": 7353,
      "bbÃ¡": 7354,
      "ĠÃ¡rbediehtu": 7355,
      "ardeaddji": 7356,
      "Ġmihkk": 7357,
      "ĠÃ¡vnnaslaÅ¡": 7358,
      "Die": 7359,
      "Tel": 7360,
      "gÃ¡ldu": 7361,
      "ĠoÄĳas": 7362,
      "Ã¡seappot": 7363,
      "FinnmÃ¡rkkus": 7364,
      "ĠNettredaktÃ¸r": 7365,
      "tÃ¶": 7366,
      "ĠdÃ¡rkilit": 7367,
      "Ġbaicca": 7368,
      "umii": 7369,
      "ĠSÃģM": 7370,
      "Ġgielain": 7371,
      "Ġveard": 7372,
      "ĠÃ¡vvud": 7373,
      "skka": 7374,
      "Ġ63": 7375,
      "ĠgÃ¡ibÃ¡dusat": 7376,
      "Ġjoatkkaskuvllas": 7377,
      "Solberga": 7378,
      "rrain": 7379,
      "Ġvuodd": 7380,
      "ĠFr": 7381,
      "kkust": 7382,
      "ĠGirji": 7383,
      "Ġovddabealde": 7384,
      "ĠSuodj": 7385,
      "Ã¡tned": 7386,
      "Bar": 7387,
      "Ġrihkk": 7388,
      "oto": 7389,
      "ĠlÃ¡gat": 7390,
      "ĠÃ¡innas": 7391,
      "ihkkalat": 7392,
      "Ġipmird": 7393,
      "Ã¡neapmi": 7394,
      "edjon": 7395,
      "prÃ¥": 7396,
      "ĠSami": 7397,
      "ĠduoÄĳalaÅ¡": 7398,
      "ÄįÃ¡llin": 7399,
      "aker": 7400,
      "ÄįoakkÃ¡ld": 7401,
      "ĠmolsaÅ¡": 7402,
      "Ġgealb": 7403,
      "dutkan": 7404,
      "Ġoassev": 7405,
      "ĠhÃ¡llat": 7406,
      "Ġbargojoavku": 7407,
      "ĠScien": 7408,
      "ĠlÃ¡vd": 7409,
      "earkkaid": 7410,
      "ovdÃ¡neami": 7411,
      "ehketdoallu": 7412,
      "Äįa": 7413,
      "Ġnamat": 7414,
      "Ġriikkain": 7415,
      "ĠBargodepartemeanta": 7416,
      "Ġgaskamear": 7417,
      "aleami": 7418,
      "Ġvurd": 7419,
      "Ã¡rtn": 7420,
      "stipean": 7421,
      "ĠuhccÃ¡n": 7422,
      "Ã¡dagaid": 7423,
      "Ġlasi": 7424,
      "pmaid": 7425,
      "ĠSÃ¡melÃ¡ga": 7426,
      "ĠsÃ¡gastallan": 7427,
      "ĠÄįalmmustahttit": 7428,
      "agielda": 7429,
      "istri": 7430,
      "Ã¤iv": 7431,
      "eive": 7432,
      "lÃ¡gÃ¡n": 7433,
      "ovttasbarggu": 7434,
      "ĠrÃ¡ÄĳÄĳÃ¡dallan": 7435,
      "Ġfoandda": 7436,
      "demiin": 7437,
      "Ġjurdda": 7438,
      "Ġeanavuovdin": 7439,
      "bjÃ¸rn": 7440,
      "Ġjearrat": 7441,
      "ĠmÃ¡tkkoÅ¡t": 7442,
      "En": 7443,
      "Ġdohkk": 7444,
      "kun": 7445,
      "ĠvejolaÅ¾Å¾an": 7446,
      "Bie": 7447,
      "Ġai": 7448,
      "Ġvari": 7449,
      "isu": 7450,
      "ĠÃģv": 7451,
      "osaÄįÄįat": 7452,
      "ĠdÃ¡ruiduhttin": 7453,
      "Mon": 7454,
      "meannud": 7455,
      "sear": 7456,
      "uhusa": 7457,
      "Ġvuodj": 7458,
      "sÃ¡miid": 7459,
      "Ġbohtosat": 7460,
      "AN": 7461,
      "Tove": 7462,
      "rt": 7463,
      "Â»,": 7464,
      "ĠpersovnnalaÅ¡": 7465,
      "ĠhÃ¡rj": 7466,
      "Ã¡lii": 7467,
      "allj": 7468,
      "ĠRÃ¸": 7469,
      "ĠÄįoahkkimii": 7470,
      "Ġjohtolat": 7471,
      "Ġsiskkil": 7472,
      "ĠEanan": 7473,
      "ĠkonvenÅ¡uvdna": 7474,
      "iillas": 7475,
      "Ġmealgat": 7476,
      "olm": 7477,
      "Ġbirg": 7478,
      "Telefovdna": 7479,
      "ĠguoÄĳÄĳ": 7480,
      "ĠmÃ¡ksÃ¡": 7481,
      "ĠvÃ¡ikkuhangaskaoa": 7482,
      "joavkkuid": 7483,
      "-/": 7484,
      "fo": 7485,
      "osof": 7486,
      "meanta": 7487,
      "ĠKan": 7488,
      "ĠInn": 7489,
      "ĠÃģs": 7490,
      "prinsihp": 7491,
      "ĠvÃ¡lljejit": 7492,
      "JI": 7493,
      "iduvvojit": 7494,
      "ĠSÃ¡l": 7495,
      "eht": 7496,
      "egis": 7497,
      "ĠieÅ¡hean": 7498,
      "ical": 7499,
      "ehttii": 7500,
      "ĠkonsultaÅ¡uvdna": 7501,
      "Ġratifis": 7502,
      "ĠÃ¡rvvoÅ¡tallÃ¡": 7503,
      "ĠSiidii": 7504,
      "ĠÄįo": 7505,
      "iikkas": 7506,
      "ĠÄįÃ¡jehan": 7507,
      "ĠnjealjÃ¡t": 7508,
      "bar": 7509,
      "Ġgra": 7510,
      "Ġvuvd": 7511,
      "ork": 7512,
      "Ġgirji": 7513,
      "ĠhuksenlÃ¡ga": 7514,
      "Ġnissoniid": 7515,
      "ĠsajÃ¡daga": 7516,
      "laskuddan": 7517,
      "divÅ¡Å¡": 7518,
      "ĠDeanus": 7519,
      "iehtoj": 7520,
      "unk": 7521,
      "Ã¡htus": 7522,
      "Ġalmmuhan": 7523,
      "ĠovdÃ¡nit": 7524,
      "eavet": 7525,
      "ĠgirjjÃ¡laÅ¡": 7526,
      "ĠGol": 7527,
      "ĠÃ¡Å¡Å¡iide": 7528,
      "Ġsoames": 7529,
      "Eavttuhus": 7530,
      "idu": 7531,
      "tala": 7532,
      "bmo": 7533,
      "ĠÃ¡rbevir": 7534,
      "Ġgilv": 7535,
      "ĠsihkkarastÃ¡": 7536,
      "kultuvra": 7537,
      "ĠÃ¡vii": 7538,
      "ÂªÂª": 7539,
      "ïĤ·ïĢł": 7540,
      "agielat": 7541,
      "ĠMis": 7542,
      "Ġnuppe": 7543,
      "ĠlÃ¡hkaÃ¡sahusaid": 7544,
      "ĠdillÃ¡i": 7545,
      "Äĳit": 7546,
      "ĠmÃ¡lle": 7547,
      "ĠBuor": 7548,
      "ĠAikio": 7549,
      "Ġduodj": 7550,
      "ritt": 7551,
      "iehto": 7552,
      "Ġmeannudan": 7553,
      "ĠproÅ¡eavttaide": 7554,
      "diliid": 7555,
      "Ġdahjege": 7556,
      "ĠeaiggÃ¡t": 7557,
      "ĠÃ¡ÅĭgiruÅ¡Å¡ans": 7558,
      "ĠKarine": 7559,
      "jag": 7560,
      "ruhta": 7561,
      "mÃ¡nn": 7562,
      "Ġdiimmu": 7563,
      "ĠvuoÄĳÄĳoskuvllas": 7564,
      "GI": 7565,
      "com": 7566,
      "Ġdoallan": 7567,
      "doahp": 7568,
      "ĠÅ¡ib": 7569,
      "ĠdeaÅ§aleamos": 7570,
      "ĠruvdnosaÅ¡": 7571,
      "gÃ¡Å¡": 7572,
      "sÃ¡httÃ¡": 7573,
      "tehta": 7574,
      "ĠdÃ¡lkk": 7575,
      "laÄįÄįaide": 7576,
      "Ġmearkka": 7577,
      "geatnegas": 7578,
      "CO": 7579,
      "Geavah": 7580,
      "ĠhÃ¡mi": 7581,
      "ĠGr": 7582,
      "Ã¡llÃ¡s": 7583,
      "ĠFe": 7584,
      "Ã¡ddi": 7585,
      "Rabas": 7586,
      "urs": 7587,
      "Ġovddastit": 7588,
      "ĠKjel": 7589,
      "vaÄįÄįat": 7590,
      "buvtt": 7591,
      "ĠdÃ¡iddad": 7592,
      "lei": 7593,
      "ĠSiv": 7594,
      "Ġmij": 7595,
      "eli": 7596,
      "Ġlogah": 7597,
      "Ġorrun": 7598,
      "ĠArctic": 7599,
      "ĠbustÃ¡v": 7600,
      "LÃ¡vdegoddi": 7601,
      "ĠFil": 7602,
      "materiÃ¡la": 7603,
      "Ġstrategiijaid": 7604,
      "Äįielggad": 7605,
      "ĠaktiivvalaÅ¡": 7606,
      "tza": 7607,
      "tek": 7608,
      "ĠGiehtar": 7609,
      "ĠDattetge": 7610,
      "Ã¡jaid": 7611,
      "Trom": 7612,
      "eaÅĭ": 7613,
      "ĠHÃ¡lddahus": 7614,
      "Ġ1980": 7615,
      "Ġdeaivvadit": 7616,
      "ĠmandÃ¡hta": 7617,
      "VÃ¡nddar": 7618,
      "Ãĺ": 7619,
      "vvuid": 7620,
      "ehas": 7621,
      "Ġdutki": 7622,
      "ĠvÃ¡sÃ¡hus": 7623,
      "latii": 7624,
      "ĠsÃ¡medikkiid": 7625,
      "GO": 7626,
      "het": 7627,
      "Ġdes": 7628,
      "Ġfuol": 7629,
      "addi": 7630,
      "Ġmanai": 7631,
      "ĠSaamela": 7632,
      "ĠsÃ¡ddejuvvon": 7633,
      "ĠgeahÄįÄįala": 7634,
      "ĠformÃ¡la": 7635,
      "dearvvaÅ¡vuoÄĳa": 7636,
      "fon": 7637,
      "ielas": 7638,
      "opolitihka": 7639,
      "ĠdievasÄįoahkkimii": 7640,
      "ĠeksÃ¡me": 7641,
      "eandar": 7642,
      "geahÄįÄį": 7643,
      "vat": 7644,
      "vve": 7645,
      "Ġvugiid": 7646,
      "ĠgeaÄĳ": 7647,
      "Ġovddos": 7648,
      "annet": 7649,
      "ĠÂ§:": 7650,
      "Ġvuoruhuvvon": 7651,
      "boksa": 7652,
      "Ġkapihttala": 7653,
      "eaiggÃ¡t": 7654,
      "1000": 7655,
      "ĠdÃ¡ll": 7656,
      "aÅ¡it": 7657,
      "ĠÄįujuhan": 7658,
      "Ġjuolluda": 7659,
      "ĠmÃ¡Å¡": 7660,
      "ĠTV": 7661,
      "ĠealÃ¡hussan": 7662,
      "ĠÃ¡rvalusaid": 7663,
      "ĠjurddaÅ¡it": 7664,
      "iilla": 7665,
      "Ġfa": 7666,
      "ĠStiv": 7667,
      "jot": 7668,
      "bÃ¡ikkis": 7669,
      "iskkad": 7670,
      "Ġhei": 7671,
      "ĠHansen": 7672,
      "kuvllat": 7673,
      "ĠfÃ¡gain": 7674,
      "Ġoaivvilduvvon": 7675,
      "Ġorro": 7676,
      "ĠruÄĳa": 7677,
      "42": 7678,
      "amm": 7679,
      "allu": 7680,
      "ĠJen": 7681,
      "âĢĵâĢĵ": 7682,
      "ĠmearkkaÅ¡it": 7683,
      "ĠviidÃ¡sit": 7684,
      "ĠdÃ¡sseÃ¡rvu": 7685,
      "vuogÃ¡dagas": 7686,
      "ĠÃģlggahus": 7687,
      "hti": 7688,
      "Ġgovva": 7689,
      "Ã¡ikkÃ¡laÅ¡": 7690,
      "ĠÃ¡rvvu": 7691,
      "ĠrÃ¡ÄĳÄĳe": 7692,
      "Ġgild": 7693,
      "ĠgÃ¡vnnahit": 7694,
      "Ġahk": 7695,
      "Ãģig": 7696,
      "Ġohcci": 7697,
      "Ġ1991": 7698,
      "ĠÄįÃ¡lii": 7699,
      "birrasiid": 7700,
      "doaibmabijuid": 7701,
      "ojeaddji": 7702,
      "Ġkategor": 7703,
      "Ġfanas": 7704,
      "eneavv": 7705,
      "istis": 7706,
      "ĠÄįÃ¡lling": 7707,
      "ĠsoaitÃ¡": 7708,
      "earrÃ¡": 7709,
      "Ġluondduv": 7710,
      "457": 7711,
      ".âĢĵ": 7712,
      "Fo": 7713,
      "Ġneahtta": 7714,
      "Ġsuoma": 7715,
      "Ġdoaba": 7716,
      "haug": 7717,
      "Ġvisttiid": 7718,
      "uorgi": 7719,
      "ĠHÃ¸": 7720,
      "ĠvÃ¡lgal": 7721,
      "ĠmÃ¡nÃ¡idgÃ¡rdi": 7722,
      "olaÂª": 7723,
      "Joh": 7724,
      "nit": 7725,
      "essii": 7726,
      "ĠÄĮoahkkingirji": 7727,
      "Ġosiin": 7728,
      "umiin": 7729,
      "dedje": 7730,
      "ĠJÃ¥": 7731,
      "miske": 7732,
      "ĠHÃ¡stalus": 7733,
      "uÄĳa": 7734,
      "ĠoassÃ¡i": 7735,
      "ĠGovva": 7736,
      "ĠRÃ¡vvagat": 7737,
      "vis": 7738,
      "aleapmi": 7739,
      "Ġeinnost": 7740,
      "ÄĮÃ¡ll": 7741,
      "----------------": 7742,
      "fol": 7743,
      "Ġrastt": 7744,
      "ingu": 7745,
      "Ġjuoig": 7746,
      "ÄįuoggÃ¡": 7747,
      "ĠSy": 7748,
      "jÃ¡rgga": 7749,
      "strup": 7750,
      "ĠrÃ¡ddj": 7751,
      "Ã¤kk": 7752,
      "ĠdiehtÃ¡": 7753,
      "ruktuvrra": 7754,
      "ÂŀÂŀ": 7755,
      "Ã¤tt": 7756,
      "Ġreaiddut": 7757,
      "ĠdÃ¡lkkÃ¡datrievd": 7758,
      "ĠTroms": 7759,
      "ĠGÃ¡ivuona": 7760,
      "Ġsearva": 7761,
      "pen": 7762,
      "ske": 7763,
      "Ġvuogas": 7764,
      "ĠdaÄĳi": 7765,
      "Ġbuvttadan": 7766,
      "ĠdutkamuÅ¡a": 7767,
      "Ġjotk": 7768,
      "vÃ¡ttis": 7769,
      "Ġjoavkkus": 7770,
      "Ã¡vval": 7771,
      "Ġdovdet": 7772,
      "Ġgoapp": 7773,
      "ĠbearrÃ¡igeahÄįÄįat": 7774,
      "ĠgulaskuddancealkÃ¡muÅ¡": 7775,
      "lagaid": 7776,
      "ĠgalggaÅ¡edje": 7777,
      "Ġattii": 7778,
      "ĠBerit": 7779,
      "ĠMÃ¡nÃ¡t": 7780,
      "Kultuvra": 7781,
      "ĠSve": 7782,
      "ĠrÃ¡jis": 7783,
      "lahallan": 7784,
      "ĠealÃ¡husas": 7785,
      "ĠÃ¡irasat": 7786,
      "joÄĳihangotti": 7787,
      "ĠvuoigatvuoÄĳalÃ¡vdegotti": 7788,
      "Doai": 7789,
      "olan": 7790,
      "ĠSilje": 7791,
      "jovkui": 7792,
      "GalgÃ¡": 7793,
      "Ġoinn": 7794,
      "Ġkv": 7795,
      "Ġ1987": 7796,
      "eanan": 7797,
      "Ġgeig": 7798,
      "Ġdeattuhan": 7799,
      "ĠstÃ¡htas": 7800,
      "Ġadno": 7801,
      "Ġcelkkii": 7802,
      "mmaide": 7803,
      "ĠÂ©": 7804,
      "abeth": 7805,
      "venska": 7806,
      "bÃ¡lvalusas": 7807,
      "ĠÃģrktalaÅ¡": 7808,
      "ĠviÄĳa": 7809,
      "Åĭgelas": 7810,
      "jÃ¸": 7811,
      "anti": 7812,
      "ĠNew": 7813,
      "wa": 7814,
      "ĠealÃ¡husain": 7815,
      "ĠLeammi": 7816,
      "vrraid": 7817,
      "ĠdÃ¡hpÃ¡huvvat": 7818,
      "Ġenergiija": 7819,
      "ĠgeavatlaÅ¡": 7820,
      "Lapp": 7821,
      "VV": 7822,
      "festivÃ¡la": 7823,
      "guh": 7824,
      "kad": 7825,
      "ĠOskal": 7826,
      "ĠÃ¡rvala": 7827,
      "Arbeids": 7828,
      "Ġadnojuvvo": 7829,
      "Ġgeasuh": 7830,
      "ĠdearvvaÅ¡vuoÄĳad": 7831,
      "doaibmabijut": 7832,
      "ĠEa": 7833,
      "Ġbeasa": 7834,
      "ĠimaÅ¡": 7835,
      "ĠUN": 7836,
      "Ġdutkamis": 7837,
      "Ã¡vvir": 7838,
      "Ġduopmostuol": 7839,
      "ĠÄįoahkis": 7840,
      "Ġluohk": 7841,
      "Ġdann": 7842,
      "Ġovttasbargui": 7843,
      "Ġmuseaid": 7844,
      "ĠnÃ¡vccaid": 7845,
      "Ġgilis": 7846,
      "uto": 7847,
      "Ġguldal": 7848,
      "ĠkÃ¡rten": 7849,
      "Ġrehketdoall": 7850,
      "Ġgirjeb": 7851,
      "Ġriddodepartemeanta": 7852,
      "Ġlahkon": 7853,
      "ohÃ¡lddaÅ¡": 7854,
      "Ġjuolludit": 7855,
      "ĠluohttÃ¡muÅ¡": 7856,
      "ĠgohÄįodit": 7857,
      "ĠVÃ¡ikkuhit": 7858,
      "ĠPlÃ¡n": 7859,
      "rift": 7860,
      "insihppa": 7861,
      "Ġgeahped": 7862,
      "hel": 7863,
      "agen": 7864,
      "ĠEli": 7865,
      "Ġstuoris": 7866,
      "ugerud": 7867,
      "Ġvirgg": 7868,
      "ĠsadjÃ¡saÅ¡": 7869,
      "Ġnanus": 7870,
      "ĠpositiivvalaÅ¡": 7871,
      "ĠDavvisÃ¡megiella": 7872,
      "oltenberg": 7873,
      "Ġnubbingiellan": 7874,
      "ĠFuo": 7875,
      "opiija": 7876,
      "Ġmeahcceguovllut": 7877,
      "Ġbirrasii": 7878,
      "hÃ¡lddaÅ¡an": 7879,
      "kiin": 7880,
      "mon": 7881,
      "Ġeara": 7882,
      "Ġmuttus": 7883,
      "essor": 7884,
      "Ġpostboks": 7885,
      "ĠÃ¡hÄįÄįi": 7886,
      "Ġaiddo": 7887,
      "aidgaskasaÄįÄįat": 7888,
      "77": 7889,
      "Ġhedjon": 7890,
      "ĠbiologalaÅ¡": 7891,
      "ahusat": 7892,
      "ĠÃ¡igeguovdil": 7893,
      "ĠÄįujuhus": 7894,
      "Departemeanta": 7895,
      "TTA": 7896,
      "huks": 7897,
      "koh": 7898,
      "Ġoarjel": 7899,
      "Ã¡hne": 7900,
      "vddiid": 7901,
      "Ã¡laga": 7902,
      "Ġmaster": 7903,
      "ĠvÃ¡hnemiid": 7904,
      "Ġelliid": 7905,
      "Ġspesialis": 7906,
      "Tor": 7907,
      "ĠGunn": 7908,
      "ovdan": 7909,
      "ĠsÃ¡gastallat": 7910,
      "Ã¡rvvoÅ¡t": 7911,
      "anlÃ¡vdegoddi": 7912,
      "Ġstatistihkka": 7913,
      "Ġdannego": 7914,
      "Ġsym": 7915,
      "orÃ¡hkad": 7916,
      "Ġjienastan": 7917,
      "\")": 7918,
      "searvi": 7919,
      "enr": 7920,
      "Åĭa": 7921,
      "ĠTabealla": 7922,
      "oahkkÃ¡igeassu": 7923,
      "Ġnammadit": 7924,
      "Ġansvarlig": 7925,
      "ĠrelevÃ¡nta": 7926,
      "ĠKjelstrup": 7927,
      "MÃ¡n": 7928,
      "rraid": 7929,
      "Å¾aldat": 7930,
      "Ġjurdagiid": 7931,
      "Men": 7932,
      "Ġliv": 7933,
      "eale": 7934,
      "ĠÃ¡Å¡Å¡in": 7935,
      "Ġrievdaduvvo": 7936,
      "Ġdulko": 7937,
      "ĠvÃ¡nddard": 7938,
      "ĠkulturÃ¡rbbi": 7939,
      "tipeanda": 7940,
      "ĠjohtinoktavuoÄĳat": 7941,
      "ĠEnglish": 7942,
      "Jo": 7943,
      "ĠÃ¡ssi": 7944,
      "ĠgÃ¡ibÃ¡dusa": 7945,
      "Ġjuolluduvvo": 7946,
      "ĠErtza": 7947,
      "Ġhupmat": 7948,
      "ĠKraugerud": 7949,
      "ĠErtzaas": 7950,
      "ler": 7951,
      "ĠÄĮoahkkin": 7952,
      "Ġsohkabea": 7953,
      "fÃ¡mu": 7954,
      "alÃ¡ga": 7955,
      "arÃ¡ÄĳÄĳi": 7956,
      "ehÃ¡laÅ¡": 7957,
      "Ġbohc": 7958,
      "eahttun": 7959,
      "vasÄįoahkkin": 7960,
      "Ġearet": 7961,
      "ĠhÃ¡lddaÅ¡anguvlui": 7962,
      "3887": 7963,
      "Ġ983887": 7964,
      "Ġsosialdepartementet": 7965,
      "Ġ983887457": 7966,
      "alÃ¡n": 7967,
      "ÄįÄįas": 7968,
      "ĠBu": 7969,
      "Ġinte": 7970,
      "ĠÄįaÄĳaheami": 7971,
      "Ġdiibm": 7972,
      "span": 7973,
      "ĠlÃ¡mis": 7974,
      "oger": 7975,
      "ĠHy": 7976,
      "Ã¡but": 7977,
      "ĠWeb": 7978,
      "Ġidenti": 7979,
      "ĠdivÅ¡Å¡ohas": 7980,
      "56": 7981,
      "ĠAlit": 7982,
      "ĠErenoamÃ¡Å¾it": 7983,
      "fe": 7984,
      "mmii": 7985,
      "olÃ¡gas": 7986,
      "ĠÃ¡rjjalaÄįÄįat": 7987,
      "ĠlÃ¦": 7988,
      "ĠPÃ¥": 7989,
      "ĠdieÄĳÃ¡husas": 7990,
      "ĠvuoÄĳust": 7991,
      "Ġnamuhit": 7992,
      "Ġsuokkar": 7993,
      "esursa": 7994,
      "Ġ013": 7995,
      "lisabeth": 7996,
      "oaÅ¾Å¾ut": 7997,
      "Org": 7998,
      "Ġsystem": 7999,
      "EurohpÃ¡": 8000,
      "gielat": 8001,
      "ty": 8002,
      "aÅ¡uvnnat": 8003,
      "ĠSolbakk": 8004,
      "Ġtabealla": 8005,
      "ppÃ¡st": 8006,
      "isti": 8007,
      "ĠvÃ¡ldojuvvon": 8008,
      "Ġsaemien": 8009,
      "Ġduddjo": 8010,
      "ovttasbargu": 8011,
      "Govus": 8012,
      "Oass": 8013,
      "PMI": 8014,
      "ĠsÃ¡i": 8015,
      "Ã¡hkku": 8016,
      "Ġnammad": 8017,
      "ĠlassÃ¡neapmi": 8018,
      "agotti": 8019,
      "ING": 8020,
      "ĠdÃ¡rkileappot": 8021,
      "ĠearÃ¡lÃ¡gan": 8022,
      "Ġdel": 8023,
      "ahka": 8024,
      "tema": 8025,
      "ĠMaid": 8026,
      "ĠRuvdnapr": 8027,
      "Ġovdam": 8028,
      "Ġalbma": 8029,
      "ph": 8030,
      "ski": 8031,
      "idedje": 8032,
      "ĠrÃ¡ji": 8033,
      "ĠÄįuovvul": 8034,
      "OÄĳasmahttin": 8035,
      "SÃ¡": 8036,
      "asteami": 8037,
      "ovat": 8038,
      "Ġbargoa": 8039,
      "mearrÃ¡dusaid": 8040,
      "OAHKK": 8041,
      "ĠmiellagiddevaÅ¡": 8042,
      "BN": 8043,
      "Mo": 8044,
      "gra": 8045,
      "Ġvigg": 8046,
      "argga": 8047,
      "Ã¡dusas": 8048,
      "Ġdeavdit": 8049,
      "bargi": 8050,
      "pmu": 8051,
      "Ġsuodjaleami": 8052,
      "Ġkulturmuittut": 8053,
      "bok": 8054,
      "Ġsuopman": 8055,
      "jagis": 8056,
      "ĠVars": 8057,
      "ĠmearkkaÅ¡umit": 8058,
      "stivrra": 8059,
      "johtolat": 8060,
      "julggaÅ¡tus": 8061,
      "EL": 8062,
      "FÃ¡ttÃ¡t": 8063,
      "Os": 8064,
      "ĠduÅ¡Å¡": 8065,
      "anu": 8066,
      "ddu": 8067,
      "uohkanassii": 8068,
      "Ġcealkaga": 8069,
      "Son": 8070,
      "Ġluonddub": 8071,
      "Ã¡ÅĭgiruÅ¡Å¡": 8072,
      "Äįie": 8073,
      "Ġpostii": 8074,
      "Ġovddasta": 8075,
      "ĠsÃ¡dden": 8076,
      "ĠsoaÄĳi": 8077,
      "ĠjurddaÅ¡an": 8078,
      "ase": 8079,
      "ĠolÃ¡mu": 8080,
      "oahppa": 8081,
      "imusat": 8082,
      "Ġdoalai": 8083,
      "adoalli": 8084,
      "Ġpolitihkka": 8085,
      "Davvis": 8086,
      "ĠDut": 8087,
      "uvll": 8088,
      "sulta": 8089,
      "ĠÄįohkket": 8090,
      "Ġlin": 8091,
      "ĠÃ¡irasiid": 8092,
      "53": 8093,
      "ĠPL": 8094,
      "Ġdohkkeha": 8095,
      "ĠgaÅ¾aldaga": 8096,
      "ĠfuomÃ¡Å¡umi": 8097,
      "iidna": 8098,
      "ĠRiikka": 8099,
      "Ġseail": 8100,
      "ĠlÃ¡giduvvo": 8101,
      "Ġovttasbargat": 8102,
      "Ġovdanbuktit": 8103,
      "80": 8104,
      "ĠNisson": 8105,
      "Ġmieldd": 8106,
      "Ġdajai": 8107,
      "Ġdeaivvad": 8108,
      "Ġvuolggasa": 8109,
      "Ġjuksat": 8110,
      "eng": 8111,
      "Ġoahpaheaddje": 8112,
      "Ġmeannuduvvo": 8113,
      "ĠsajÃ¡dat": 8114,
      "ĠbÃ¡kte": 8115,
      "ĠKirsti": 8116,
      "alÃ¡hkai": 8117,
      "ĠPor": 8118,
      "ĠolmmoÅ¡vuoigatvuoÄĳaid": 8119,
      "ĠgieÄĳahallat": 8120,
      "eatnu": 8121,
      "ĠovttadÃ¡ssÃ¡saÅ¡": 8122,
      "ĠvieÅ¾Å¾at": 8123,
      "fal": 8124,
      "skap": 8125,
      "ihtu": 8126,
      "ĠdÃ¡ssi": 8127,
      "oplÃ¡na": 8128,
      "istorjjÃ¡": 8129,
      "Ġjietna": 8130,
      "ĠgokÄįat": 8131,
      "proseassas": 8132,
      "islaÅ¡": 8133,
      "ĠDeaÅ§alaÅ¡": 8134,
      "ĠvÃ¡stÃ¡dusa": 8135,
      "ĠÃ¡ddejupmi": 8136,
      "ĠOktavuohtadieÄĳut": 8137,
      "joavkkus": 8138,
      "ĠbÃ¡hp": 8139,
      "ĠÄĮÃ¡l": 8140,
      "Ã¤jÃ¤rvi": 8141,
      "Ġfertii": 8142,
      "astet": 8143,
      "omd": 8144,
      "earkkaÅ¡upmi": 8145,
      "ĠruoÅ¡Å¡": 8146,
      "Ġruvnnuin": 8147,
      "ĠguovddÃ¡Å¾a": 8148,
      "tekn": 8149,
      "Ã¡igg": 8150,
      "Ã¡lat": 8151,
      "ĠKn": 8152,
      "itehtii": 8153,
      "okÃ¡rta": 8154,
      "adjÃ¡i": 8155,
      "Ġviiddidit": 8156,
      "ĠGeir": 8157,
      "Di": 8158,
      "Fyl": 8159,
      "ĠgÃ¡htt": 8160,
      "osm": 8161,
      "ĠStoltenberg": 8162,
      "ĠbÃ¡hcÃ¡n": 8163,
      "ĠgirjÃ¡i": 8164,
      "vowlat": 8165,
      "SK": 8166,
      "Ã¡dahkii": 8167,
      "ĠmÃ¡nÃ¡idsuodjalus": 8168,
      "ĠnÃ¡k": 8169,
      "ĠIsaksen": 8170,
      "Ġmihkkege": 8171,
      "assan": 8172,
      "Ġgiellanjuolggadusaid": 8173,
      "ĠstrategalaÅ¡": 8174,
      "Ġsierranas": 8175,
      "DieÄĳ": 8176,
      "Jon": 8177,
      "MÃ¡ilmmi": 8178,
      "sten": 8179,
      "Ġsubmi": 8180,
      "ĠvuollÃ¡saÅ¡": 8181,
      "cealk": 8182,
      "Ġobb": 8183,
      "kkaid": 8184,
      "ĠÄįilgehusa": 8185,
      "ĠOlgor": 8186,
      "ila": 8187,
      "usain": 8188,
      "iivva": 8189,
      "erejuvvot": 8190,
      "ĠrÃ¡Åĭgg": 8191,
      "Ġdiet": 8192,
      "oamÃ¡Å¡": 8193,
      "ĠoassÃ¡lastin": 8194,
      "now": 8195,
      "ĠmÃ¡Åĭgii": 8196,
      "ĠovdÃ¡na": 8197,
      "ĠSÃ¡megielat": 8198,
      "Ġsivas": 8199,
      "ietn": 8200,
      "Ġsuopme": 8201,
      "ĠÅ¡adde": 8202,
      "doaimmaheaddji": 8203,
      "ĠgustovaÅ¡": 8204,
      "suorggi": 8205,
      "inseassa": 8206,
      "ĠTore": 8207,
      "adas": 8208,
      "Ġfys": 8209,
      "Ġnamaid": 8210,
      "Ġloguid": 8211,
      "Ġdattege": 8212,
      "imin": 8213,
      "nor": 8214,
      "Ġlinn": 8215,
      "ihuvvon": 8216,
      "omat": 8217,
      "Ġlu": 8218,
      "ĠhÃ¡ld": 8219,
      "Ġ71": 8220,
      "ĠÂŃ": 8221,
      "Ã¡hpÃ¡hus": 8222,
      "Ã¯j": 8223,
      "Ġinvesteren": 8224,
      "52": 8225,
      "pdf": 8226,
      "eahki": 8227,
      "oaitt": 8228,
      "Ġalbm": 8229,
      "laÄįÄįain": 8230,
      "ĠÄįilgejuvvon": 8231,
      "ĠWil": 8232,
      "gelbbolaÅ¡vuohta": 8233,
      "ĠPoastaboksa": 8234,
      "ĠOÄĳÄĳ": 8235,
      "Ġ1800": 8236,
      "amÃ¡nni": 8237,
      "UH": 8238,
      "sc": 8239,
      "Ġ×": 8240,
      "ĠvÃ¡dd": 8241,
      "kain": 8242,
      "Ġbivdd": 8243,
      "ĠÄįoahkkimiid": 8244,
      "ĠvuosttaÅ¡giellan": 8245,
      "ĠHeaika": 8246,
      "Riikk": 8247,
      "ĠDu": 8248,
      "ĠGeavah": 8249,
      "ĠRan": 8250,
      "innuid": 8251,
      "Ġ61": 8252,
      "ĠIsak": 8253,
      "odoaimmaheaddji": 8254,
      "inde": 8255,
      "iseren": 8256,
      "ĠrÃ¡hkaduvvot": 8257,
      "Ġ_": 8258,
      "iina": 8259,
      "ĠFÃ¡g": 8260,
      "ÄĮoahkkin": 8261,
      "Ġ62": 8262,
      "ĠruoÅ§": 8263,
      "Ġvuoste": 8264,
      "Ġnavd": 8265,
      "ĠbÃ¡ikenamat": 8266,
      "ĠvuhtiivÃ¡ldit": 8267,
      "Ã¤kkÃ¤l": 8268,
      "immi": 8269,
      "Ġrihkku": 8270,
      "Ġsuohkaniidda": 8271,
      "jjas": 8272,
      "ĠÅ¡iehtadallan": 8273,
      "41": 8274,
      "viessu": 8275,
      "ĠMor": 8276,
      "Ġjuos": 8277,
      "ĠvuoÄĳÄĳoskuvla": 8278,
      "ĠEalÃ¡husat": 8279,
      "badje": 8280,
      "alv": 8281,
      "ĠâĢĶ": 8282,
      "Ġterminologiija": 8283,
      "ĠSkum": 8284,
      "mÃ¡hc": 8285,
      "ĠdÃ¡htu": 8286,
      "aÅ¡uvvÃ¡": 8287,
      "Ġvuoh": 8288,
      "udan": 8289,
      "konferÃ¡nssa": 8290,
      "ĠlaÄĳas": 8291,
      "orgiel": 8292,
      "ĠoasÃ¡la": 8293,
      "Ġ1978": 8294,
      "ĠÄįieÅ¾a": 8295,
      "ĠVÃ¡ikkuhangaskaoamit": 8296,
      "ronnet": 8297,
      "osiidda": 8298,
      "ele": 8299,
      "Ã¡za": 8300,
      "ĠOhcejogas": 8301,
      "kod": 8302,
      "odahkan": 8303,
      "Ġboazolohku": 8304,
      "ĠbÃ¡ikkÃ¡laÄįÄįat": 8305,
      "ĠcealkÃ¡muÅ¡aid": 8306,
      "bÃ¡ikkiid": 8307,
      "ĠÄįuoggÃ¡s": 8308,
      "Ġgarv": 8309,
      "ĠfÃ¡pmu": 8310,
      "ĠBoah": 8311,
      "uduvvon": 8312,
      "Ġdohkkeheapmi": 8313,
      "ĠstÃ¡htus": 8314,
      "veig": 8315,
      "Ġfylkkagieldda": 8316,
      "Ġdoahpagiid": 8317,
      "Ġdoaibmagolut": 8318,
      "ĠmÃ¡htolaÅ¡vuoÄĳa": 8319,
      "Ĥ¬": 8320,
      "ĠSuopma": 8321,
      "esurs": 8322,
      "ĠvÃ¡nddardeapmi": 8323,
      "ĠmÃ¡ttasÃ¡mi": 8324,
      "stÃ¡ivÃ¡ldi": 8325,
      "OH": 8326,
      "Â©": 8327,
      "ÃģN": 8328,
      "stin": 8329,
      "Ġvaikke": 8330,
      "partementii": 8331,
      "ĠÄįadnojuvvon": 8332,
      "ĠsÃ¡mÃ¡stit": 8333,
      "departemeanttain": 8334,
      "ĠGal": 8335,
      "uni": 8336,
      "Ġdahkko": 8337,
      "Ã¥r": 8338,
      "ations": 8339,
      "instohpu": 8340,
      "ĠmÃ¡ll": 8341,
      "âĢĲ": 8342,
      "aimet": 8343,
      "Ġnuortas": 8344,
      "Ġevttohusat": 8345,
      "Ġjienastit": 8346,
      "ĠjoÄĳus": 8347,
      "ĠFinnmark": 8348,
      "Re": 8349,
      "pl": 8350,
      "Ã¡riid": 8351,
      "ppagirjj": 8352,
      "urggiide": 8353,
      "ional": 8354,
      "skning": 8355,
      "MÃ¡nÃ¡idgÃ¡r": 8356,
      "ĠZ": 8357,
      "uorat": 8358,
      "ĠsÃ¡megielain": 8359,
      "Ġguhtta": 8360,
      "ohkii": 8361,
      "Ġmannet": 8362,
      "Ġloktet": 8363,
      "ĠMuit": 8364,
      "PL": 8365,
      "eamet": 8366,
      "iijain": 8367,
      "Ã¡ssit": 8368,
      "Ġnubbin": 8369,
      "ĠgirjerÃ¡dj": 8370,
      "boht": 8371,
      "Ġeadni": 8372,
      "uht": 8373,
      "ĠÄįuvv": 8374,
      "ĠGeass": 8375,
      "ugat": 8376,
      "ĠjÃ¡p": 8377,
      "ddui": 8378,
      "chel": 8379,
      "anlÃ¡vdegotti": 8380,
      "Ġnieidd": 8381,
      "astivrra": 8382,
      "PO": 8383,
      "Ã¡Äĳis": 8384,
      "Ġnai": 8385,
      "ĠGi": 8386,
      "Ã¢s": 8387,
      "Ġdokumeantta": 8388,
      "BirasgÃ¡httendepartemeanta": 8389,
      "uhis": 8390,
      "kamii": 8391,
      "Ġ72": 8392,
      "idnui": 8393,
      "ĠorganisaÅ¡uvnnaid": 8394,
      "ĠgÃ¡vnnat": 8395,
      "dr": 8396,
      "Ã¾": 8397,
      "Ġsearvego": 8398,
      "ĠgeahÄįÄįÃ¡": 8399,
      "ĠÄįuovvoleami": 8400,
      "ĠhÃ¡rjehallan": 8401,
      "Ġboastut": 8402,
      "kus": 8403,
      "astaga": 8404,
      "lÃ¡nda": 8405,
      "prp": 8406,
      "oamÃ¡Å¾it": 8407,
      "ĠovttamielalaÅ¡": 8408,
      "ĠdovdÃ¡": 8409,
      "beaivve": 8410,
      "jahkÃ¡saÅ¡": 8411,
      "gelbbolaÅ¡vuoÄĳa": 8412,
      "ĠskuvlahistorjÃ¡": 8413,
      "ĠSoa": 8414,
      "dima": 8415,
      "ĠVar": 8416,
      "Ġulbmiliin": 8417,
      "Ġekonoma": 8418,
      "ĠÅ¡lÃ¡dd": 8419,
      "Ġradi": 8420,
      "ssen": 8421,
      "ĠvuolgÃ¡": 8422,
      "Ġdiimm": 8423,
      "Ġsyn": 8424,
      "Ġgoall": 8425,
      "ÄįÄįaide": 8426,
      "Ġeuro": 8427,
      "ĠJar": 8428,
      "doll": 8429,
      "ĠHaug": 8430,
      "Ġboasttu": 8431,
      "ĠGuovllu": 8432,
      "ĠAlimus": 8433,
      "Ã¡igodaga": 8434,
      "idemiin": 8435,
      "ĠKÃ¡rttat": 8436,
      "oÄĳÄĳa": 8437,
      "nne": 8438,
      "Ġbibliotehka": 8439,
      "Ġperspektiivvas": 8440,
      "ĠIpmila": 8441,
      "Ġcelk": 8442,
      "Ġliig": 8443,
      "arjagat": 8444,
      "ĠRiikkas": 8445,
      "co": 8446,
      "ĠStud": 8447,
      "eanttain": 8448,
      "ĠovdalaÅ¡": 8449,
      "anner": 8450,
      "Ġvirggi": 8451,
      "Ġgeardd": 8452,
      "bearr": 8453,
      "baj": 8454,
      "Ġmuorra": 8455,
      "Ã¡les": 8456,
      "Ġ(\"": 8457,
      "aila": 8458,
      "Ġriev": 8459,
      "Ġdienas": 8460,
      "pmaha": 8461,
      "ĠriikkarÃ¡j": 8462,
      "ĠsÃ¡htÃ¡Å¡": 8463,
      "ministar": 8464,
      "66": 8465,
      "SÃ¡megiel": 8466,
      "ures": 8467,
      "ĠÄįÃ¡llon": 8468,
      "ĠmaÅĭit": 8469,
      "Ġluoss": 8470,
      "ÄįÃ¡llit": 8471,
      "Ġjoavkkut": 8472,
      "IH": 8473,
      "idda": 8474,
      "ĠRes": 8475,
      "Ġ79": 8476,
      "sihkkar": 8477,
      "Ġjoatkkaskuvla": 8478,
      "Ġsiviila": 8479,
      "soahpamuÅ¡": 8480,
      "Ã¡ri": 8481,
      "oahtt": 8482,
      "Ġservodagain": 8483,
      "2018": 8484,
      "ostiv": 8485,
      "ĠfÃ¡gaid": 8486,
      "Ġmeahcit": 8487,
      "BearaÅ¡": 8488,
      "iipp": 8489,
      "err": 8490,
      "Ġruoktot": 8491,
      "ĠieÅ¡guÄĳege": 8492,
      "ĠTrine": 8493,
      "dÃ¡rog": 8494,
      "ĠgieÄĳahallÃ¡": 8495,
      "Ġbuhtadusa": 8496,
      "AH": 8497,
      "Ġoarje": 8498,
      "ĠnÃ¡Å¡": 8499,
      "ehpet": 8500,
      "ĠLuondu": 8501,
      "Ġfuola": 8502,
      "ĠmearrÃ¡dusain": 8503,
      "ĠvahÃ¡giid": 8504,
      "Ġmuhtumin": 8505,
      "Ġdagai": 8506,
      "57": 8507,
      "Ã¡ha": 8508,
      "ĠLo": 8509,
      "saemien": 8510,
      "eavtta": 8511,
      "ĠÃ¡lbmotmeahcc": 8512,
      "Ã¢st": 8513,
      "ĠboazodoallolÃ¡ga": 8514,
      "progrÃ¡mmaid": 8515,
      "ĠJensen": 8516,
      "boazodoall": 8517,
      "bbaid": 8518,
      "Ġprior": 8519,
      "ĠÃ¡m": 8520,
      "Ġ1984": 8521,
      "ĠÃ¡lk": 8522,
      "ĠfÃ¡ttÃ¡": 8523,
      "Ġoamastan": 8524,
      "her": 8525,
      "hÃ¡lddahus": 8526,
      "Ġasto": 8527,
      "Ġsivvan": 8528,
      "Ã¡lg": 8529,
      "lleg": 8530,
      "else": 8531,
      "ĠÄįilgen": 8532,
      "ĠÃ¡vkkÃ¡stallan": 8533,
      "TU": 8534,
      "idar": 8535,
      "uheamit": 8536,
      "eanttat": 8537,
      "Ġsuodjalus": 8538,
      "ĠfÃ¡laldagaid": 8539,
      "Ġfriija": 8540,
      "Ġbirgen": 8541,
      "Ġstudeanttat": 8542,
      "IL": 8543,
      "ĠlÃ¡htt": 8544,
      "Ġposi": 8545,
      "ĠIss": 8546,
      "Ã¡rve": 8547,
      "Ġbiddjot": 8548,
      "ibeke": 8549,
      "Ã¡ma": 8550,
      "vvan": 8551,
      "Ġgeasi": 8552,
      "ĠdÃ¡rbbuide": 8553,
      "Ġnjuolggadusain": 8554,
      "pmin": 8555,
      "Ġvii": 8556,
      "ĠLuo": 8557,
      "idemiid": 8558,
      "skog": 8559,
      "ĠboaÄĳe": 8560,
      "atta": 8561,
      "Ã¡lbmoga": 8562,
      "Ã¡saÅ¾Å¾an": 8563,
      "Ġidentifis": 8564,
      "nisson": 8565,
      "Ã¡irras": 8566,
      "Ã¡llje": 8567,
      "ĠDavviriikkaid": 8568,
      "Ġnammada": 8569,
      "Ġrektor": 8570,
      "ĠÃ¡ÅĭgiruÅ¡Å¡an": 8571,
      "DÃ¡sseÃ¡rvu": 8572,
      "Ġruovttuguovllu": 8573,
      "Ġjohtilit": 8574,
      "VL": 8575,
      "ĠSuol": 8576,
      "ĠproÅ¡eaktar": 8577,
      "ĠHor": 8578,
      "ĠSÃ¡mepolitihka": 8579,
      "Ġrohk": 8580,
      "ĠRii": 8581,
      "eapmin": 8582,
      "ojuvvojedje": 8583,
      "ĠmÃ¡htto": 8584,
      "ÅłÅł": 8585,
      "VuollÃ¡i": 8586,
      "Oahppu": 8587,
      "Ġstipeanda": 8588,
      "Ã¡vjÃ¡": 8589,
      "ĠÃ¡vkki": 8590,
      "ĠvÃ¡sÃ¡husat": 8591,
      "Ġbiddjojuvvojit": 8592,
      "Ġeanandoall": 8593,
      "Ġmuseat": 8594,
      "Ġjeavdd": 8595,
      "fuolahus": 8596,
      "USAT": 8597,
      "88": 8598,
      "ealth": 8599,
      "Ġollugat": 8600,
      "ĠovttaÃ¡rvosaÅ¡": 8601,
      "Oll": 8602,
      "ee": 8603,
      "laÂª": 8604,
      "alÃ¡dje": 8605,
      "eanu": 8606,
      "ĠearÃ¡iguin": 8607,
      "eaiggÃ¡dat": 8608,
      "lahtut": 8609,
      "ĠNilsen": 8610,
      "Ġboazoguohtun": 8611,
      "Ġgudnej": 8612,
      "mmalla": 8613,
      "oaimmaid": 8614,
      "uva": 8615,
      "obarg": 8616,
      "Ġsudd": 8617,
      "Ġruhtadeapmi": 8618,
      "ĠFinnmÃ¡rkkul": 8619,
      "ĠfÃ¡tmm": 8620,
      "ussii": 8621,
      "elv": 8622,
      "ĠLiv": 8623,
      "lÃ¡hkai": 8624,
      "muÅ¡aid": 8625,
      "ĠÄĮeavet": 8626,
      "ĠProgrÃ¡mma": 8627,
      "anvugiid": 8628,
      "Â²": 8629,
      "Ã¡rvalusa": 8630,
      "Ã¡jit": 8631,
      "ĠmÃ¡nnÃ¡i": 8632,
      "birrasis": 8633,
      "ĠsmÃ¡vv": 8634,
      "RSS": 8635,
      "jea": 8636,
      "Ġbadj": 8637,
      "ĠEinar": 8638,
      "tnega": 8639,
      "ĠriikkaidgaskasaÄįÄįat": 8640,
      "Ġnannejit": 8641,
      "ĠDuodji": 8642,
      "ovddasvÃ¡stÃ¡dusa": 8643,
      "ĠfÃ¡llÃ¡": 8644,
      "ĠieÅ¡alddis": 8645,
      "kÃ¡r": 8646,
      "pon": 8647,
      "Ġolahus": 8648,
      "agiella": 8649,
      "Ġ1000": 8650,
      "Ġvuotna": 8651,
      "lahusa": 8652,
      "Ġnjuo": 8653,
      "iehtta": 8654,
      "ĠberreÅ¡ii": 8655,
      "Ġluondduriggodagaid": 8656,
      "Bo": 8657,
      "ĠraÅ¡": 8658,
      "Ġovddiduvvot": 8659,
      "Ġsubstantii": 8660,
      "Anders": 8661,
      "Ġodda": 8662,
      "Ġmuos": 8663,
      "ĠvokÃ¡la": 8664,
      "ĠRÃ¡ÄĳÄĳ": 8665,
      "ump": 8666,
      "ĠbÃ¡lvalan": 8667,
      "Ġiskat": 8668,
      "Ġeanadoalus": 8669,
      "yh": 8670,
      "ĠNÃ¤kkÃ¤l": 8671,
      "Ã¡dusain": 8672,
      "ÄĮÃ¡j": 8673,
      "Ġbisuh": 8674,
      "angu": 8675,
      "ĠhistorjjÃ¡s": 8676,
      "ĠsÃ¡rdn": 8677,
      "eatnamat": 8678,
      "ĠRuoÅ¡Å¡as": 8679,
      "Ulbmil": 8680,
      "ĠhÃ¡pmi": 8681,
      "Ġkal": 8682,
      "ĠKultu": 8683,
      "ĠdÃ¡rk": 8684,
      "ĠHans": 8685,
      "ĠÃ¡dde": 8686,
      "Ġlokte": 8687,
      "Ġjuohkin": 8688,
      "ĠpÃ¥": 8689,
      "âĪĴ": 8690,
      "ÄĮÃ¡lit": 8691,
      "ĠohcÃ¡": 8692,
      "Ġmuitalan": 8693,
      "Ġproseassas": 8694,
      "ktivitehtat": 8695,
      "mÃ¡ilmmi": 8696,
      "MÃ¡r": 8697,
      "}Â": 8698,
      "Ġmor": 8699,
      "vttast": 8700,
      "ĠrÃ¡hkaduvvo": 8701,
      "ealÃ¡husas": 8702,
      "aliseren": 8703,
      "Ġuniversitehtas": 8704,
      "Ġvuoruhemiid": 8705,
      "jur": 8706,
      "mmet": 8707,
      "Ġjovkui": 8708,
      "ĠfÃ¶r": 8709,
      "ĠMihtt": 8710,
      "Ġgeavaheddjiid": 8711,
      "ĠkonsultaÅ¡uvdn": 8712,
      "Ġbirrasiid": 8713,
      "ĠÃ¡igeÄįÃ¡la": 8714,
      "Poasta": 8715,
      "Ġco": 8716,
      "Ġ750": 8717,
      "sens": 8718,
      "ĠfuoÄĳÄĳ": 8719,
      "Ġjuhkkojuvvon": 8720,
      "ĠÄįuohcÃ¡": 8721,
      "ĠSusanne": 8722,
      "Ġfokus": 8723,
      "iduvvui": 8724,
      "ÄĳÄĳosa": 8725,
      "ĠNorge": 8726,
      "Ġ69": 8727,
      "ĠÃ¡lggu": 8728,
      "Ġguhk": 8729,
      "ĠInterreg": 8730,
      "Ġgeatnegahtton": 8731,
      "Ġatte": 8732,
      "vuoÃ°a": 8733,
      "Suohkan": 8734,
      "Vuor": 8735,
      "ram": 8736,
      "vvÃ¡": 8737,
      "eahka": 8738,
      "Ġgalgan": 8739,
      "ĠhÃ¡bmen": 8740,
      "EAPMI": 8741,
      "Ġvuolgit": 8742,
      "ika": 8743,
      "oÄįiel": 8744,
      "ĠÃ¡dj": 8745,
      "ise": 8746,
      "ĠÃ¡rrat": 8747,
      "Ġolggobeale": 8748,
      "Ġraporttas": 8749,
      "ĠeahpeÄįiel": 8750,
      "500": 8751,
      "gis": 8752,
      "ĠdÃ¡ht": 8753,
      "ali": 8754,
      "ĠMos": 8755,
      "ĠvÃ¡ldojuvvojit": 8756,
      "ĠÄįielggadan": 8757,
      "Ã¤rÃ¤j": 8758,
      "NAÄĮ": 8759,
      "geahÄįa": 8760,
      "earah": 8761,
      "Ġvearb": 8762,
      "Ġjoavkkuide": 8763,
      "ĠlÃ¡dd": 8764,
      "ied": 8765,
      "Ġnoh": 8766,
      "ÃģR": 8767,
      "ingv": 8768,
      "ĠgiellaguovddÃ¡Å¾at": 8769,
      "konom": 8770,
      "Ġkoordin": 8771,
      "Ġregistreren": 8772,
      "ĠSij": 8773,
      "ente": 8774,
      "odoaibma": 8775,
      "ĠEur": 8776,
      "ĠvuoÄĳÄĳog": 8777,
      "Ġulbmiliidda": 8778,
      "oahppol": 8779,
      "ĠLuonddub": 8780,
      "ĠgÃ¡rvvis": 8781,
      "veahki": 8782,
      "lÃ¡jat": 8783,
      "Ġoahppol": 8784,
      "jok": 8785,
      "isttat": 8786,
      "formÃ¡n": 8787,
      "Ġ1979": 8788,
      "Ġgeavahaneavttut": 8789,
      "ĠprinsihpalaÅ¡": 8790,
      "ĠÃ¡lgoÃ¡lbmogat": 8791,
      "antaa": 8792,
      "Ġrean": 8793,
      "Ġ650": 8794,
      "Ġmeannudeami": 8795,
      "Ġgovvida": 8796,
      "Ġdavimus": 8797,
      "Ġgulaskuddamii": 8798,
      "ĠpraktihkalaÅ¡": 8799,
      "iehtojuohkin": 8800,
      "hus": 8801,
      "vier": 8802,
      "ĠDÃ¡sa": 8803,
      "ullii": 8804,
      "ĠmÃ¡tta": 8805,
      "Ġduoddar": 8806,
      "iken": 8807,
      "Ġloahppa": 8808,
      "ĠsÃ¡mediggerÃ¡Äĳi": 8809,
      "ĠUtsi": 8810,
      "Ġsvenska": 8811,
      "Ã¡pmÃ¡i": 8812,
      "Ġduojis": 8813,
      "ĠbeaivvÃ¡laÄįÄįat": 8814,
      "Ġmeahcceguovllu": 8815,
      "jer": 8816,
      "Ġes": 8817,
      "uimmiid": 8818,
      "Ã¡lagaid": 8819,
      "amusat": 8820,
      "ĠBis": 8821,
      "gotti": 8822,
      "doaibman": 8823,
      "ĠstÃ¡htat": 8824,
      "ĠÃ¡vÅ¾Å¾uha": 8825,
      "fÃ¡gas": 8826,
      "RI": 8827,
      "Ġbe": 8828,
      "Ġvahk": 8829,
      "jeme": 8830,
      "rÃ¡Äĳis": 8831,
      "Ã¡Å¾at": 8832,
      "ĠoÄĳÄĳaÃ¡igÃ¡saÅ¡": 8833,
      "orustteg": 8834,
      "ĠBearrÃ¡igeahÄįÄį": 8835,
      "ĠRÃ¡ÄĳÄĳi": 8836,
      "Ġca": 8837,
      "jorg": 8838,
      "mÃ¤": 8839,
      "ĠDuÅ¡Å¡e": 8840,
      "Ġgeaidn": 8841,
      "ĠVantaa": 8842,
      "Ġnamuh": 8843,
      "ĠOahpah": 8844,
      "Ġofe": 8845,
      "Ã¸n": 8846,
      "ĠCo": 8847,
      "ĠIng": 8848,
      "ĠjoÄĳÃ¡nit": 8849,
      "ĠekologalaÅ¡": 8850,
      "mmallahti": 8851,
      "Bea": 8852,
      "Ã¡sn": 8853,
      "Ã¡ssi": 8854,
      "enis": 8855,
      "ktit": 8856,
      "ĠBargg": 8857,
      "Ġdohkkehii": 8858,
      "ĠÃĦ": 8859,
      "ĠgeahÄįÄįan": 8860,
      "organisaÅ¡uvnnaid": 8861,
      "Ġbargosajiid": 8862,
      "utoke": 8863,
      "kÃ¡rta": 8864,
      "vut": 8865,
      "Ġdet": 8866,
      "Ġpo": 8867,
      "ĠEvttoh": 8868,
      "oahpus": 8869,
      "ĠAnarÃ¢Å¡kielÃ¢": 8870,
      "Ġsajiin": 8871,
      "sihke": 8872,
      "Bargiid": 8873,
      "Eanet": 8874,
      "Ġsuorggi": 8875,
      "ĠYoutu": 8876,
      "Ġnanu": 8877,
      "Ġoaiviliid": 8878,
      "ĠWebdoaimmaheaddji": 8879,
      "ppii": 8880,
      "stÃ¡hta": 8881,
      "Ġoahppiid": 8882,
      "ĠInsta": 8883,
      "ĠOktiibuot": 8884,
      "katu": 8885,
      "ĠovddasvÃ¡stideaddji": 8886,
      "ĠÄįoakk": 8887,
      "Ġulbmilat": 8888,
      "ruovtt": 8889,
      ",...": 8890,
      "dasa": 8891,
      "ttalaÅ¡": 8892,
      "Ã¡iras": 8893,
      "ĠSin": 8894,
      "ĠSierra": 8895,
      "Ġlanj": 8896,
      "Ġak": 8897,
      "ĠÃ¡vki": 8898,
      "ĠHenriksen": 8899,
      "Artihkal": 8900,
      "Ġheitt": 8901,
      "Â±": 8902,
      "allin": 8903,
      "ĠBuoh": 8904,
      "Ġoktavuhtii": 8905,
      "alaÅ¾Å¾an": 8906,
      "ĠÃ¡n": 8907,
      "Ã¡mii": 8908,
      "ĠGea": 8909,
      "allojuvvojit": 8910,
      "olaÅ¡vuohta": 8911,
      "ortnegis": 8912,
      "ĠÃģrb": 8913,
      "ĠÃ¡lgÃ¡n": 8914,
      "Ġbuohkaid": 8915,
      "ereg": 8916,
      "ĠoahppofÃ¡lald": 8917,
      "Ġduovdd": 8918,
      "ĠhÃ¡llan": 8919,
      "idduid": 8920,
      "VÃ¡nddardanÄįuozÃ¡hagat": 8921,
      "den": 8922,
      "dor": 8923,
      "ĠfÃ¡mus": 8924,
      "III": 8925,
      "Ġgiehta": 8926,
      "ĠÃ¡Å¡Å¡iiguin": 8927,
      "tima": 8928,
      "Ġveahkkeneavv": 8929,
      "mÃ¡hcahat": 8930,
      "ielsen": 8931,
      "bbes": 8932,
      "Ġnjunn": 8933,
      "irjÃ¡i": 8934,
      "dieÄĳÃ¡husa": 8935,
      "eassadieÄĳÃ¡husat": 8936,
      "Ġsivva": 8937,
      "ohus": 8938,
      "Ġfargga": 8939,
      "obÃ¡i": 8940,
      "Ġstudeanttaid": 8941,
      "âĢ¦âĢ¦âĢ¦âĢ¦âĢ¦âĢ¦âĢ¦âĢ¦": 8942,
      "KÃ¡rÃ¡Å¡j": 8943,
      "ĠSciences": 8944,
      "Ġbohciid": 8945,
      "ĠYoutubes": 8946,
      "vvaide": 8947,
      "ujiid": 8948,
      "ĠnjÃ¡lmmÃ¡laÄįÄįat": 8949,
      "ĠvÃ¡lgabiire": 8950,
      "Ġ01301": 8951,
      "Dasa": 8952,
      "Sp": 8953,
      "Vern": 8954,
      "vrd": 8955,
      "Ġakt": 8956,
      "ĠÄĮa": 8957,
      "ĠrÃ¡hkada": 8958,
      "Ã¢n": 8959,
      "Inga": 8960,
      "Ġgoabbat": 8961,
      "Ġluohkk": 8962,
      "progrÃ¡mmas": 8963,
      "ĠgÃ¡vpedepartemeanta": 8964,
[...]
